<unk>	0
<s>	0
</s>	0
,	-3.11935
▁the	-3.59324
.	-3.60627
'	-3.70448
s	-3.78303
▁	-3.83901
▁de	-3.88941
▁of	-4.26462
▁la	-4.33307
▁to	-4.38339
▁and	-4.63177
▁et	-4.68892
▁l	-4.69655
▁a	-4.71668
▁le	-4.72584
▁d	-4.74891
▁in	-4.75703
▁des	-4.82535
▁les	-4.9121
à	-4.92888
▁que	-5.08894
▁is	-5.11874
e	-5.12546
▁en	-5.21704
▁that	-5.24232
▁on	-5.35361
ing	-5.35809
▁I	-5.39997
▁for	-5.46155
▁du	-5.48719
▁Commission	-5.49907
▁this	-5.53975
▁be	-5.6046
-	-5.68825
▁un	-5.69126
▁qui	-5.69371
▁ce	-5.6952
▁pour	-5.69741
▁s	-5.7438
▁nous	-5.74705
▁we	-5.81986
▁une	-5.83406
▁which	-5.84362
▁est	-5.87518
▁with	-5.87913
▁not	-5.88076
▁au	-5.93869
▁sur	-5.94311
ly	-5.95115
t	-5.98536
▁are	-5.99206
▁par	-6.0048
▁as	-6.00846
▁it	-6.03399
▁dan	-6.04862
▁pas	-6.07687
r	-6.0785
▁qu	-6.08258
▁Mr	-6.10706
▁have	-6.10828
d	-6.11966
ed	-6.1249
▁European	-6.15495
▁-	-6.15766
▁je	-6.17223
er	-6.19803
▁The	-6.22505
y	-6.23798
▁by	-6.24505
▁ne	-6.30114
▁J	-6.34571
▁plus	-6.35419
es	-6.3834
▁C	-6.38887
▁has	-6.41121
▁will	-6.42225
▁rapport	-6.4229
ment	-6.45549
▁would	-6.45964
▁report	-6.48404
nt	-6.48646
ons	-6.5154
▁Mon	-6.52792
est	-6.53856
▁n	-6.56232
▁il	-6.56469
▁concurrence	-6.57359
al	-6.58154
ans	-6.58628
re	-6.60836
▁aux	-6.61206
▁competition	-6.62305
sieur	-6.6382
▁c	-6.64321
▁Le	-6.64933
▁se	-6.68634
▁all	-6.69953
▁an	-6.6996
▁aid	-6.72351
il	-6.72436
▁also	-6.75811
▁politique	-6.76519
▁européenne	-6.77148
▁been	-6.79043
▁point	-6.81427
ir	-6.82364
▁President	-6.82414
▁like	-6.82531
▁Union	-6.83787
ant	-6.85657
▁should	-6.86841
ent	-6.86973
on	-6.88802
▁but	-6.88812
c	-6.90308
▁ces	-6.90941
▁at	-6.91135
▁We	-6.91147
▁policy	-6.9147
▁aides	-6.91709
▁must	-6.92148
▁there	-6.92512
▁États	-6.94588
▁you	-6.95367
▁Il	-6.95376
une	-6.95527
▁M	-6.95829
▁(	-6.95918
▁Member	-6.96167
▁no	-6.9739
in	-6.97621
▁Parlement	-6.97767
▁mais	-6.98033
a	-7.01259
▁être	-7.01267
▁vous	-7.01592
▁fait	-7.02059
é	-7.02535
▁This	-7.038
▁important	-7.0474
▁Europe	-7.05318
été	-7.05618
▁more	-7.06128
▁our	-7.06275
▁Parliament	-7.07084
▁sont	-7.08197
▁States	-7.08854
▁Nous	-7.09232
m	-7.09498
▁tout	-7.09597
un	-7.10033
▁me	-7.11092
▁membres	-7.11787
▁régions	-7.11942
▁these	-7.12477
▁La	-7.14503
ation	-7.15167
▁Président	-7.16019
▁do	-7.17118
▁or	-7.17159
▁ave	-7.17898
te	-7.19272
very	-7.1992
▁state	-7.20244
▁comme	-7.20356
▁It	-7.21575
▁so	-7.21703
▁ont	-7.22253
▁européen	-7.22262
▁regions	-7.22842
▁In	-7.23003
▁ou	-7.23844
▁si	-7.24514
▁my	-7.25146
▁re	-7.27124
▁social	-7.27332
Union	-7.27595
▁transport	-7.28028
▁was	-7.281
▁rapporteur	-7.29326
▁some	-7.2957
)	-7.31355
▁bien	-7.31959
▁market	-7.32268
▁voudrais	-7.3288
▁one	-7.33244
▁également	-7.33987
▁marché	-7.34341
▁entreprises	-7.3451
▁S	-7.34665
▁time	-7.35361
ette	-7.35434
▁A	-7.35515
▁can	-7.3555
▁j	-7.3607
▁take	-7.36209
▁its	-7.36494
▁need	-7.36756
▁regard	-7.39757
▁question	-7.39768
▁même	-7.40503
▁make	-7.417
▁L	-7.4277
ce	-7.43243
▁entre	-7.44722
▁what	-7.46111
▁proposition	-7.47267
▁development	-7.4817
n	-7.4818
▁part	-7.48322
▁aussi	-7.4836
▁développement	-7.48409
▁leur	-7.48652
▁up	-7.48709
▁fro	-7.4935
▁matière	-7.49565
▁très	-7.49568
▁situation	-7.49568
▁cet	-7.50689
▁national	-7.51026
▁vote	-7.52621
▁son	-7.52815
▁Madam	-7.53267
▁pays	-7.53382
▁faire	-7.53536
▁law	-7.54306
▁doit	-7.54659
▁E	-7.5502
ont	-7.5528
▁public	-7.55358
en	-7.55382
▁économique	-7.55617
▁:	-7.56917
▁commission	-7.57051
▁legal	-7.57185
État	-7.57209
▁P	-7.57232
▁certain	-7.57338
▁if	-7.57535
▁such	-7.58439
▁donc	-7.61212
▁protection	-7.61687
▁us	-7.6211
▁y	-7.62357
▁because	-7.62487
▁into	-7.62848
▁am	-7.6353
▁sécurité	-7.63882
▁therefore	-7.6397
▁Commissioner	-7.64035
▁peut	-7.65467
▁tous	-7.66273
▁En	-7.66818
▁economic	-7.68197
▁when	-7.6824
▁guidelines	-7.68253
▁other	-7.69569
▁out	-7.69851
▁o	-7.70756
▁about	-7.71091
▁between	-7.71121
▁now	-7.71261
▁who	-7.72376
▁debate	-7.7249
▁new	-7.72705
▁conditions	-7.7274
▁soit	-7.72923
▁mon	-7.73399
▁just	-7.74515
tte	-7.74516
▁way	-7.74748
th	-7.75559
▁directive	-7.75691
▁manière	-7.75737
▁support	-7.7622
ement	-7.76263
▁Ce	-7.76388
▁1	-7.7692
▁order	-7.77434
▁cela	-7.77549
▁any	-7.77583
▁cas	-7.78306
▁Mme	-7.79011
▁where	-7.79044
?	-7.79094
it	-7.79629
▁fact	-7.79958
▁?	-7.80371
▁issue	-7.80746
:	-7.80772
▁toute	-7.80814
▁fonds	-7.80856
▁Community	-7.82294
▁particularly	-7.82384
▁possible	-7.82392
▁débat	-7.82886
▁programmes	-7.83693
▁faut	-7.83951
▁encore	-7.83988
▁non	-7.84287
l	-7.84314
▁travail	-7.85056
▁being	-7.857
▁concern	-7.85879
▁avons	-7.86021
▁juridique	-7.87346
▁rules	-7.8756
▁respect	-7.88707
▁say	-7.89075
▁m	-7.8911
▁niveau	-7.892
▁work	-7.89291
▁system	-7.89324
▁pense	-7.89424
ai	-7.89817
▁region	-7.89931
▁rural	-7.89945
▁areas	-7.90381
▁groupe	-7.91422
▁dire	-7.9205
▁deux	-7.92424
ait	-7.92603
ù	-7.92849
▁Commissaire	-7.9287
▁cohésion	-7.92872
▁most	-7.93458
able	-7.93724
▁believe	-7.94756
▁two	-7.94774
▁importance	-7.95748
▁t	-7.96209
▁structurels	-7.96777
▁code	-7.96781
▁place	-7.96893
▁proposal	-7.96985
▁droit	-7.96992
▁car	-7.97156
▁concerne	-7.97486
ion	-7.97507
▁sa	-7.9763
▁than	-7.98639
▁programme	-7.98979
▁position	-7.99071
▁were	-7.99822
▁countries	-8.00639
▁contrôle	-8.01432
▁first	-8.02489
▁people	-8.0268
▁safety	-8.0269
▁vue	-8.03008
▁On	-8.03086
▁"	-8.03344
▁Funds	-8.0346
▁your	-8.03463
▁case	-8.04037
▁EU	-8.04285
▁great	-8.04897
▁orientations	-8.04965
▁secteur	-8.05169
CO	-8.05471
▁sociale	-8.05721
que	-8.06223
out	-8.06753
▁Schroedter	-8.0689
▁employment	-8.06937
▁made	-8.07007
elle	-8.07183
▁peu	-8.07406
▁demande	-8.07663
▁von	-8.07767
▁points	-8.08369
▁T	-8.08668
▁particular	-8.0888
▁still	-8.09065
▁ensure	-8.09449
▁see	-8.09721
▁put	-8.10948
▁well	-8.11441
▁règles	-8.11481
▁nécessaire	-8.11671
"	-8.1267
A	-8.13213
▁application	-8.13485
▁particulier	-8.13558
▁ainsi	-8.13563
emploi	-8.13608
hall	-8.13654
▁may	-8.13745
▁his	-8.13982
▁autorité	-8.14102
thing	-8.14895
le	-8.15577
▁jour	-8.15631
▁clear	-8.15847
▁matter	-8.16541
▁collègues	-8.16695
ée	-8.17133
▁p	-8.17619
hui	-8.17953
▁Theato	-8.18262
▁notamment	-8.18291
▁same	-8.18335
▁taken	-8.18575
▁services	-8.18631
▁them	-8.18831
▁Un	-8.18891
▁institutions	-8.19072
ujour	-8.19283
▁objectifs	-8.19687
tion	-8.19924
▁criminal	-8.20685
▁système	-8.207
▁economy	-8.20701
▁authorities	-8.20702
▁Fonds	-8.20772
▁temps	-8.20863
▁lors	-8.21042
▁intérêt	-8.21334
▁F	-8.21469
▁view	-8.21877
S	-8.22055
▁nom	-8.22919
▁Group	-8.23199
▁far	-8.23265
▁today	-8.23276
▁Article	-8.2344
▁effet	-8.23463
▁telle	-8.23762
▁contre	-8.23786
▁does	-8.24159
om	-8.24253
▁under	-8.24499
▁D	-8.24582
▁R	-8.24759
tructural	-8.25238
ve	-8.25751
▁But	-8.25756
▁those	-8.25771
▁principle	-8.25804
oivent	-8.25942
▁nouvelle	-8.25979
▁necessary	-8.26036
se	-8.26182
▁instrument	-8.26266
▁sujet	-8.26666
▁goods	-8.27374
▁transports	-8.27595
▁own	-8.28133
▁tant	-8.28319
▁Wogau	-8.28382
▁marchandise	-8.28401
▁dangerous	-8.28404
▁seulement	-8.28452
▁want	-8.28569
▁account	-8.28581
▁reform	-8.28731
▁attention	-8.28739
▁parce	-8.28949
▁concerned	-8.28965
▁consider	-8.29363
▁certains	-8.29409
fin	-8.2972
Europe	-8.30569
▁grande	-8.30633
;	-8.30732
▁even	-8.30836
▁ma	-8.31051
▁déjà	-8.31085
▁already	-8.31087
▁réforme	-8.31092
▁financial	-8.31096
▁plan	-8.3115
▁serait	-8.31313
▁give	-8.31359
ance	-8.31474
▁objectives	-8.31804
▁good	-8.32132
▁sector	-8.32314
▁level	-8.32324
▁compte	-8.32605
▁accord	-8.32808
▁able	-8.33198
▁Pour	-8.332
▁know	-8.334
many	-8.3354
▁As	-8.33766
ommittee	-8.33834
▁elle	-8.33943
▁devons	-8.33964
▁thank	-8.34016
▁There	-8.34125
ions	-8.34258
▁call	-8.34643
▁ré	-8.34796
▁ask	-8.34838
▁nationales	-8.34931
▁b	-8.34933
▁ses	-8.35423
▁intérieur	-8.36204
▁period	-8.36488
ous	-8.36669
▁période	-8.36723
▁création	-8.36724
▁through	-8.36725
▁steel	-8.3676
▁Mais	-8.36763
▁moment	-8.36793
▁sommes	-8.36854
▁since	-8.36871
▁future	-8.36901
▁savoir	-8.37053
ux	-8.37932
▁règlement	-8.37935
▁Si	-8.37961
▁amendments	-8.38041
▁form	-8.38521
▁too	-8.3887
▁area	-8.39617
▁Jonckheer	-8.39661
▁sui	-8.39688
▁cohesion	-8.39721
▁dangereuses	-8.3975
▁much	-8.39757
▁uvre	-8.40119
▁terms	-8.40341
▁regulations	-8.40436
▁voie	-8.40732
▁example	-8.40935
▁interests	-8.40936
▁communautaire	-8.40956
▁continue	-8.41175
▁vot	-8.41193
o	-8.41638
▁inter	-8.42089
▁mise	-8.4247
ublic	-8.42552
ordre	-8.42605
i	-8.42617
▁Re	-8.42657
▁Par	-8.42659
▁Treaty	-8.42691
▁industry	-8.42693
▁Monti	-8.42739
▁given	-8.42843
▁base	-8.42859
▁large	-8.42952
▁efforts	-8.43267
▁type	-8.43623
▁course	-8.4383
▁right	-8.43907
▁domaine	-8.44078
▁principe	-8.4412
▁questions	-8.44349
▁soi	-8.4476
▁cher	-8.45236
▁think	-8.45608
▁present	-8.45645
▁again	-8.45777
ci	-8.45806
▁establish	-8.45812
▁Koch	-8.45816
▁House	-8.45816
▁role	-8.45839
▁adopted	-8.45992
half	-8.46032
▁how	-8.46034
modernisation	-8.46131
▁Dan	-8.46164
▁structural	-8.46247
▁nombre	-8.46325
▁come	-8.46595
▁years	-8.47306
▁committee	-8.4731
▁State	-8.47391
is	-8.47451
économie	-8.47485
mettre	-8.47598
▁régionale	-8.47758
▁local	-8.47871
▁OLAF	-8.47986
ère	-8.48116
▁Présidente	-8.4868
um	-8.48701
▁lieu	-8.48733
▁companies	-8.49042
▁cadre	-8.49046
▁however	-8.49048
▁could	-8.49053
▁against	-8.49083
▁bonne	-8.49095
application	-8.49123
▁favour	-8.49132
▁specific	-8.49175
▁ligne	-8.49226
▁measures	-8.49254
▁vo	-8.49791
▁over	-8.49834
▁fois	-8.49982
▁done	-8.50054
▁go	-8.50197
▁mesures	-8.50225
▁here	-8.50645
ées	-8.50878
article	-8.51309
▁politiques	-8.51883
u	-8.52209
▁co	-8.52275
▁second	-8.52297
▁2000-2006	-8.52376
▁small	-8.52383
▁coordination	-8.52384
▁nouveau	-8.52447
▁why	-8.52509
▁businesses	-8.52633
moins	-8.52666
avoir	-8.52857
▁objectif	-8.52985
▁conclusions	-8.53667
had	-8.53866
▁f	-8.54397
ques	-8.54635
▁effective	-8.55326
▁grand	-8.55638
▁common	-8.55856
▁citoyens	-8.55923
▁exemple	-8.55934
▁last	-8.55946
agit	-8.56055
▁propos	-8.56099
▁funds	-8.56103
▁then	-8.56117
ies	-8.56266
gional	-8.56268
▁;	-8.56277
▁demand	-8.56421
▁amendements	-8.5649
▁problems	-8.5679
ès	-8.56881
▁problèmes	-8.57039
▁sous	-8.57337
▁discussion	-8.57612
▁procédure	-8.57653
▁sens	-8.57708
▁régionales	-8.57865
és	-8.58505
▁fraud	-8.58739
ient	-8.58772
▁subject	-8.58785
▁process	-8.59016
▁cannot	-8.59405
▁show	-8.59559
▁said	-8.59573
▁mis	-8.5968
▁dispositions	-8.59833
▁cha	-8.59933
▁étai	-8.59957
elles	-8.6027
▁quelques	-8.60325
▁av	-8.60987
▁year	-8.61704
ez	-8.61934
▁vie	-8.62046
particulièrement	-8.62054
▁cours	-8.62223
▁general	-8.62906
▁Council	-8.63099
▁beaucoup	-8.63099
▁sidérurgie	-8.63099
▁directrices	-8.63099
▁Berend	-8.63099
UE	-8.631
▁nationaux	-8.63102
▁draw	-8.63119
▁toujours	-8.63129
x	-8.63148
▁per	-8.63268
▁zones	-8.63329
▁1998	-8.63472
ther	-8.6382
▁aspects	-8.63963
▁avant	-8.64151
▁amendment	-8.65253
▁moi	-8.6552
▁elles	-8.65814
▁face	-8.66047
▁action	-8.66167
▁De	-8.66625
▁Affairs	-8.66945
▁Conseil	-8.66945
▁Prosecutor	-8.66945
▁besoin	-8.66947
▁blanc	-8.66948
▁nécessité	-8.66948
▁laquelle	-8.66955
rôle	-8.66986
st	-8.67361
ten	-8.67759
▁working	-8.67782
▁create	-8.6779
▁essential	-8.67877
▁set	-8.68462
▁certaine	-8.68994
▁raison	-8.69223
▁dit	-8.69448
▁interest	-8.695
▁fr	-8.69649
▁culture	-8.69653
▁long	-8.7027
▁cause	-8.70641
ivre	-8.70704
me	-8.70777
▁lorsqu	-8.70905
▁transparence	-8.70945
▁Paper	-8.70947
▁next	-8.70947
▁devrions	-8.70948
▁rather	-8.70952
▁qualité	-8.70965
▁va	-8.7107
▁ressources	-8.71136
mment	-8.71243
▁Co	-8.7146
▁jobs	-8.71637
ité	-8.71698
être	-8.71721
▁information	-8.72084
C	-8.729
abord	-8.73132
▁projet	-8.73387
▁bon	-8.73494
▁vari	-8.73541
▁hand	-8.73674
▁dé	-8.74383
each	-8.74622
▁business	-8.74789
making	-8.74867
▁Rapkay	-8.75111
▁budget	-8.75111
▁especially	-8.75111
▁pourquoi	-8.75123
▁devrait	-8.7513
▁after	-8.75137
▁implementation	-8.75158
▁apply	-8.75161
▁unemployment	-8.75197
▁veux	-8.75226
▁alors	-8.75229
▁financiers	-8.75236
▁cases	-8.75238
▁exigences	-8.75242
▁moyenne	-8.753
tre	-8.75422
▁lequel	-8.75469
▁autres	-8.75482
▁analyse	-8.75578
▁did	-8.76063
▁propose	-8.76339
▁décisions	-8.76677
▁Th	-8.77361
▁efficace	-8.77523
▁unique	-8.77576
▁mean	-8.7766
▁change	-8.77856
▁chose	-8.7786
prendre	-8.78141
▁Whi	-8.78144
▁celle	-8.78183
vent	-8.78724
▁fraude	-8.78747
▁concerns	-8.79148
ally	-8.79189
▁For	-8.79297
▁major	-8.79347
objectif	-8.79414
▁further	-8.79457
▁Mesdames	-8.79459
▁premier	-8.79459
▁Objective	-8.79459
▁Messieurs	-8.7946
▁policies	-8.79461
▁première	-8.79466
▁before	-8.79473
▁help	-8.79475
▁deuxième	-8.79476
▁surtout	-8.795
▁considération	-8.79505
les	-8.79513
▁sera	-8.79546
▁souvent	-8.79566
▁possibilité	-8.79574
▁quality	-8.79622
▁créer	-8.79655
ément	-8.79691
▁mentioned	-8.7971
voir	-8.79801
▁avez	-8.79833
▁1999	-8.79847
))	-8.79928
f	-8.79984
▁autre	-8.80003
▁end	-8.80064
▁Final	-8.8018
an	-8.80372
▁r	-8.80654
▁relative	-8.80687
autres	-8.81681
ec	-8.8172
▁pratique	-8.81888
▁petite	-8.82013
▁idea	-8.82258
▁Fund	-8.82262
▁conclusion	-8.82264
▁opinion	-8.82324
▁présent	-8.82336
▁deal	-8.82342
wards	-8.82348
ary	-8.82572
▁général	-8.82826
▁européennes	-8.8283
▁crois	-8.83049
▁secteurs	-8.83123
(	-8.83132
▁quant	-8.83404
tary	-8.83536
▁soutien	-8.8359
▁look	-8.83703
▁monétaire	-8.84006
▁monopolies	-8.84007
▁transparency	-8.84007
▁few	-8.84008
▁justice	-8.84008
▁single	-8.84013
▁celui	-8.84018
▁pouvoir	-8.84024
▁feel	-8.84025
▁direction	-8.84039
▁basis	-8.84048
▁least	-8.84075
conomic	-8.84202
▁requirements	-8.84306
▁force	-8.84686
▁provide	-8.84758
▁forward	-8.849
▁années	-8.85118
▁bo	-8.85418
us	-8.85437
accord	-8.85476
OLAF	-8.85522
▁vers	-8.85862
puis	-8.86378
trop	-8.86663
▁communautaires	-8.86764
▁dis	-8.869
▁décision	-8.86931
▁traité	-8.86954
▁route	-8.86971
▁result	-8.86991
▁reason	-8.87125
▁whe	-8.87175
dont	-8.87193
▁mesure	-8.87267
ber	-8.87673
▁administration	-8.87724
gislative	-8.88304
▁effect	-8.88422
▁tel	-8.88566
▁request	-8.88593
▁chômage	-8.88767
▁dernier	-8.88767
▁opportunity	-8.88767
▁disparities	-8.8877
▁competitiveness	-8.88771
▁analysis	-8.88772
▁hope	-8.88794
▁visant	-8.88798
▁réglementation	-8.8883
▁Comme	-8.88848
▁rail	-8.8885
▁faveur	-8.88855
▁certainty	-8.88911
▁standards	-8.89016
▁interna	-8.89043
▁achieve	-8.8913
▁précis	-8.89151
▁adopt	-8.89196
▁étant	-8.89247
▁Elle	-8.89426
▁If	-8.89591
▁her	-8.8974
▁catastrophe	-8.89932
▁constitue	-8.89999
▁use	-8.91347
▁problème	-8.92017
▁collègue	-8.92018
▁tenu	-8.92268
▁commune	-8.92459
▁institution	-8.92601
▁lack	-8.93587
▁serious	-8.936
▁garantir	-8.93645
▁No	-8.93672
▁he	-8.93731
▁However	-8.93769
▁processus	-8.93808
▁citizens	-8.93826
▁legislation	-8.93841
▁concentration	-8.93901
▁procureur	-8.93918
▁involved	-8.93941
▁remercier	-8.93955
ra	-8.93977
▁consideration	-8.94106
▁clearly	-8.94178
▁formation	-8.94234
▁CEN	-8.94413
▁ai	-8.9492
▁ke	-8.95556
▁projets	-8.95886
▁num	-8.96135
▁agree	-8.96678
ight	-8.96927
▁di	-8.97118
▁road	-8.97255
▁six	-8.97283
▁intervention	-8.97432
M	-8.97439
▁semble	-8.97628
▁État	-8.97677
▁voul	-8.9783
2	-8.97957
ependant	-8.97982
▁B	-8.98027
▁text	-8.98065
▁proposals	-8.98345
▁européens	-8.98498
▁excellent	-8.98584
▁politic	-8.98832
rait	-8.989
▁N	-8.98968
▁compétitivité	-8.9903
▁private	-8.9903
▁vigueur	-8.9903
▁faudra	-8.99032
▁positive	-8.99033
▁country	-8.99036
▁itself	-8.99063
▁though	-8.99093
▁clairement	-8.99121
▁notification	-8.99121
▁issues	-8.99198
▁appropriate	-8.99212
▁resources	-8.99283
▁pourrait	-8.99417
ness	-8.99473
▁every	-8.99489
même	-8.99526
▁proposed	-8.99612
▁outre	-8.99687
▁ceux	-8.99712
▁après	-8.99913
▁combat	-9.00076
▁lutte	-9.00154
▁avai	-9.00262
▁Com	-9.0031
▁decisions	-9.00727
▁ici	-9.01029
qu	-9.01075
8	-9.01243
▁8	-9.02054
rom	-9.02539
▁step	-9.03004
duction	-9.0308
▁responsabilité	-9.03094
▁First	-9.03282
▁simpl	-9.03461
▁decision	-9.03645
▁répond	-9.04011
▁real	-9.04052
▁prevent	-9.04354
▁porte	-9.04489
▁Palacio	-9.04585
▁cooperation	-9.04585
▁façon	-9.04585
▁Langen	-9.04586
▁medium	-9.04586
▁remote	-9.04589
▁programmation	-9.04592
▁remain	-9.04607
▁precisely	-9.04623
▁souligner	-9.04647
▁législation	-9.0469
▁monitoring	-9.04711
▁another	-9.04725
▁increasing	-9.04737
▁Assemblée	-9.04737
▁different	-9.04758
▁whole	-9.04781
lways	-9.04804
▁Court	-9.04873
ng	-9.04957
▁actuelle	-9.04989
▁sort	-9.05055
▁mes	-9.05135
6	-9.05335
▁obligation	-9.05338
emplois	-9.05373
▁used	-9.05553
▁off	-9.05565
▁comments	-9.05888
▁harmonisation	-9.059
▁So	-9.0619
▁puisqu	-9.06423
(1999)	-9.06851
ers	-9.06949
size	-9.07178
at	-9.0719
▁group	-9.07414
▁mois	-9.07491
▁main	-9.07551
▁play	-9.07568
▁président	-9.07854
▁aim	-9.07884
ou	-9.08212
▁norm	-9.08226
▁région	-9.08523
▁importante	-9.08553
▁administrative	-9.08654
▁document	-9.08675
▁accept	-9.08869
et	-9.08893
▁progress	-9.08957
▁pris	-9.09051
▁clair	-9.09293
▁conséquent	-9.09467
▁mention	-9.09646
▁wish	-9.09946
▁back	-9.09983
tant	-9.10153
▁include	-9.10365
▁implement	-9.10392
▁commissaire	-9.10468
▁gentlemen	-9.10468
▁advisers	-9.1047
▁croissance	-9.1047
▁growth	-9.10472
▁enlargement	-9.10473
▁indeed	-9.10474
▁pouvons	-9.10485
▁better	-9.10486
▁maintenant	-9.10488
▁creation	-9.1051
▁merger	-9.10517
▁Enfin	-9.10547
▁congratulate	-9.10585
▁training	-9.10595
▁expressed	-9.10622
▁extrême	-9.10624
▁monde	-9.10642
aide	-9.1066
▁down	-9.10676
▁yet	-9.10684
▁présenter	-9.10791
▁become	-9.10882
▁lui	-9.11017
port	-9.11075
▁ultrapériphéri	-9.11084
▁personnes	-9.11109
au	-9.11332
ts	-9.11922
▁uniform	-9.12037
ting	-9.12139
la	-9.12241
▁interventions	-9.12631
▁représente	-9.12748
▁seul	-9.13127
importance	-9.1338
h	-9.13514
aient	-9.1357
Le	-9.13797
vant	-9.13802
▁domaines	-9.13871
▁aucun	-9.14083
▁nu	-9.14085
▁sectors	-9.14297
té	-9.14373
▁affaire	-9.14452
▁exist	-9.14711
▁individual	-9.14838
▁égard	-9.14866
▁modification	-9.14914
▁risk	-9.14926
▁problem	-9.14966
ohesion	-9.15114
▁procedure	-9.15179
ur	-9.15541
ns	-9.15683
▁donné	-9.15694
▁partie	-9.15729
ern	-9.15765
▁actual	-9.1599
▁express	-9.16512
▁find	-9.16521
▁capital	-9.16677
▁difficult	-9.1669
▁Cour	-9.16691
▁intern	-9.167
▁Communauté	-9.16718
▁Policy	-9.16718
▁SMEs	-9.16718
▁subsidiarity	-9.16718
▁conseiller	-9.16719
▁société	-9.16722
▁Evans	-9.16725
▁mieux	-9.16729
▁conséquence	-9.16736
▁What	-9.16745
▁agenda	-9.16746
▁majority	-9.16746
▁résolution	-9.16768
▁responsable	-9.16782
▁population	-9.16882
▁responsibility	-9.16884
▁fall	-9.16899
▁five	-9.1692
▁remind	-9.16935
▁item	-9.16951
▁cinq	-9.16984
▁together	-9.17076
▁anti	-9.17284
▁permet	-9.17309
▁courts	-9.17486
▁upon	-9.17506
▁résultats	-9.17589
▁broad	-9.17659
▁lesquel	-9.17782
ri	-9.17807
▁seem	-9.1782
▁Vou	-9.17892
▁terme	-9.18017
▁ban	-9.18067
7	-9.18071
pendant	-9.18101
z	-9.18373
▁ailleurs	-9.18606
▁2	-9.18651
▁seen	-9.18662
▁stratégie	-9.18666
▁pu	-9.18817
mber	-9.1951
▁sustainab	-9.19549
▁global	-9.19789
▁garantie	-9.20084
dies	-9.20263
▁needs	-9.2033
venir	-9.20537
▁Au	-9.20602
▁improve	-9.21105
▁disaster	-9.21562
▁communication	-9.21569
aides	-9.21575
▁objective	-9.21635
▁regulation	-9.21678
action	-9.21766
▁quelque	-9.21858
▁lead	-9.2195
▁international	-9.22274
▁ha	-9.22496
eurs	-9.22556
▁context	-9.22587
▁économie	-9.22626
▁texte	-9.22678
ought	-9.22781
▁différence	-9.22987
▁existe	-9.23051
▁gr	-9.23075
▁increase	-9.23126
ite	-9.23198
▁pose	-9.23213
▁proper	-9.2323
▁total	-9.2336
▁nature	-9.23377
▁challenge	-9.23384
▁indispensable	-9.23384
▁paragraph	-9.23384
▁recherche	-9.23384
▁subsidiarité	-9.23384
▁périodique	-9.23385
▁kind	-9.23385
▁rappeler	-9.23385
▁judiciaire	-9.23387
▁France	-9.23394
▁priority	-9.23398
▁82	-9.234
▁commitment	-9.23407
▁practical	-9.23407
▁resolution	-9.23407
▁programming	-9.23416
▁fonctionnement	-9.23428
▁rapidement	-9.23433
▁production	-9.23466
▁aware	-9.23466
▁responsible	-9.23488
▁81	-9.23581
▁rien	-9.23634
▁appelle	-9.23672
lthough	-9.23687
▁Code	-9.23717
▁PPE	-9.23775
▁2000	-9.23796
▁provisions	-9.23829
▁protect	-9.23851
▁observations	-9.23883
▁periodic	-9.2394
▁doute	-9.23953
▁develop	-9.24046
▁high	-9.24086
▁réalisé	-9.24156
▁comment	-9.24185
alogue	-9.24359
▁assurer	-9.25
▁W	-9.25042
▁publics	-9.25316
▁groups	-9.2562
ted	-9.2568
R	-9.25696
entreprises	-9.25746
▁meilleure	-9.25896
▁aide	-9.25988
▁jus	-9.26111
▁central	-9.26116
▁pa	-9.26262
▁réelle	-9.26482
▁avis	-9.2692
▁essentiel	-9.27173
▁aura	-9.27339
ieurs	-9.27495
sez	-9.27511
elon	-9.27535
▁convien	-9.27897
▁demander	-9.28425
▁practice	-9.28594
▁durable	-9.28703
▁contribution	-9.2874
5	-9.28915
▁speak	-9.29312
▁régional	-9.29603
▁droits	-9.29603
outefois	-9.2983
▁plu	-9.29933
less	-9.30107
▁act	-9.30178
▁v	-9.30308
▁previous	-9.30311
▁tell	-9.30417
▁four	-9.30487
▁Rapport	-9.30522
▁PME	-9.30527
▁territoire	-9.30527
▁Conference	-9.30528
▁opportunities	-9.30528
▁Transport	-9.30528
▁Indeed	-9.30528
▁confiance	-9.30531
▁1996	-9.30533
▁supervision	-9.30537
▁Rapporteur	-9.30538
▁day	-9.30541
▁priorities	-9.30546
▁applied	-9.30546
espère	-9.30572
▁ourselves	-9.30587
▁money	-9.30614
▁différents	-9.30624
▁gestion	-9.30666
▁remercie	-9.30668
▁actuellement	-9.30698
▁enterprises	-9.30715
▁mind	-9.30725
▁draft	-9.30727
▁souten	-9.30782
▁open	-9.30804
▁months	-9.30867
▁là	-9.30897
▁presented	-9.31194
▁compétences	-9.31271
xième	-9.31495
▁eu	-9.31591
▁enfin	-9.3162
atteindr	-9.31807
▁rurales	-9.3194
▁initiatives	-9.32128
▁Members	-9.32273
▁detail	-9.32341
▁EC	-9.32876
▁get	-9.32976
ise	-9.33038
année	-9.33395
exprimer	-9.33559
amendement	-9.33569
▁reports	-9.33672
once	-9.33702
eme	-9.33705
▁reste	-9.33899
taking	-9.34398
uring	-9.34571
environnement	-9.34989
▁markets	-9.35029
avenir	-9.35046
avantage	-9.35064
▁date	-9.35094
avis	-9.35186
and	-9.35493
▁rapports	-9.35779
▁emplois	-9.35974
▁matters	-9.36012
▁guarantee	-9.36127
▁examination	-9.36184
▁donner	-9.36191
▁pens	-9.36269
▁Traité	-9.36391
▁applicable	-9.36415
▁dernière	-9.36487
▁link	-9.36488
▁favorable	-9.36514
▁Ou	-9.36537
▁relation	-9.36558
▁pro	-9.36636
▁tax	-9.36768
▁doubt	-9.36824
▁propre	-9.36944
▁passé	-9.37047
▁pénal	-9.37092
▁extr	-9.37129
▁pénale	-9.37165
▁commun	-9.37258
or	-9.37315
▁thre	-9.37362
▁aspect	-9.37485
▁hear	-9.37505
▁event	-9.37555
▁fort	-9.37756
aux	-9.37852
▁juridiques	-9.37865
▁current	-9.38033
▁simple	-9.38033
▁maxim	-9.38103
part	-9.38118
▁Social	-9.38218
▁correspond	-9.38219
▁dimension	-9.3822
▁fundamental	-9.3822
▁strategic	-9.3822
▁approach	-9.3822
interdiction	-9.38221
▁Wales	-9.38222
▁quatre	-9.38223
▁coopération	-9.38225
▁plutôt	-9.38227
▁including	-9.3824
▁sitting	-9.38243
▁nouveaux	-9.38262
▁firm	-9.38282
▁Aid	-9.38304
▁permettre	-9.38317
▁discussing	-9.38369
▁extent	-9.38383
▁tourisme	-9.38386
▁balance	-9.38405
▁toutefois	-9.3844
▁contenu	-9.38466
▁either	-9.38538
▁phase	-9.38553
▁improved	-9.38671
équilibre	-9.38739
▁pauvres	-9.38878
▁recommandations	-9.3888
▁quand	-9.38935
▁firstly	-9.38967
ations	-9.39068
▁priorités	-9.3946
▁agreements	-9.39609
▁via	-9.39989
▁dernières	-9.40022
▁guarantees	-9.40044
▁equal	-9.40137
▁parler	-9.40159
▁articles	-9.40169
▁past	-9.40348
id	-9.40369
▁environment	-9.40698
▁économiques	-9.40766
▁trois	-9.40851
▁contain	-9.41091
ne	-9.41165
▁reasons	-9.41169
I	-9.41173
▁forme	-9.4129
▁hav	-9.41543
▁represent	-9.41751
▁raisons	-9.4181
▁term	-9.41812
▁fo	-9.41928
implication	-9.42096
▁pe	-9.42282
eur	-9.42399
▁Region	-9.42494
▁trouv	-9.42553
ités	-9.42655
▁trouve	-9.42661
▁accords	-9.42763
▁engage	-9.42835
▁marchés	-9.42862
activité	-9.42911
▁com	-9.4292
sorte	-9.42996
élargissement	-9.43154
ils	-9.43199
efficacité	-9.43246
estime	-9.43477
▁concept	-9.43557
1	-9.43598
▁environmental	-9.43935
▁puisse	-9.44108
rely	-9.44138
▁port	-9.44148
▁strict	-9.44259
▁follow	-9.44306
prises	-9.44711
▁solution	-9.44742
▁délai	-9.44761
▁ex	-9.45028
▁nombreu	-9.45218
▁structurelle	-9.45451
▁structure	-9.45601
▁Cel	-9.45613
▁présenté	-9.45797
▁positions	-9.45958
▁actuel	-9.45991
▁parti	-9.4633
▁15	-9.46463
ory	-9.46509
▁GDP	-9.46553
▁Galles	-9.46553
▁minimum	-9.46553
▁perspective	-9.46553
▁travaux	-9.46553
▁convergence	-9.46553
▁amount	-9.46553
▁procès	-9.46553
▁Justice	-9.46553
▁jamais	-9.46553
▁research	-9.46554
▁PIB	-9.46555
▁wealth	-9.46555
▁tomorrow	-9.46558
▁caract	-9.46561
▁start	-9.46561
autorisation	-9.46563
▁devraient	-9.46563
▁participation	-9.4657
▁introduce	-9.46571
▁naturellement	-9.46572
▁Party	-9.46573
▁economies	-9.46573
▁society	-9.46586
▁pleased	-9.4659
▁difficultés	-9.4659
▁majorité	-9.46594
▁enough	-9.46598
▁specifically	-9.4662
▁veiller	-9.4665
▁granted	-9.46652
▁life	-9.46653
▁Germany	-9.46663
▁control	-9.46677
▁assessment	-9.46681
▁independent	-9.46689
▁urban	-9.46696
rench	-9.46735
▁And	-9.4674
▁corp	-9.46797
▁emphasis	-9.46874
▁ordre	-9.4689
▁words	-9.469
▁absolute	-9.46969
▁tabled	-9.46976
▁tribuna	-9.47046
▁share	-9.4711
▁demain	-9.4711
▁minute	-9.47139
▁données	-9.47248
▁spécifiques	-9.47279
▁H	-9.47482
▁voting	-9.4767
ful	-9.47949
▁3	-9.4797
▁tien	-9.48209
▁propres	-9.48319
▁année	-9.48354
▁su	-9.48359
▁G	-9.4836
▁million	-9.4836
▁poor	-9.48378
▁O	-9.49057
▁veu	-9.4912
▁poursuite	-9.49141
▁stand	-9.49327
as	-9.49488
▁mal	-9.49506
établir	-9.49565
▁let	-9.49613
▁particulière	-9.49621
▁basic	-9.49706
▁To	-9.49827
▁among	-9.49831
▁1999/212	-9.49878
▁attend	-9.49981
▁changes	-9.50159
ar	-9.50279
til	-9.50431
▁Sur	-9.50478
autre	-9.5051
▁fer	-9.50721
ification	-9.50725
up	-9.51194
▁aucune	-9.51245
g	-9.51245
▁li	-9.51313
ompetition	-9.5136
▁human	-9.51388
▁refer	-9.51647
de	-9.51783
▁seron	-9.51827
amélioration	-9.52087
F	-9.52119
utilisation	-9.52325
ensemble	-9.5235
ter	-9.5269
▁article	-9.52713
▁juris	-9.52764
▁met	-9.53203
ether	-9.53212
nce	-9.53678
▁partenariat	-9.53683
▁partnership	-9.53683
▁field	-9.53751
▁br	-9.53777
▁improv	-9.54262
▁effort	-9.54401
▁All	-9.54496
▁touche	-9.54523
▁vrai	-9.54648
▁amend	-9.54701
paraît	-9.54755
▁grave	-9.54931
▁Tout	-9.54983
▁intention	-9.54988
▁initiative	-9.55011
▁adopté	-9.5507
▁générale	-9.55121
▁success	-9.55164
eux	-9.55264
▁appel	-9.55378
▁sufficient	-9.55438
▁th	-9.55502
▁efficient	-9.55634
▁confidence	-9.55644
▁criteria	-9.55644
▁flexibility	-9.55645
DE	-9.55646
verbal	-9.55646
▁sociaux	-9.55646
▁manner	-9.55647
▁critère	-9.55647
▁efficiency	-9.55648
▁world	-9.55648
▁above	-9.55649
▁capable	-9.55652
▁malheureusement	-9.55664
▁unacceptable	-9.55694
▁acceptable	-9.55697
▁compris	-9.55699
▁name	-9.55731
▁délits	-9.55746
▁planning	-9.55756
▁vraiment	-9.55763
hard	-9.55848
▁quoi	-9.55855
▁limited	-9.55859
▁currently	-9.55868
▁suite	-9.5587
▁bring	-9.55927
▁inégalités	-9.5593
▁féliciter	-9.55947
▁auxquel	-9.55957
▁comité	-9.55968
▁increased	-9.56004
▁transit	-9.5602
▁suivre	-9.56026
▁thus	-9.56032
▁direct	-9.56094
▁affect	-9.56118
▁bear	-9.56169
▁manque	-9.56351
▁longer	-9.56403
▁competitive	-9.56518
▁partage	-9.56552
▁agreed	-9.56598
▁encourage	-9.56619
▁supported	-9.56666
▁contexte	-9.56758
▁sociales	-9.56822
▁Office	-9.56823
▁locales	-9.56883
▁speaker	-9.56914
ttle	-9.5693
▁é	-9.56937
▁relat	-9.57038
way	-9.57079
▁projects	-9.57292
▁things	-9.57351
ième	-9.57465
▁table	-9.57491
▁autant	-9.57629
▁sense	-9.57689
▁ni	-9.57841
▁procedures	-9.58462
▁principal	-9.58707
▁note	-9.58906
▁charge	-9.58992
ie	-9.59037
▁wh	-9.59282
▁choses	-9.59512
fully	-9.59532
▁sever	-9.59605
▁dés	-9.59609
▁extensi	-9.59658
▁referr	-9.59751
▁continu	-9.59959
▁allow	-9.60027
▁impose	-9.60046
▁whil	-9.60066
▁prochaine	-9.60105
▁g	-9.6018
▁raise	-9.60262
▁vu	-9.60415
quel	-9.60747
coming	-9.60956
res	-9.61039
▁Not	-9.61304
ity	-9.6135
▁seule	-9.61353
▁eux	-9.61484
▁entend	-9.61669
▁levels	-9.61682
Parliament	-9.61875
▁sais	-9.61896
▁privé	-9.62097
idée	-9.62204
ayant	-9.62335
examen	-9.62447
▁grandes	-9.62709
most	-9.62731
▁nécessaires	-9.63115
▁assist	-9.63158
ire	-9.63455
▁fin	-9.63591
▁purpose	-9.63777
▁project	-9.63859
▁job	-9.63886
▁power	-9.64062
▁agreement	-9.64115
▁montre	-9.64144
▁milieu	-9.6443
▁urge	-9.64517
▁promoti	-9.6452
▁renationalis	-9.64644
▁envisage	-9.64732
▁crucial	-9.64775
▁uniforme	-9.64845
▁content	-9.65089
▁understand	-9.65158
▁exige	-9.65244
▁welcome	-9.65345
▁highlight	-9.65457
▁prior	-9.65496
▁évite	-9.65627
▁félicite	-9.65642
VIII	-9.65644
▁Thyssen	-9.65644
▁Tourism	-9.65644
▁consequence	-9.65644
▁difficile	-9.65644
▁preuve	-9.65644
▁strategy	-9.65644
▁function	-9.65644
▁Prodi	-9.65644
▁women	-9.65644
▁framework	-9.65645
▁rappelle	-9.65648
▁collaboration	-9.65648
▁excessive	-9.65648
▁réalité	-9.65649
▁régime	-9.65649
▁exclusive	-9.6565
▁1997	-9.65651
▁restrictions	-9.65654
▁begin	-9.65655
▁sérieux	-9.65657
▁véritable	-9.6566
▁safeguard	-9.65667
▁hence	-9.65676
▁declared	-9.65686
▁authority	-9.657
▁him	-9.65713
▁12	-9.6572
▁révision	-9.65723
▁contraire	-9.65725
▁modifier	-9.65764
▁focus	-9.65768
▁approved	-9.65771
▁expect	-9.65791
▁complete	-9.65805
▁governments	-9.65806
▁construction	-9.65843
▁signifie	-9.65856
▁peux	-9.6586
▁minimales	-9.65883
▁différentes	-9.65968
▁monopoles	-9.66033
▁stage	-9.66048
▁renforcer	-9.6608
▁carrie	-9.66104
▁true	-9.66119
▁judicial	-9.6612
▁following	-9.6612
▁158	-9.66248
▁correcte	-9.66256
▁fusions	-9.66324
près	-9.66371
▁ship	-9.66518
▁Socialists	-9.66519
▁provided	-9.66521
ic	-9.66559
▁body	-9.66589
▁company	-9.66622
▁benefit	-9.66672
▁grant	-9.66743
▁import	-9.66757
▁absolu	-9.66834
▁sources	-9.66843
▁experience	-9.66989
▁25	-9.67019
▁gouvernements	-9.67024
▁arrive	-9.67091
oth	-9.67237
▁tru	-9.67321
▁potential	-9.67328
aire	-9.67523
▁needed	-9.67593
▁risque	-9.67641
▁structurelles	-9.67654
▁accidents	-9.67844
all	-9.67874
our	-9.67978
▁manufactur	-9.68016
▁évaluation	-9.6806
▁office	-9.68135
▁session	-9.68216
▁agriculture	-9.68223
▁améliorer	-9.68244
▁aims	-9.68357
▁ever	-9.6855
mi	-9.68714
▁i	-9.69052
▁1,	-9.69079
▁riches	-9.69243
▁initial	-9.69286
▁centrale	-9.6929
▁short	-9.69372
gré	-9.69395
▁ensemble	-9.69429
▁centre	-9.69505
ty	-9.69515
side	-9.69707
▁fond	-9.69734
uvent	-9.69754
▁mer	-9.69805
▁define	-9.70025
▁close	-9.70315
étai	-9.70518
▁profit	-9.70601
▁ten	-9.70715
▁celles	-9.70785
▁soumis	-9.70805
▁ad	-9.70812
analyse	-9.70904
▁mi	-9.71113
▁grands	-9.71209
ive	-9.71874
accent	-9.72298
▁Or	-9.72833
EC	-9.72912
▁oppose	-9.72916
▁Wh	-9.73095
heure	-9.73268
▁quelle	-9.73277
▁défini	-9.73327
obje	-9.73402
ailleurs	-9.73407
esprit	-9.7341
related	-9.73475
▁20	-9.73592
T	-9.7365
▁divers	-9.74243
▁dépense	-9.74373
▁voter	-9.74443
▁promo	-9.74587
évolution	-9.74649
▁states	-9.74675
▁sh	-9.74684
▁maritime	-9.7478
▁stratégique	-9.74791
▁retard	-9.74847
▁sensible	-9.74887
▁dossier	-9.74925
▁infrastructure	-9.74939
▁service	-9.74988
▁priorité	-9.74999
▁operation	-9.75304
▁special	-9.75357
▁réserve	-9.75366
▁pré	-9.75389
▁évoque	-9.75558
▁addition	-9.75568
rée	-9.7572
▁doive	-9.75765
▁voir	-9.75838
▁creat	-9.76001
▁trans	-9.76021
▁speech	-9.76342
▁évoqué	-9.7636
▁groupes	-9.76424
▁proposé	-9.76448
▁occasion	-9.76488
▁suggest	-9.7653
▁Tha	-9.76552
époque	-9.76755
▁Député	-9.76755
▁Minutes	-9.76755
▁bureaucratie	-9.76755
▁femmes	-9.76755
▁obstacle	-9.76755
▁genuine	-9.76755
▁progrès	-9.76756
▁activities	-9.76756
▁locaux	-9.76759
▁offences	-9.76763
▁relève	-9.76763
▁degree	-9.76765
▁quickly	-9.76768
▁prix	-9.76769
▁chacun	-9.76771
▁souligné	-9.76779
▁habitant	-9.76781
▁integration	-9.76796
▁keep	-9.76796
▁assess	-9.768
▁obvious	-9.76813
▁carefully	-9.76814
▁faisant	-9.76821
▁unanimous	-9.76842
ever	-9.76854
▁montant	-9.76857
▁coup	-9.76916
▁entendu	-9.76933
▁définition	-9.76959
▁police	-9.76985
▁savons	-9.77004
▁e	-9.77024
▁activity	-9.77025
▁along	-9.77027
▁parole	-9.77033
▁competence	-9.77072
▁référence	-9.77076
▁never	-9.77078
▁simplement	-9.7708
▁demandé	-9.77081
▁diverses	-9.77088
▁disparités	-9.77098
▁raised	-9.77104
▁enforcement	-9.77108
▁exemption	-9.77127
▁properly	-9.77138
▁financement	-9.7716
▁effectivement	-9.77162
▁souhaite	-9.77171
▁souhaité	-9.77177
SEC	-9.77196
▁seriously	-9.77202
▁harmonis	-9.77334
▁improvement	-9.774
▁promote	-9.77549
▁espér	-9.77602
ely	-9.77741
▁justement	-9.77787
hing	-9.77807
▁islands	-9.77843
▁prie	-9.77843
▁importants	-9.77909
▁régulière	-9.77948
▁socialistes	-9.77957
▁cur	-9.77959
▁produits	-9.77986
k	-9.78014
▁based	-9.78088
▁chances	-9.78161
▁députés	-9.78169
▁impact	-9.78214
sent	-9.78362
rendre	-9.78433
reference	-9.78478
▁idée	-9.78495
▁exemptions	-9.78628
▁comp	-9.78704
▁demonstrate	-9.78778
▁fi	-9.78838
▁graves	-9.78849
▁risques	-9.78887
▁conform	-9.79057
▁offre	-9.7906
▁délais	-9.79237
▁light	-9.79244
▁enter	-9.79303
▁connaiss	-9.7937
agir	-9.79487
▁relations	-9.7953
p	-9.79578
▁structures	-9.79635
▁hier	-9.79791
▁CE	-9.79813
▁amendement	-9.79815
/1999	-9.79892
▁suffisa	-9.79918
▁concerna	-9.80096
▁live	-9.80362
aid	-9.80437
▁augmenter	-9.8055
▁integrat	-9.80559
▁acte	-9.80564
▁thing	-9.8087
ais	-9.80878
cal	-9.81044
▁utilisation	-9.81056
▁dispos	-9.81122
giving	-9.81258
▁considér	-9.81268
▁environnement	-9.81283
▁efficacité	-9.81408
▁effects	-9.81519
▁petit	-9.81948
▁activité	-9.81971
mmittee	-9.82487
▁desp	-9.82963
▁4	-9.82968
llow	-9.82993
▁relate	-9.82993
▁considerabl	-9.83025
▁prochain	-9.83106
▁réduir	-9.83313
▁enable	-9.83441
▁rights	-9.8351
ate	-9.84195
entreprise	-9.84633
▁chargé	-9.84651
▁13	-9.84657
▁adopte	-9.8497
▁St	-9.85057
by	-9.85077
▁finance	-9.85078
el	-9.85093
▁importantes	-9.85477
government	-9.85627
▁al	-9.85745
▁5	-9.85796
existence	-9.85803
ixth	-9.85822
intérêt	-9.85831
D	-9.85888
information	-9.85922
CE	-9.85972
moi	-9.86093
▁correct	-9.86093
▁relevan	-9.86276
ll	-9.86432
dire	-9.86437
attend	-9.86751
▁agiss	-9.86827
▁pourra	-9.86875
▁Des	-9.86935
▁con	-9.8694
▁dispose	-9.87047
état	-9.87239
ches	-9.87267
session	-9.87268
▁achiev	-9.87348
▁week	-9.87383
▁semaine	-9.87404
▁task	-9.87425
eront	-9.87446
▁constat	-9.87523
▁résultat	-9.87551
▁changement	-9.87734
teel	-9.87872
▁jou	-9.88367
▁emphasise	-9.88771
▁happen	-9.88908
▁men	-9.88926
onférence	-9.88964
▁agricultur	-9.88984
▁conclude	-9.88984
ning	-9.89021
▁strengthen	-9.89069
▁fonction	-9.8908
▁capita	-9.89134
▁résolu	-9.89152
▁cost	-9.89234
Plath	-9.89255
▁280	-9.89255
▁Hatzidakis	-9.89255
▁January	-9.89255
▁janvier	-9.89255
▁îles	-9.89255
▁Ireland	-9.89255
▁Leader	-9.89255
▁Deuxième	-9.89255
▁préalable	-9.89256
▁Merci	-9.89256
▁Voilà	-9.89256
▁parliamentary	-9.89256
▁message	-9.89256
▁positif	-9.89256
▁ensuite	-9.89257
▁Seattle	-9.89257
▁instead	-9.89258
▁biais	-9.89258
▁energy	-9.89259
▁libre	-9.8926
▁début	-9.89261
ouverture	-9.89263
▁status	-9.89264
▁socio	-9.89266
▁succès	-9.89268
▁1995	-9.8927
▁forget	-9.89275
▁data	-9.89276
▁evaluation	-9.89279
▁jugement	-9.89285
▁diversity	-9.89285
▁souci	-9.89286
▁conclure	-9.89287
▁East	-9.89288
▁départ	-9.89293
▁Bar	-9.89319
▁With	-9.89326
▁sept	-9.89343
▁16	-9.89351
▁convention	-9.89362
▁living	-9.89369
▁repeat	-9.89383
offrir	-9.89395
▁schemes	-9.89402
▁catégories	-9.89402
▁subventions	-9.89402
▁consommateurs	-9.89404
▁meet	-9.89449
▁parle	-9.89452
▁présentation	-9.89461
▁joint	-9.89462
▁distribution	-9.8948
▁considerably	-9.89483
▁funding	-9.89503
▁definition	-9.89513
parcours	-9.89515
▁jeunes	-9.89529
▁Why	-9.89535
▁spent	-9.8954
▁available	-9.89546
▁Europol	-9.89558
▁ambition	-9.8956
▁argument	-9.89589
▁inquiétudes	-9.89641
▁reduce	-9.89657
▁assistance	-9.89722
▁requested	-9.89732
▁carry	-9.89787
▁decentralised	-9.89797
5-012	-9.898
▁differences	-9.89884
▁included	-9.89888
eover	-9.8999
▁established	-9.89994
▁speaking	-9.90035
▁considered	-9.90095
▁less	-9.90125
4	-9.90137
▁publiques	-9.9015
▁transportation	-9.90197
▁imp	-9.90201
▁regist	-9.90254
▁motion	-9.90285
directly	-9.90336
approche	-9.90345
▁recommendations	-9.90383
▁address	-9.90471
ready	-9.90496
▁goes	-9.90526
▁h	-9.90667
▁others	-9.90688
▁distortion	-9.90705
▁detriment	-9.9079
ses	-9.90901
▁1994	-9.90935
▁élaboration	-9.9094
▁cohéren	-9.90948
▁requires	-9.90971
▁thinking	-9.90989
ilité	-9.91035
▁Mor	-9.91035
to	-9.91105
age	-9.91188
▁involve	-9.91441
▁placed	-9.91591
▁appliqué	-9.9163
ue	-9.91631
▁employ	-9.91721
ici	-9.91765
▁actes	-9.92002
▁applicables	-9.92334
ique	-9.9244
▁voulo	-9.92851
▁statement	-9.92852
▁assure	-9.92855
ap	-9.92927
▁significan	-9.92979
▁risks	-9.93059
▁pourron	-9.93071
▁évolution	-9.93138
▁documents	-9.9331
▁présidents	-9.93324
▁voi	-9.9333
▁termes	-9.93502
▁accompli	-9.93711
▁attire	-9.93721
▁best	-9.93981
▁fa	-9.9401
▁regret	-9.94145
▁results	-9.94269
pe	-9.94385
cy	-9.94387
▁prévoi	-9.94777
▁votes	-9.94846
▁contribuer	-9.95455
▁substanti	-9.95456
ial	-9.95498
he	-9.95565
▁2.	-9.95642
fois	-9.9593
▁procédures	-9.96026
▁fais	-9.96141
▁doing	-9.96206
leurs	-9.9628
▁expir	-9.96319
▁wide	-9.96539
▁proposer	-9.96667
ad	-9.96675
euros	-9.96821
▁Ri	-9.97318
▁atteint	-9.9735
▁mission	-9.97537
industrie	-9.9784
ut	-9.98088
▁effectué	-9.98088
▁full	-9.98136
▁transparent	-9.98191
▁oral	-9.98345
nous	-9.98483
▁prise	-9.98657
▁fixe	-9.98702
égalité	-9.98846
▁appliquée	-9.98968
roisième	-9.98985
▁diminu	-9.99064
▁euro	-9.99092
ating	-9.9914
ix	-9.99157
▁réseau	-9.99863
▁approuvé	-9.99934
autorité	-9.99958
remière	-10.0001
term	-10.0011
absence	-10.0013
Erika	-10.0014
évaluation	-10.0015
harmonisation	-10.0017
améliorer	-10.002
▁Comm	-10.0024
econd	-10.0033
▁intend	-10.0034
assurer	-10.0049
▁gouvernement	-10.0075
▁examine	-10.0079
▁court	-10.008
▁fe	-10.0085
▁promot	-10.0088
nationalisation	-10.0105
▁40	-10.0107
▁require	-10.0116
▁défi	-10.012
▁instaur	-10.0132
O	-10.0136
▁urbain	-10.0148
▁parlementaire	-10.0154
▁réflexion	-10.0154
▁agricole	-10.0154
▁explanation	-10.0155
▁entr	-10.0157
▁larges	-10.0163
▁député	-10.0172
▁membre	-10.0174
▁disposition	-10.0183
▁chance	-10.0184
triment	-10.0191
▁accident	-10.021
▁organisation	-10.0251
▁systems	-10.0253
▁greate	-10.0253
▁line	-10.0256
refore	-10.0267
▁observ	-10.0273
▁fail	-10.0288
ge	-10.0292
▁donne	-10.0294
ront	-10.0308
▁lié	-10.0312
▁poursuivr	-10.0318
onner	-10.033
▁German	-10.0335
▁review	-10.0335
▁avoid	-10.0344
▁vis	-10.0346
entre	-10.0347
▁claire	-10.0347
▁How	-10.0353
▁Fruteau	-10.0354
▁bureaucracy	-10.0354
▁clarté	-10.0354
▁staff	-10.0354
▁yesterday	-10.0354
▁explain	-10.0354
▁operators	-10.0354
▁surveill	-10.0354
▁shift	-10.0354
▁considère	-10.0354
▁Directive	-10.0354
▁Lanka	-10.0354
▁menace	-10.0354
▁connection	-10.0354
▁longtemps	-10.0354
▁contribuables	-10.0354
▁advance	-10.0354
▁flexibilité	-10.0354
▁séance	-10.0355
▁boost	-10.0355
▁Treaties	-10.0355
▁spirit	-10.0355
▁2002	-10.0355
▁Italy	-10.0355
▁orientale	-10.0355
▁jeudi	-10.0355
▁optimale	-10.0355
▁survey	-10.0355
▁third	-10.0355
▁rapprochement	-10.0355
▁submitted	-10.0356
▁bodies	-10.0356
▁openness	-10.0356
▁capacity	-10.0356
▁useful	-10.0356
▁worth	-10.0357
▁pleinement	-10.0357
▁titre	-10.0357
▁respond	-10.0358
▁terminer	-10.0358
▁legitimate	-10.0359
▁sanction	-10.036
▁probablement	-10.036
▁response	-10.0361
▁undertaken	-10.0361
▁free	-10.0361
▁overcome	-10.0361
▁briefly	-10.0362
▁procéder	-10.0363
▁super	-10.0364
▁Kar	-10.0365
▁consultation	-10.0365
▁permettent	-10.0366
▁discussed	-10.0367
▁faisons	-10.0368
▁déclaré	-10.0368
▁management	-10.0369
▁workers	-10.0371
▁register	-10.0372
▁exact	-10.0373
▁While	-10.0374
▁prenne	-10.0375
▁unfortunately	-10.0377
▁lettre	-10.0379
▁Ceci	-10.0379
dly	-10.0381
▁mentionné	-10.0381
▁directement	-10.0384
▁annual	-10.0386
▁American	-10.0386
▁found	-10.0386
▁presentation	-10.0387
encontre	-10.0388
▁30	-10.0388
▁Internet	-10.039
▁évidence	-10.039
▁organisme	-10.0391
▁seven	-10.0392
▁industrial	-10.0398
▁instant	-10.0398
tended	-10.0398
▁implemented	-10.0399
▁proceedings	-10.0399
▁réjouis	-10.04
▁richesse	-10.04
▁continuer	-10.0401
▁meeting	-10.0401
▁ago	-10.0403
▁closed	-10.0403
▁press	-10.041
▁technologies	-10.0413
▁fournir	-10.0414
▁accepted	-10.0415
▁vise	-10.0421
▁octroyé	-10.0421
▁concernés	-10.0424
▁associations	-10.0428
".	-10.0432
▁successful	-10.0432
▁setting	-10.0433
▁generally	-10.0434
▁CECA	-10.044
▁wishes	-10.0441
▁expérience	-10.0441
▁devienne	-10.0447
ulf	-10.0454
▁ground	-10.0455
▁representatives	-10.0456
border	-10.0464
▁consistent	-10.0473
▁created	-10.0473
▁concrètes	-10.0484
▁suffi	-10.0486
▁réalis	-10.0491
▁94	-10.0494
▁spend	-10.0497
▁crimes	-10.0507
intégr	-10.0509
▁critiques	-10.0511
▁optim	-10.0513
▁offer	-10.0516
▁consiste	-10.0522
▁strong	-10.0528
insister	-10.053
▁emploi	-10.0536
▁reprises	-10.0555
tage	-10.0556
van	-10.0564
▁prot	-10.0579
inland	-10.058
▁tra	-10.0589
▁dossiers	-10.0598
▁déplore	-10.0605
▁orient	-10.0614
ein	-10.0616
▁montrer	-10.0621
▁contribute	-10.0625
▁powers	-10.0626
▁outil	-10.0647
delà	-10.066
▁voté	-10.066
▁sea	-10.0691
▁bénéficie	-10.0705
▁Erika	-10.0706
▁absence	-10.0707
tive	-10.0725
▁infrastructures	-10.0737
gouvernementale	-10.0739
value	-10.0739
▁contributions	-10.0742
ale	-10.0743
▁serve	-10.075
▁totale	-10.0762
▁discipline	-10.0765
▁inform	-10.0772
volving	-10.0774
▁existence	-10.0775
▁modifi	-10.0777
one	-10.0783
▁appropriée	-10.0791
▁modifications	-10.0798
▁hi	-10.0807
▁esprit	-10.0809
▁produce	-10.0815
▁soon	-10.0827
▁add	-10.084
▁lo	-10.0859
uvai	-10.0864
▁roads	-10.0877
connaître	-10.088
▁demeure	-10.0882
▁précédente	-10.0891
▁présentée	-10.091
▁dev	-10.0922
▁parties	-10.093
▁final	-10.0936
▁mérite	-10.0944
▁français	-10.0952
▁reconnu	-10.0956
▁ratifie	-10.0967
▁Bru	-10.097
▁recent	-10.0978
▁access	-10.0979
▁vi	-10.0984
▁efficaces	-10.1003
▁exception	-10.1009
▁Inter	-10.1035
▁receive	-10.1045
▁forces	-10.1046
▁refuse	-10.1054
▁rester	-10.1059
▁puis	-10.1063
eport	-10.1066
▁significa	-10.1074
▁atteinte	-10.1103
▁nationale	-10.1112
▁ra	-10.1119
▁mid	-10.1124
▁refus	-10.114
▁transition	-10.1162
abilité	-10.1188
▁sou	-10.122
ability	-10.1243
▁essentielle	-10.1245
hap	-10.1249
▁Se	-10.1268
im	-10.1277
▁règlements	-10.1304
go	-10.1311
établiss	-10.1318
rions	-10.1324
(1999)0	-10.1333
▁passer	-10.139
▁invit	-10.144
▁w	-10.1443
▁ferai	-10.1468
▁ans	-10.1485
▁vien	-10.1485
The	-10.1509
mêmes	-10.1512
▁save	-10.1555
▁mai	-10.157
▁bad	-10.1584
▁valu	-10.159
mais	-10.1618
argent	-10.1637
▁tr	-10.1644
like	-10.1645
▁post	-10.1649
instrument	-10.1669
legal	-10.167
exemption	-10.1684
vis	-10.1698
essentiel	-10.1706
▁regulat	-10.1706
▁contribu	-10.173
rs	-10.1737
examiner	-10.1741
veral	-10.1751
embre	-10.1769
▁produit	-10.178
tôt	-10.1783
▁relatif	-10.1809
▁financière	-10.1811
▁annuel	-10.1812
▁personne	-10.1813
▁entrepreneur	-10.1822
▁delay	-10.1825
▁législative	-10.1829
▁source	-10.1837
▁socialiste	-10.1839
▁crime	-10.1843
ables	-10.185
▁debat	-10.185
▁implique	-10.1871
▁compétence	-10.1877
▁personnel	-10.1877
▁exprimé	-10.1894
▁late	-10.1897
mière	-10.19
▁soutenu	-10.1906
ish	-10.1909
▁capacité	-10.1925
▁1.	-10.1925
▁Itali	-10.1936
enir	-10.1948
▁tool	-10.1953
▁monitor	-10.1959
▁stress	-10.1962
▁man	-10.199
).	-10.1995
▁train	-10.2012
over	-10.2012
▁utile	-10.2014
▁fédéral	-10.2021
▁94/55/	-10.2021
5-0108/1999)	-10.2021
Mathies	-10.2021
▁96/35/	-10.2021
▁Austria	-10.2021
▁Development	-10.2021
▁Holzmann	-10.2021
▁Luxembourg	-10.2021
▁Poettering	-10.2021
▁Tampere	-10.2021
▁Thursday	-10.2021
▁Vatanen	-10.2021
▁biodiversit	-10.2021
▁brièvement	-10.2021
▁circumstances	-10.2021
▁comprehensi	-10.2021
▁electronic	-10.2021
▁fondamentaux	-10.2021
▁incorporate	-10.2021
▁method	-10.2021
▁plénière	-10.2021
▁primordial	-10.2021
▁restructuration	-10.2021
▁restructuring	-10.2021
▁sauvegarde	-10.2021
▁stipulate	-10.2021
▁sympath	-10.2021
▁themselves	-10.2021
▁thorough	-10.2021
▁wrong	-10.2021
▁législature	-10.2021
▁souples	-10.2021
▁transcend	-10.2021
▁September	-10.2021
▁supply	-10.2021
▁Eurojust	-10.2021
▁controvers	-10.2021
▁billion	-10.2021
▁silence	-10.2021
▁50	-10.2021
▁check	-10.2021
▁tanker	-10.2021
▁nation	-10.2021
▁suppression	-10.2021
▁vital	-10.2021
▁écrit	-10.2021
▁Regard	-10.2021
▁commentaires	-10.2021
▁classification	-10.2021
▁identiques	-10.2021
▁prioritaire	-10.2021
▁discours	-10.2021
▁acknowledge	-10.2021
▁Power	-10.2021
▁remember	-10.2021
▁septembre	-10.2021
▁afford	-10.2021
▁await	-10.2022
▁wonder	-10.2022
▁Government	-10.2022
▁reflect	-10.2022
▁double	-10.2022
▁Pays	-10.2023
▁réponse	-10.2023
▁learn	-10.2023
▁indicative	-10.2024
▁parfaitement	-10.2024
▁contient	-10.2024
▁dumping	-10.2025
▁myself	-10.2025
▁milliard	-10.2025
▁88	-10.2025
5-0104/1999)	-10.2025
5-0107/1999)	-10.2025
▁régionaux	-10.2025
▁thème	-10.2025
▁Brit	-10.2025
▁signal	-10.2025
▁professionnelle	-10.2026
▁négociation	-10.2027
▁apparaît	-10.2028
▁alternative	-10.2028
▁damage	-10.2029
▁ba	-10.203
▁déclaration	-10.203
▁talk	-10.2031
34	-10.2031
▁Some	-10.2031
▁17	-10.2032
▁convaincu	-10.2032
▁réparti	-10.2032
▁désor	-10.2032
▁reached	-10.2032
▁néanmoins	-10.2033
▁fight	-10.2034
G	-10.2037
▁Cox	-10.2038
▁série	-10.2038
▁savez	-10.2038
▁fair	-10.2038
▁north	-10.2039
▁harm	-10.2039
▁compétitives	-10.204
▁obliged	-10.204
▁95	-10.204
▁chiffres	-10.2041
▁recently	-10.2042
▁ministre	-10.2042
▁involvement	-10.2045
évite	-10.2046
▁fonctionner	-10.2047
▁victimes	-10.2049
vertu	-10.2051
▁required	-10.2055
▁maintain	-10.2055
▁affected	-10.2056
▁sauve	-10.2056
▁mots	-10.2059
▁elected	-10.2061
▁resolve	-10.2061
▁material	-10.2062
▁électronique	-10.2062
▁explication	-10.2063
▁loin	-10.2066
▁water	-10.2066
▁coord	-10.2067
▁highly	-10.2067
▁convince	-10.207
▁faibles	-10.2072
▁tunnels	-10.2074
▁considérer	-10.2075
▁efficacement	-10.2076
▁lower	-10.2077
▁Rule	-10.2078
▁périphériques	-10.2082
▁goal	-10.2084
▁indicateur	-10.209
ost	-10.2091
▁moin	-10.2092
▁obje	-10.2094
▁product	-10.2094
▁turn	-10.2099
▁elements	-10.2101
▁criticisms	-10.2108
▁signed	-10.211
▁impliqué	-10.2111
▁imposé	-10.2113
▁effectively	-10.2114
▁éléments	-10.2115
▁necessarily	-10.2122
▁légale	-10.2124
▁Amsterdam	-10.2124
▁exclusion	-10.2124
▁appliqu	-10.2126
▁asked	-10.2133
▁moyens	-10.2133
▁personal	-10.2133
▁ét	-10.2133
▁écart	-10.2138
▁aboutir	-10.2147
hind	-10.2152
concurrentielles	-10.2155
che	-10.2155
▁industries	-10.2157
▁heart	-10.2163
oyau	-10.2165
▁permettra	-10.2166
▁fonctionne	-10.2175
▁sidérurgiques	-10.2176
uisen	-10.218
▁enquête	-10.2186
▁estime	-10.2186
▁19	-10.2187
▁seek	-10.2202
▁undermine	-10.2206
▁examens	-10.2213
▁trait	-10.2214
▁costs	-10.2219
▁im	-10.2232
▁indique	-10.2232
▁looking	-10.2235
▁défis	-10.2264
▁section	-10.2269
▁semaines	-10.2279
▁établi	-10.2293
▁ensur	-10.2302
▁entreprise	-10.2308
▁Vi	-10.2314
tour	-10.232
▁da	-10.2333
▁rise	-10.2335
▁considéré	-10.234
▁pay	-10.2341
▁option	-10.2351
▁jeu	-10.2353
▁claires	-10.236
▁occuper	-10.236
▁majeure	-10.2379
▁territoriale	-10.2382
approuve	-10.2384
▁pla	-10.2388
▁examen	-10.2397
▁juste	-10.2407
fortunately	-10.2407
di	-10.2408
▁livre	-10.2425
▁initiate	-10.2439
▁saying	-10.2446
▁Traités	-10.2448
▁nette	-10.245
ot	-10.245
▁1999/210	-10.2455
ank	-10.2485
ien	-10.2492
▁san	-10.2495
arch	-10.2508
▁disasters	-10.2516
▁active	-10.2518
▁état	-10.2526
▁using	-10.253
▁sait	-10.2549
ated	-10.2549
▁rich	-10.2556
▁Uni	-10.2559
▁ab	-10.2571
▁later	-10.2579
▁administratives	-10.2584
onsequently	-10.2593
▁limite	-10.2596
▁sel	-10.2601
ructural	-10.2602
dre	-10.261
▁facteur	-10.2619
▁adéquate	-10.2619
▁responsabilités	-10.262
▁weak	-10.2623
ges	-10.2632
iation	-10.2632
▁suivi	-10.2635
rai	-10.2647
▁pren	-10.2658
▁communications	-10.2671
▁souhait	-10.2676
uvoir	-10.271
▁formes	-10.2712
▁institutionnel	-10.2716
▁routes	-10.2721
▁administrations	-10.2725
▁déc	-10.2727
ding	-10.2728
urs	-10.273
zi	-10.2736
▁amélioration	-10.2738
issant	-10.2747
ied	-10.2756
▁avancée	-10.2776
▁venir	-10.2792
▁1999/21	-10.2812
▁déclare	-10.2818
▁fondamental	-10.2832
anche	-10.2855
▁examiner	-10.2856
▁sole	-10.2876
b	-10.2884
je	-10.2894
▁Nation	-10.2919
▁puiss	-10.2928
▁apporte	-10.2932
led	-10.2937
▁7	-10.2956
▁permit	-10.2961
▁red	-10.301
▁critique	-10.3026
investissement	-10.3035
▁prom	-10.3038
ld	-10.304
ments	-10.3047
▁éta	-10.3048
▁move	-10.3057
▁clos	-10.3092
if	-10.3095
▁développe	-10.3112
raient	-10.3123
▁principes	-10.3124
▁manage	-10.3146
▁6	-10.3151
▁conce	-10.3155
▁entraîner	-10.3162
▁avancé	-10.3178
▁globale	-10.3188
sions	-10.3231
▁haut	-10.3232
▁pre	-10.3232
▁compromis	-10.3237
ires	-10.3238
▁risqu	-10.3239
▁meilleur	-10.3255
▁supervise	-10.3256
itive	-10.3264
▁Bi	-10.3269
▁pursu	-10.327
apporte	-10.327
ities	-10.3284
▁prévu	-10.3284
▁facilit	-10.3289
▁précédent	-10.3299
▁views	-10.3319
▁sujets	-10.3324
ante	-10.3327
Uni	-10.3331
▁connaît	-10.3336
OM	-10.334
ide	-10.3353
acteurs	-10.3366
▁chap	-10.3367
▁2,	-10.3386
▁cultur	-10.3419
of	-10.3434
onc	-10.3434
▁prend	-10.3439
rust	-10.3439
ical	-10.3439
▁légal	-10.3447
▁complex	-10.3461
▁tour	-10.3466
▁principale	-10.3483
▁renforce	-10.349
▁adapt	-10.3493
▁examin	-10.3503
▁test	-10.351
ying	-10.3514
▁libéral	-10.3519
▁décentralis	-10.3523
▁10	-10.353
▁permis	-10.3539
▁suivant	-10.354
▁199	-10.3543
adopter	-10.3554
rated	-10.3575
▁territorial	-10.3598
▁destiné	-10.3599
▁majeur	-10.36
énergie	-10.3613
augmentation	-10.3661
Allemagne	-10.3669
administration	-10.3673
autant	-10.3696
invite	-10.37
uvre	-10.3703
agriculture	-10.3705
decision	-10.3707
B	-10.3712
▁travaill	-10.3714
intention	-10.372
ablement	-10.3725
▁porté	-10.3747
▁inclu	-10.3764
▁prosecut	-10.378
covered	-10.3787
▁distor	-10.3787
▁budgétaire	-10.3802
▁attempt	-10.3803
▁prosecutor	-10.3807
▁dirai	-10.3807
works	-10.3812
rmes	-10.3812
▁règle	-10.3814
no	-10.3818
▁fund	-10.3818
▁failure	-10.382
▁spécifique	-10.3824
▁navigable	-10.3827
▁colleague	-10.3831
▁consumer	-10.3831
▁inutile	-10.3832
▁figure	-10.3832
▁pur	-10.3834
▁sidérurgique	-10.3834
▁Du	-10.3836
▁concrète	-10.3837
▁recommendation	-10.3838
▁Socialist	-10.3839
▁rule	-10.3842
▁recommandation	-10.3842
▁pauvre	-10.3843
▁légitime	-10.3845
▁rappelé	-10.3857
▁half	-10.3882
▁island	-10.3886
▁détail	-10.389
▁mène	-10.3895
▁fulfil	-10.3895
▁zon	-10.3907
▁procedur	-10.3907
▁deep	-10.3934
▁list	-10.3936
▁discuss	-10.3954
▁Minist	-10.3961
▁obten	-10.3965
▁pl	-10.397
▁décentralisé	-10.397
▁thought	-10.3982
▁revêt	-10.3983
mployment	-10.3984
▁victim	-10.3986
▁hold	-10.3989
▁recognise	-10.3993
▁évident	-10.3993
vision	-10.3998
▁conduct	-10.3999
▁natural	-10.4001
▁judge	-10.4004
▁appear	-10.4004
éanmoins	-10.4005
evertheless	-10.4005
▁happ	-10.4006
here	-10.4008
ermettez	-10.4014
▁comprend	-10.402
aménagement	-10.4021
responsibilities	-10.4021
▁81(3)	-10.4021
▁Barnier	-10.4021
▁Berenguer	-10.4021
▁Crespo	-10.4021
▁Vallelersundi	-10.4021
▁charterer	-10.4021
▁chômeurs	-10.4021
▁clarity	-10.4021
▁codécision	-10.4021
▁compétente	-10.4021
▁currency	-10.4021
▁grateful	-10.4021
▁incidence	-10.4021
▁minimis	-10.4021
▁négative	-10.4021
▁résoudre	-10.4021
▁strategies	-10.4021
▁succeed	-10.4021
▁technical	-10.4021
▁technique	-10.4021
▁approximat	-10.4021
▁withdraw	-10.4021
▁élection	-10.4021
▁contrainte	-10.4021
▁citernes	-10.4021
▁engendre	-10.4021
▁modèle	-10.4021
▁official	-10.4021
▁ruling	-10.4021
▁health	-10.4021
▁81(1)	-10.4021
▁Budget	-10.4021
▁inequality	-10.4021
inquiète	-10.4021
▁categories	-10.4021
▁liberté	-10.4021
▁profondément	-10.4021
▁mandat	-10.4021
▁freedom	-10.4021
▁législatif	-10.4021
▁concret	-10.4021
▁peuple	-10.4021
▁prévention	-10.4021
▁dangereux	-10.4021
▁poverty	-10.4021
▁clause	-10.4021
▁insulaires	-10.4021
▁bref	-10.4022
▁pétrolier	-10.4022
▁commerce	-10.4022
▁remboursement	-10.4022
▁multinational	-10.4022
▁coast	-10.4022
▁crédits	-10.4022
▁restrictive	-10.4022
▁augmenté	-10.4023
▁défend	-10.4023
▁côté	-10.4023
▁définitive	-10.4023
▁tendance	-10.4023
▁committed	-10.4023
▁return	-10.4023
▁treatment	-10.4023
▁relever	-10.4023
▁transitoire	-10.4024
▁volont	-10.4024
▁intéressant	-10.4024
▁attitude	-10.4024
▁home	-10.4024
▁technologique	-10.4024
▁According	-10.4024
▁parlé	-10.4024
▁average	-10.4024
▁equality	-10.4024
▁constructive	-10.4024
▁substance	-10.4025
▁Portugal	-10.4025
▁traditional	-10.4025
▁Now	-10.4025
▁attain	-10.4025
▁personnellement	-10.4026
▁alone	-10.4026
▁stade	-10.4026
▁retrouv	-10.4027
▁worrie	-10.4027
▁suggestions	-10.4027
▁discuté	-10.4027
▁taxpayer	-10.4027
▁moral	-10.4028
▁tape	-10.4028
▁accompan	-10.4028
▁radical	-10.4029
▁prononcer	-10.4029
▁convenu	-10.4029
▁build	-10.403
▁determin	-10.403
▁July	-10.403
▁trade	-10.403
▁Pourtant	-10.4031
▁everything	-10.4031
▁signalé	-10.4032
▁genre	-10.4032
▁favoriser	-10.4032
éger	-10.4033
▁reconnaître	-10.4035
▁reservation	-10.4036
▁créent	-10.4036
▁growing	-10.4036
▁peripheral	-10.4037
▁Here	-10.4037
▁inadmissible	-10.4038
▁investment	-10.4038
▁fruit	-10.4038
▁entrave	-10.4039
▁Although	-10.4039
▁reading	-10.404
▁surviv	-10.404
▁naturally	-10.4041
▁stressed	-10.4041
4(	-10.4041
▁competent	-10.4042
▁conférence	-10.4042
▁soulevé	-10.4045
▁comprendre	-10.4045
▁indicators	-10.4045
▁prices	-10.4046
▁banks	-10.4046
▁negotiations	-10.4046
▁letter	-10.4047
▁concentrat	-10.4047
▁Just	-10.4048
▁recognised	-10.4049
élimin	-10.4049
▁discuter	-10.405
▁addressed	-10.405
▁achev	-10.4051
▁vigilant	-10.4054
▁déposé	-10.4055
▁rapide	-10.4056
▁labour	-10.4056
airement	-10.4057
▁May	-10.4057
round	-10.4059
applique	-10.4059
▁travailleurs	-10.406
▁fourth	-10.4062
▁correctly	-10.4064
▁gradual	-10.4065
▁weaken	-10.4065
▁pertain	-10.4068
▁amended	-10.4069
▁ABB	-10.407
▁experts	-10.407
▁volu	-10.4072
▁seraient	-10.4072
▁justified	-10.4073
▁scale	-10.4075
▁lu	-10.4076
▁govern	-10.4079
▁touch	-10.408
▁possibilit	-10.4081
▁urgent	-10.4085
▁coordinat	-10.4085
ceptible	-10.4088
▁education	-10.4089
▁polluti	-10.409
▁fondement	-10.409
▁ways	-10.4094
▁loss	-10.4099
▁heures	-10.4101
▁ouvri	-10.4108
▁partena	-10.4109
▁Bra	-10.4114
▁lawyers	-10.4131
▁imposer	-10.4132
▁presse	-10.4134
▁constate	-10.4137
▁operate	-10.4137
▁revenus	-10.4137
▁ententes	-10.4144
▁impôt	-10.4147
▁joue	-10.4148
▁remarques	-10.4149
▁constaté	-10.4153
▁limiter	-10.4157
▁rightly	-10.4162
▁II	-10.4167
▁person	-10.4168
▁cour	-10.4168
▁outline	-10.4168
rement	-10.4169
▁candidats	-10.4171
▁supplémentaires	-10.4171
▁waterways	-10.4172
▁orateurs	-10.4172
▁achieved	-10.4177
▁commencer	-10.418
▁Ber	-10.4188
ose	-10.4189
entral	-10.419
▁retir	-10.4192
▁Certain	-10.421
▁figures	-10.4214
▁consumers	-10.4214
▁colleagues	-10.4214
adresse	-10.4214
▁légitimes	-10.4217
▁Dec	-10.4217
▁cut	-10.4219
▁impression	-10.4229
▁abord	-10.4231
tement	-10.4232
▁products	-10.4236
▁mod	-10.4243
▁capacités	-10.4258
▁représent	-10.4272
ographic	-10.4274
▁abordé	-10.4285
▁oppos	-10.4285
▁applique	-10.4287
▁quel	-10.4292
▁exceptions	-10.4293
▁organisations	-10.43
bit	-10.431
▁occupe	-10.4318
▁introduc	-10.4326
▁urbaine	-10.4327
plore	-10.4332
ccès	-10.4337
▁tasks	-10.4339
▁weeks	-10.434
Unis	-10.4343
▁gross	-10.4343
considérablement	-10.4344
▁mar	-10.437
▁présente	-10.437
▁leçon	-10.4379
▁contenter	-10.4385
▁Allemagne	-10.4385
▁mo	-10.4391
▁occasions	-10.4398
gue	-10.4404
ember	-10.4425
▁purposes	-10.4425
▁privés	-10.443
▁debated	-10.4453
▁accepter	-10.4455
am	-10.4455
hor	-10.4466
▁exercise	-10.4468
▁côte	-10.4477
onvention	-10.4481
▁destinée	-10.4487
▁consen	-10.4495
rop	-10.4504
▁solutions	-10.4504
▁prépar	-10.4513
ête	-10.4526
vienne	-10.4526
▁ch	-10.4528
▁publish	-10.453
▁dépens	-10.4532
▁suivante	-10.4535
▁introduir	-10.454
nder	-10.4544
▁favorables	-10.4552
▁fix	-10.4557
▁fac	-10.4562
▁égalité	-10.4573
▁drive	-10.4575
▁détermin	-10.4577
centralisation	-10.4586
▁profonde	-10.4588
oubli	-10.4599
▁confine	-10.4608
ture	-10.461
▁organise	-10.4611
▁observe	-10.4612
tes	-10.4634
▁présidente	-10.4641
▁pénales	-10.4649
▁sc	-10.4655
01	-10.4659
▁énergie	-10.4661
▁ge	-10.4665
published	-10.4673
▁revien	-10.4681
▁accorde	-10.4694
▁forte	-10.4701
iversité	-10.4703
▁salu	-10.4717
ble	-10.4731
▁mainten	-10.4732
▁steps	-10.4732
▁garde	-10.4735
▁limit	-10.4738
▁vaste	-10.4742
▁income	-10.477
▁ver	-10.4771
▁exp	-10.4775
ants	-10.4793
form	-10.4795
▁cent	-10.4814
mittee	-10.4817
▁hu	-10.4836
ace	-10.4875
▁perd	-10.4877
urthermore	-10.4884
▁haute	-10.489
▁affirm	-10.49
ign	-10.4902
▁cat	-10.4916
hésion	-10.4916
▁travers	-10.4926
▁opinions	-10.4929
ring	-10.4929
▁involv	-10.4934
▁élargissement	-10.4943
▁communes	-10.4952
▁existant	-10.4968
ised	-10.4973
▁auron	-10.4984
be	-10.4989
▁hands	-10.4998
nal	-10.5013
▁Po	-10.5034
aurai	-10.5049
sistance	-10.5121
▁manager	-10.5127
▁débouch	-10.5158
▁fraudes	-10.5188
▁discussions	-10.5189
ulation	-10.5191
▁stop	-10.5223
▁marqué	-10.5243
ility	-10.5252
▁valid	-10.5275
▁avenir	-10.5275
▁apporté	-10.5282
▁préserv	-10.5305
ents	-10.5305
▁satisfact	-10.5329
▁rapporteurs	-10.5347
▁He	-10.5352
held	-10.5361
▁développée	-10.5373
▁examples	-10.5383
▁mone	-10.5399
▁unanime	-10.5427
▁fausse	-10.5432
▁attent	-10.5461
ex	-10.5462
mer	-10.5477
▁empêche	-10.5485
▁rais	-10.5499
▁gen	-10.5508
▁conten	-10.551
poser	-10.5531
3(	-10.5565
ouvoir	-10.5571
ries	-10.5573
▁revisi	-10.5575
▁pure	-10.5576
▁unit	-10.5596
▁criticise	-10.5613
▁modern	-10.5614
▁chargée	-10.5618
▁Sa	-10.5629
onetheless	-10.5644
▁factor	-10.5652
▁énorme	-10.5655
os	-10.5655
▁passe	-10.5664
▁reduc	-10.5678
des	-10.5699
▁desire	-10.5702
tation	-10.5708
enationalisation	-10.5727
uis	-10.5733
▁low	-10.5753
tch	-10.5761
▁approprié	-10.5767
time	-10.5775
▁cross	-10.5814
économique	-10.583
▁concentre	-10.5837
▁rel	-10.5863
taux	-10.5864
rage	-10.5869
hank	-10.5872
euro	-10.5876
▁authorise	-10.5883
▁ladi	-10.5884
▁satisfaisant	-10.5888
▁ouvert	-10.5892
P	-10.5906
▁puissi	-10.5933
▁handicap	-10.5937
bé	-10.5944
▁consult	-10.5948
logical	-10.5962
initiative	-10.5964
▁exprim	-10.5985
J	-10.5994
▁voudr	-10.5996
President	-10.6005
▁provid	-10.6021
▁probabl	-10.6033
auf	-10.6034
▁exprime	-10.6034
▁serv	-10.6047
times	-10.6048
▁gu	-10.6055
vous	-10.6066
fraud	-10.6078
agisse	-10.608
▁leave	-10.6084
els	-10.6087
avons	-10.6093
low	-10.6116
▁V	-10.6116
▁quit	-10.613
bien	-10.6143
▁gros	-10.6145
tedly	-10.6151
attention	-10.6155
embargo	-10.6163
assure	-10.6163
échange	-10.6164
présidente	-10.6166
obligation	-10.6169
25	-10.6174
vice	-10.6175
Office	-10.6177
impact	-10.6177
élaboration	-10.6178
CEN	-10.6178
ative	-10.618
▁margin	-10.6183
organiser	-10.6184
occasion	-10.6187
aspect	-10.6189
N	-10.6191
develop	-10.6192
▁utilis	-10.6206
▁reconnaissan	-10.621
nced	-10.6227
avant	-10.623
ac	-10.6231
justifiable	-10.6232
ven	-10.6233
▁ju	-10.624
▁interpret	-10.6267
▁decide	-10.6268
40	-10.6278
entame	-10.629
hi	-10.6305
▁créé	-10.6308
▁manag	-10.6327
▁sha	-10.6329
▁allemand	-10.633
▁supplémentaire	-10.6331
▁candidat	-10.6331
▁condition	-10.6332
▁waterway	-10.6332
▁orateur	-10.6333
▁préoccupation	-10.6333
jour	-10.6334
▁faible	-10.6334
▁marge	-10.6335
▁investigation	-10.6336
▁representative	-10.6336
▁measure	-10.634
▁fusion	-10.6341
▁provision	-10.6343
èrement	-10.6357
▁entail	-10.6358
offre	-10.6361
▁requirement	-10.6366
▁minimal	-10.6368
▁chaîne	-10.6368
ration	-10.6371
▁encourag	-10.6371
▁st	-10.6372
▁accuse	-10.6375
dep	-10.6381
▁entrepris	-10.6413
griculture	-10.6416
▁reprise	-10.6419
unanim	-10.6423
▁loi	-10.6426
ope	-10.6426
▁félicit	-10.643
erous	-10.6431
▁élu	-10.6443
▁sinc	-10.6444
▁Bas	-10.6445
ch	-10.6455
ela	-10.646
▁proceed	-10.6473
▁sign	-10.6479
hould	-10.6481
▁discut	-10.6481
▁élevé	-10.6483
▁vertical	-10.6484
▁défense	-10.6488
▁endorse	-10.6491
▁continent	-10.6492
raft	-10.6493
▁interne	-10.6494
▁precise	-10.6502
▁évide	-10.6504
▁italien	-10.6505
▁élaboré	-10.6507
▁tradui	-10.6507
▁attentive	-10.6507
régularité	-10.6508
▁unemploy	-10.6508
▁souligne	-10.6513
5-0105/1999	-10.6513
5-0107/1999	-10.6514
5-0104/1999	-10.6514
10	-10.6514
43	-10.6516
▁vérifi	-10.6516
▁subsid	-10.6519
▁legitima	-10.652
knowledge	-10.652
▁obligatoire	-10.6521
5-0069/1999	-10.6521
Bretagne	-10.6521
UCLAF	-10.6521
indépendance	-10.6521
rgensen	-10.6521
▁1993	-10.6521
▁1993-1995	-10.6521
▁2003	-10.6521
▁23	-10.6521
▁2496/96/	-10.6521
▁Federal	-10.6521
▁Hulten	-10.6521
▁Lynne	-10.6521
▁McCarthy	-10.6521
▁Nikitin	-10.6521
▁Paddington	-10.6521
▁Peijs	-10.6521
▁Strasbourg	-10.6521
▁Swoboda	-10.6521
▁Texas	-10.6521
▁Vitorino	-10.6521
▁Wednesday	-10.6521
▁advocate	-10.6521
▁bureaucratic	-10.6521
▁bureaucratique	-10.6521
▁complicated	-10.6521
▁cooperate	-10.6521
▁credibility	-10.6521
▁excessif	-10.6521
▁illicites	-10.6521
▁illégale	-10.6521
▁jungle	-10.6521
▁juridiction	-10.6521
▁jurisdiction	-10.6521
▁logique	-10.6521
▁machine	-10.6521
▁mechanisms	-10.6521
▁mercredi	-10.6521
▁millénaire	-10.6521
▁mismanagement	-10.6521
▁mécanismes	-10.6521
▁negative	-10.6521
▁pertinente	-10.6521
▁perturbation	-10.6521
▁polycentri	-10.6521
▁predecessor	-10.6521
▁privatisation	-10.6521
▁privilege	-10.6521
▁privilège	-10.6521
▁prédécesseur	-10.6521
▁pêche	-10.6521
▁suggère	-10.6521
▁tardivement	-10.6521
▁target	-10.6521
▁température	-10.6521
▁traffic	-10.6521
▁témoign	-10.6521
▁violations	-10.6521
▁wholehearted	-10.6521
▁compagnie	-10.6521
▁immédiat	-10.6521
▁magnificent	-10.6521
▁procède	-10.6521
▁répète	-10.6521
▁1999/0083	-10.6521
▁Ensuite	-10.6521
▁Flautre	-10.6521
▁destroy	-10.6521
▁dynami	-10.6521
▁récemment	-10.6521
▁storms	-10.6521
▁tempêtes	-10.6521
▁enjoy	-10.6521
▁feature	-10.6521
▁UK	-10.6521
▁négligence	-10.6521
▁virtu	-10.6521
▁Decision	-10.6521
▁allouées	-10.6521
▁deliver	-10.6521
▁Control	-10.6521
▁fermeture	-10.6521
▁occurred	-10.6521
▁productivité	-10.6521
▁requise	-10.6521
▁security	-10.6521
▁studie	-10.6521
▁Concern	-10.6521
▁television	-10.6521
▁floor	-10.6521
▁défaut	-10.6521
▁Certes	-10.6521
▁distributed	-10.6521
5-0120/	-10.6521
occurrence	-10.6521
▁légitimité	-10.6521
▁penalt	-10.6521
▁vivement	-10.6521
▁80	-10.6521
▁legislature	-10.6521
▁299	-10.6521
▁fonctionnaire	-10.6521
▁complète	-10.6521
▁channel	-10.6522
▁normalisation	-10.6522
▁globalisation	-10.6522
▁additionality	-10.6522
▁communities	-10.6522
▁avéré	-10.6522
▁levée	-10.6522
▁guidance	-10.6522
▁télévision	-10.6522
▁worry	-10.6522
▁mondialisation	-10.6522
▁supposed	-10.6522
▁witness	-10.6522
▁railways	-10.6522
▁weakness	-10.6522
▁quarters	-10.6522
▁feasible	-10.6522
▁industrielle	-10.6522
▁Rack	-10.6522
▁détrui	-10.6522
▁tanks	-10.6522
▁réussite	-10.6522
▁changé	-10.6522
▁1990	-10.6522
▁cartels	-10.6523
▁subsidies	-10.6523
▁authorisation	-10.6523
▁conduite	-10.6523
▁statut	-10.6523
▁extern	-10.6523
▁insisté	-10.6523
▁rigoureuse	-10.6524
▁combien	-10.6524
▁appreciation	-10.6524
5-0073/1999)	-10.6524
5-0078/1999)	-10.6524
5-0087/1999)	-10.6524
▁cinquième	-10.6524
▁abusive	-10.6524
▁tighten	-10.6524
▁clarification	-10.6524
▁comitolog	-10.6525
▁réunion	-10.6525
▁naval	-10.6525
▁reality	-10.6525
▁proposée	-10.6525
▁earlier	-10.6525
▁devra	-10.6525
▁ADR	-10.6526
▁else	-10.6526
▁87	-10.6526
▁santé	-10.6527
▁juristes	-10.6527
▁annexes	-10.6527
▁Troisième	-10.6528
▁couverte	-10.6528
▁Sudre	-10.6528
5-0105/1999)	-10.6528
▁changing	-10.6528
▁prepared	-10.6529
▁original	-10.6529
▁revue	-10.6529
8(	-10.6529
▁rejected	-10.653
▁partiellement	-10.653
▁inspection	-10.653
▁approval	-10.653
▁urgency	-10.6531
▁finalement	-10.6531
▁prohibition	-10.6531
▁rejet	-10.6532
▁hoc	-10.6533
▁qualified	-10.6533
▁11	-10.6533
▁Lond	-10.6533
▁CIG	-10.6534
▁entire	-10.6534
▁permanent	-10.6534
▁solidarity	-10.6534
▁-20	-10.6535
▁critic	-10.6536
▁slight	-10.6537
▁Of	-10.6537
▁abuses	-10.6537
▁subsequent	-10.6538
▁oublier	-10.6538
▁froid	-10.6539
▁proved	-10.6539
▁nevertheless	-10.654
autoriser	-10.6541
▁outcome	-10.6541
▁étudié	-10.6541
▁imaginer	-10.6542
▁tard	-10.6542
▁appeared	-10.6542
▁worse	-10.6545
▁rende	-10.6546
▁suffer	-10.6546
▁terrain	-10.6546
▁autorisées	-10.6547
▁taxation	-10.6547
▁additional	-10.6548
▁criminelle	-10.6549
▁string	-10.6549
▁continental	-10.6549
▁decided	-10.6549
▁omission	-10.655
▁scepti	-10.655
nsch	-10.6551
▁model	-10.6551
▁participer	-10.6551
▁claim	-10.6551
▁lecture	-10.6551
▁réaliser	-10.6553
▁abstentions	-10.6553
▁confrontés	-10.6553
▁informed	-10.6553
▁individuels	-10.6555
▁personally	-10.6555
▁rendements	-10.6555
▁avocats	-10.6555
▁monies	-10.6556
▁sentiment	-10.6557
▁délicate	-10.656
▁ratifiée	-10.6562
▁finally	-10.6562
▁mondiale	-10.6563
▁closure	-10.6564
▁adaptée	-10.6565
▁appréci	-10.6568
▁highlighted	-10.6572
▁allowed	-10.6574
▁constant	-10.6575
▁K	-10.6576
▁compil	-10.6576
▁concluded	-10.6581
▁prévoir	-10.6581
▁exploit	-10.6581
▁inacceptable	-10.6583
▁defend	-10.6583
▁consacre	-10.6584
▁dépend	-10.6584
▁fashion	-10.6585
▁millennium	-10.6585
▁décidé	-10.6586
▁représentant	-10.6591
w	-10.6591
naie	-10.6592
▁noire	-10.6594
▁tienne	-10.6597
lock	-10.6598
▁généralement	-10.6598
▁publique	-10.6599
▁montré	-10.66
▁jouer	-10.6602
▁members	-10.6602
▁êtes	-10.6603
▁concernées	-10.6603
▁tentative	-10.6605
▁arrangements	-10.6608
▁directives	-10.6608
▁notice	-10.661
▁wished	-10.6613
▁humaines	-10.6613
▁financing	-10.6615
▁usage	-10.6615
▁word	-10.6615
▁diminué	-10.6617
▁vite	-10.662
▁sufficiently	-10.6622
▁collectiv	-10.6624
▁homme	-10.6625
▁justifie	-10.6626
▁origine	-10.6631
▁indication	-10.6631
▁basque	-10.6632
▁preferr	-10.6633
▁Whe	-10.6637
▁présentent	-10.6637
affaiblir	-10.6639
▁considérables	-10.6641
▁accordées	-10.6643
asically	-10.6647
▁distort	-10.665
introduc	-10.6659
▁existent	-10.6659
▁britanniques	-10.6663
▁carte	-10.6664
▁examined	-10.6667
▁prétend	-10.667
▁largement	-10.6674
▁préoccup	-10.668
excellente	-10.6681
▁weight	-10.6683
▁appui	-10.6688
▁indépendantes	-10.6688
▁préjudice	-10.6689
▁échelle	-10.6689
▁reach	-10.6691
oC	-10.6691
▁tirer	-10.6694
▁bla	-10.6696
▁appropriation	-10.6698
▁expression	-10.6706
▁milli	-10.6706
▁envisagée	-10.6709
▁changed	-10.671
▁Als	-10.6711
▁affairs	-10.6711
▁allemands	-10.6715
▁transportée	-10.6715
▁chaînes	-10.6719
▁generate	-10.672
▁préoccupations	-10.672
▁preserv	-10.672
▁adoptées	-10.6724
▁investigations	-10.6727
ntary	-10.673
ished	-10.6735
▁run	-10.6736
▁renew	-10.6741
▁navi	-10.6743
▁formule	-10.675
▁specialis	-10.6752
▁meaning	-10.6755
▁Non	-10.6758
necessary	-10.6759
▁cruciale	-10.6759
▁exchange	-10.6762
timent	-10.6763
▁obtenu	-10.677
▁navigables	-10.6775
▁compens	-10.6782
▁fixé	-10.6784
pression	-10.6784
adaptation	-10.6786
/	-10.6786
▁Irlande	-10.6791
nother	-10.6796
▁Only	-10.6804
aving	-10.6813
▁limits	-10.6814
▁accepte	-10.6815
ural	-10.6821
▁strictes	-10.6822
▁oubli	-10.6829
▁législatives	-10.683
▁financières	-10.6833
▁indu	-10.6843
▁prosper	-10.6846
▁fifth	-10.6847
self	-10.6859
pp	-10.686
ctob	-10.6861
▁débatt	-10.6864
▁touché	-10.6871
▁contrôlé	-10.6882
ilateral	-10.6891
▁embargo	-10.6892
▁internationale	-10.6893
▁ref	-10.6903
▁approve	-10.6906
▁consultati	-10.6913
▁explicite	-10.6928
tives	-10.6945
▁changements	-10.6947
▁américaine	-10.6951
▁approfondi	-10.6955
▁suffisante	-10.6956
rocureur	-10.696
▁finances	-10.6965
ft	-10.6967
▁profits	-10.6977
▁organiser	-10.6977
▁spéciale	-10.6985
▁Rep	-10.6986
▁appliqués	-10.6988
known	-10.6991
▁stricte	-10.6993
▁retards	-10.6997
▁augmentation	-10.7004
▁idées	-10.7007
root	-10.7007
lète	-10.7012
▁Ver	-10.7016
▁amen	-10.7025
▁allows	-10.7028
▁oblig	-10.7048
▁climate	-10.7057
lin	-10.7079
érité	-10.7095
leur	-10.71
adly	-10.7103
▁fields	-10.7108
▁ressort	-10.7118
iquer	-10.7133
chez	-10.7151
▁sport	-10.7154
▁désire	-10.7171
▁lesson	-10.7173
▁Regions	-10.7175
▁Lap	-10.7177
▁Go	-10.7193
▁satisfaisante	-10.7196
exécuti	-10.7198
hesion	-10.72
ure	-10.7204
▁events	-10.7211
▁rest	-10.7225
ourquoi	-10.723
▁eliminat	-10.7236
▁extend	-10.7236
▁don	-10.7242
accroît	-10.7243
006	-10.7247
ellement	-10.7267
▁Mo	-10.7273
▁complexe	-10.7287
▁spe	-10.7293
▁réagi	-10.7293
▁provoque	-10.7294
▁communs	-10.73
▁attache	-10.7373
▁doutes	-10.7378
▁organe	-10.7378
▁record	-10.7391
▁perfect	-10.7394
▁federal	-10.7396
▁absent	-10.7404
▁invite	-10.7427
▁anticipate	-10.7431
insta	-10.7438
engage	-10.7444
▁spécific	-10.7451
▁technolog	-10.7463
▁200	-10.7468
▁moderne	-10.748
▁Effective	-10.7482
▁auteur	-10.7499
▁formelle	-10.7501
ike	-10.7516
▁appare	-10.7526
yer	-10.7528
▁Ad	-10.7533
▁opposit	-10.7535
▁évalue	-10.7536
▁ajout	-10.7538
chant	-10.7551
nd	-10.7554
avai	-10.7559
▁passage	-10.7562
89	-10.7584
▁justifier	-10.7586
ry	-10.7589
▁supervis	-10.7593
▁transparente	-10.7599
▁motiv	-10.7608
▁regrette	-10.7611
▁agrees	-10.7614
▁augmente	-10.7614
▁critiqu	-10.7634
▁effectuée	-10.7639
▁invest	-10.7647
ned	-10.7647
▁rep	-10.7654
so	-10.7659
posed	-10.7664
▁traités	-10.7672
▁caractéris	-10.7697
▁insufficient	-10.7711
▁protocol	-10.7712
▁approuve	-10.7713
▁Pu	-10.7729
▁cont	-10.776
▁poste	-10.7775
air	-10.7777
▁exclu	-10.779
▁bateau	-10.7806
▁solid	-10.7815
▁introduit	-10.7815
▁rate	-10.7827
▁modernise	-10.7835
▁causes	-10.7838
▁clarifie	-10.7858
ères	-10.7858
plen	-10.7881
▁télé	-10.7881
▁connu	-10.7903
▁marke	-10.7905
▁quantit	-10.7931
▁Av	-10.7943
▁bot	-10.7965
▁fil	-10.7974
▁élabore	-10.7989
ence	-10.7996
▁war	-10.7999
ond	-10.8016
▁sta	-10.802
▁actif	-10.8023
▁maint	-10.8052
raine	-10.8058
▁class	-10.806
▁lie	-10.8065
vocation	-10.8088
▁mort	-10.8088
▁investisse	-10.8124
▁avantage	-10.8134
gal	-10.8178
sse	-10.8211
▁adress	-10.8213
ittee	-10.8233
old	-10.8268
▁receiv	-10.8273
▁expos	-10.8318
dit	-10.832
▁rev	-10.8351
ped	-10.8353
États	-10.8358
▁expire	-10.8366
▁économi	-10.8368
ports	-10.8386
▁conc	-10.8397
▁ratifi	-10.8438
regular	-10.8442
ball	-10.8452
ping	-10.8463
▁dispar	-10.8486
▁fiscale	-10.8497
▁regulate	-10.8506
L	-10.852
▁reforms	-10.8525
any	-10.8526
▁technologi	-10.8547
▁réduit	-10.8548
▁An	-10.8553
1,	-10.8578
io	-10.8608
▁influence	-10.8608
ands	-10.8612
▁traite	-10.8615
land	-10.8634
concil	-10.8634
▁Ste	-10.8635
ave	-10.8638
▁caus	-10.8653
▁Da	-10.8654
▁constitu	-10.8662
97	-10.8698
ti	-10.8706
eau	-10.8717
▁earn	-10.8726
▁vast	-10.8736
▁Seul	-10.8821
ifs	-10.8838
ism	-10.884
ay	-10.8851
▁execut	-10.8866
▁af	-10.8881
bilité	-10.8893
option	-10.8904
▁choi	-10.8914
▁traditionnel	-10.8927
ène	-10.893
▁limité	-10.8931
par	-10.8938
▁suffis	-10.8939
▁résult	-10.8941
doub	-10.8963
per	-10.8971
▁judici	-10.8973
média	-10.8979
▁examiné	-10.898
ièrement	-10.9003
state	-10.9006
▁pr	-10.9037
▁plann	-10.9044
▁wa	-10.9047
European	-10.905
rais	-10.9081
head	-10.9093
IG	-10.9122
venus	-10.9127
▁centralis	-10.9144
alités	-10.9169
▁mode	-10.919
▁enabl	-10.9191
ssant	-10.9212
▁cesse	-10.9217
▁octroi	-10.923
▁réglement	-10.9232
▁mené	-10.9256
▁Pre	-10.9271
point	-10.9272
attaqu	-10.9274
▁Va	-10.9282
ière	-10.9294
▁willing	-10.9299
▁standard	-10.9304
▁ser	-10.9305
▁constituer	-10.9305
▁tourn	-10.9308
▁approv	-10.9324
isation	-10.9326
▁cover	-10.9328
▁arriv	-10.9329
instruction	-10.9332
▁Ré	-10.9337
institution	-10.9338
E	-10.936
▁envoy	-10.9366
communications	-10.9384
General	-10.9384
aucun	-10.94
what	-10.9409
issent	-10.9412
av	-10.9413
ck	-10.9418
▁publie	-10.9434
wing	-10.944
impose	-10.9444
affréteur	-10.9445
octroi	-10.9459
onna	-10.9459
effet	-10.9466
affaire	-10.9466
reign	-10.9467
Article	-10.9467
EU	-10.9469
explique	-10.9474
Italie	-10.9478
company	-10.9484
exigence	-10.9488
benefit	-10.9489
Irlande	-10.949
building	-10.9491
▁compos	-10.9491
year	-10.9495
occuper	-10.9496
publique	-10.9496
impression	-10.9497
uf	-10.9502
94	-10.9503
expir	-10.9504
enquête	-10.9504
body	-10.9508
competitive	-10.9509
cro	-10.9509
infrastructures	-10.951
fair	-10.9511
oire	-10.9516
lors	-10.9521
ôt	-10.9522
▁participe	-10.9523
ired	-10.9547
après	-10.9551
accepte	-10.9555
▁arm	-10.956
accidents	-10.956
issu	-10.9565
▁inspir	-10.9569
indique	-10.9572
tory	-10.9573
▁revenu	-10.9577
▁confirm	-10.9581
▁moyen	-10.9593
▁Wi	-10.9602
▁regula	-10.9604
▁cru	-10.9608
▁souve	-10.9608
▁futur	-10.9611
▁nouvel	-10.9613
▁profession	-10.9621
egulation	-10.9624
▁prospère	-10.9635
▁dérive	-10.9635
présentant	-10.9641
▁deadline	-10.9651
▁terrible	-10.9652
hold	-10.9654
▁engagée	-10.9659
▁britannique	-10.9659
▁prêt	-10.9659
co	-10.966
ficienc	-10.9665
long	-10.9668
▁ressource	-10.9671
▁difference	-10.9671
▁lawyer	-10.9671
2000	-10.9672
▁resource	-10.9672
▁criticism	-10.9674
▁association	-10.9674
▁intégrée	-10.9675
▁ante	-10.9681
importants	-10.9684
▁normal	-10.9686
▁accrue	-10.9688
▁somme	-10.9689
▁observation	-10.969
▁montr	-10.9698
▁accepté	-10.9699
▁opérat	-10.97
▁précise	-10.9702
▁rend	-10.9703
▁remarque	-10.9706
faire	-10.971
▁minist	-10.971
▁monopol	-10.9714
▁element	-10.972
▁remarqu	-10.9723
▁plein	-10.9727
▁indépendant	-10.9729
▁formulé	-10.9732
▁repris	-10.9736
▁rapid	-10.974
nz	-10.9743
hand	-10.9749
▁indépendante	-10.975
▁damag	-10.9751
▁clarif	-10.9755
élan	-10.976
lon	-10.9767
▁America	-10.9772
▁tourism	-10.9773
▁crédib	-10.9774
ably	-10.9775
▁explique	-10.9781
érie	-10.9783
extensi	-10.9785
5-000	-10.9789
▁facts	-10.9792
▁multi	-10.9798
▁modest	-10.9799
▁safe	-10.9811
▁veille	-10.9811
▁produi	-10.9817
▁formulée	-10.9818
▁autorisé	-10.9819
▁reiterate	-10.9821
▁explore	-10.9822
▁zone	-10.9824
▁imagine	-10.9825
▁avance	-10.9826
▁publié	-10.9827
▁immediate	-10.983
▁liée	-10.9832
▁answer	-10.9835
▁brief	-10.9835
▁enforce	-10.9835
▁careful	-10.9835
mbala	-10.9836
▁Russi	-10.9836
▁compren	-10.9839
▁gouverne	-10.9841
▁threat	-10.9842
▁condamn	-10.9843
▁solidarit	-10.9846
inscrir	-10.9846
▁realise	-10.9848
atrième	-10.9849
▁appreciat	-10.985
owing	-10.985
DR	-10.985
▁opportun	-10.985
▁drastic	-10.9851
000	-10.9851
igorous	-10.9852
licate	-10.9852
▁mu	-10.9853
requisite	-10.9854
iefly	-10.9854
VA	-10.9854
Harris	-10.9854
Indonésie	-10.9854
additionnalité	-10.9854
assouplissement	-10.9854
efforcera	-10.9854
quivalent	-10.9854
uaestors	-10.9854
▁1995-1997	-10.9854
▁Brittany	-10.9854
▁Democrat	-10.9854
▁February	-10.9854
▁Kingdom	-10.9854
▁People	-10.9854
▁Procedure	-10.9854
▁Standardisation	-10.9854
▁Subsidies	-10.9854
▁Summit	-10.9854
▁VOTE	-10.9854
▁ampleur	-10.9854
▁bénévole	-10.9854
▁commercial	-10.9854
▁concrétiser	-10.9854
▁contradiction	-10.9854
▁disadvantage	-10.9854
▁débarrass	-10.9854
▁décennie	-10.9854
▁déployé	-10.9854
▁dérivé	-10.9854
▁endeavour	-10.9854
▁escompté	-10.9854
▁evident	-10.9854
▁exaggerated	-10.9854
▁fructueux	-10.9854
▁février	-10.9854
▁hundred	-10.9854
▁independence	-10.9854
▁inequalities	-10.9854
▁jeopard	-10.9854
▁layoffs	-10.9854
▁ownership	-10.9854
▁perpétré	-10.9854
▁recognition	-10.9854
▁repayment	-10.9854
▁requête	-10.9854
▁reçu	-10.9854
▁récupération	-10.9854
▁rédigé	-10.9854
▁septentrionales	-10.9854
▁soupçons	-10.9854
▁spoke	-10.9854
▁statistics	-10.9854
▁statistiques	-10.9854
▁subsiste	-10.9854
▁supplement	-10.9854
▁temperatures	-10.9854
▁violent	-10.9854
▁welfare	-10.9854
▁équitable	-10.9854
▁étroite	-10.9854
compatible	-10.9854
▁Belgi	-10.9854
▁Japan	-10.9854
▁immense	-10.9854
▁internationaux	-10.9854
▁pillar	-10.9854
▁promulg	-10.9854
▁subsidiaire	-10.9854
▁Bush	-10.9854
▁dollar	-10.9854
▁dégrad	-10.9854
▁elections	-10.9854
▁insatisfaisant	-10.9854
▁study	-10.9854
▁wrote	-10.9854
▁VAT	-10.9854
▁exhausti	-10.9854
▁mémorandum	-10.9854
▁néerlandaise	-10.9854
▁propriété	-10.9854
▁retombées	-10.9854
▁separate	-10.9854
▁spécialistes	-10.9854
▁intrins	-10.9854
▁regagner	-10.9854
▁corporation	-10.9854
▁crash	-10.9854
▁productivity	-10.9854
▁remark	-10.9854
▁chemin	-10.9854
▁describe	-10.9854
▁straight	-10.9854
▁gigantesque	-10.9854
▁departments	-10.9854
▁reliability	-10.9854
rovi	-10.9854
▁81.1	-10.9854
▁contraignant	-10.9854
▁attack	-10.9854
▁dreadful	-10.9854
▁agriculteurs	-10.9854
▁elsewhere	-10.9854
▁usual	-10.9854
▁affronte	-10.9854
▁businesspeople	-10.9854
▁excuse	-10.9854
▁différenciée	-10.9854
▁démarche	-10.9854
▁nominal	-10.9854
▁bénéficiaires	-10.9854
▁partners	-10.9854
▁transfer	-10.9854
▁conservateur	-10.9854
▁fréque	-10.9854
▁renouvelables	-10.9854
▁antifraude	-10.9854
▁honour	-10.9854
▁Work	-10.9854
▁Aussi	-10.9854
friend	-10.9854
▁sévère	-10.9854
▁inévitable	-10.9855
▁prerequisite	-10.9855
▁volontiers	-10.9855
▁enhance	-10.9855
▁punish	-10.9855
▁fisheries	-10.9855
▁sphere	-10.9855
▁compétitif	-10.9855
▁administratif	-10.9855
▁Today	-10.9855
▁bilatérale	-10.9855
▁advisors	-10.9855
▁client	-10.9855
▁zonage	-10.9855
▁exclusif	-10.9855
▁souhaiterais	-10.9855
alimente	-10.9855
▁taille	-10.9855
▁réputation	-10.9855
▁Liberal	-10.9855
▁ravi	-10.9855
▁étatique	-10.9855
▁citerai	-10.9855
▁roll	-10.9856
▁beneficial	-10.9856
▁félicitations	-10.9856
▁assurances	-10.9856
▁conviendrait	-10.9856
▁heureux	-10.9856
▁stability	-10.9856
▁vigorous	-10.9856
wn	-10.9856
ancienne	-10.9856
▁acquitte	-10.9857
▁reviendra	-10.9857
▁cargo	-10.9858
▁towns	-10.9858
▁bound	-10.9858
▁insistant	-10.9858
▁survie	-10.9858
▁carences	-10.9858
▁corruption	-10.9858
▁24	-10.9858
▁inquiet	-10.9858
▁reveal	-10.9858
▁remerciant	-10.9858
▁attelé	-10.9858
lease	-10.9858
▁yourself	-10.9858
▁confused	-10.9858
▁contrary	-10.9859
▁arrêté	-10.9859
▁permitted	-10.9859
▁furthermore	-10.9859
▁planification	-10.986
▁deviendra	-10.986
▁commit	-10.986
▁satisfactory	-10.986
▁défaillance	-10.986
▁forcefully	-10.986
▁répéter	-10.986
▁pouvaient	-10.986
▁standardised	-10.9861
▁réfléchir	-10.9861
▁undertake	-10.9861
wan	-10.9862
▁optimism	-10.9862
▁preparation	-10.9862
▁souscrit	-10.9863
NA	-10.9863
▁éventuellement	-10.9863
▁couvre	-10.9863
▁priori	-10.9864
▁terminerai	-10.9865
▁estimons	-10.9865
▁everyone	-10.9866
▁depend	-10.9866
▁Also	-10.9867
▁compliment	-10.9868
▁renewable	-10.9868
▁manifestement	-10.9868
▁permettez	-10.9869
▁acceptance	-10.987
▁abandoned	-10.987
▁spécialisés	-10.987
▁appeal	-10.987
▁peine	-10.9871
▁allocation	-10.9871
▁Russia	-10.9872
▁judicieuse	-10.9873
▁destruction	-10.9874
▁answered	-10.9874
▁traduire	-10.9874
▁attentivement	-10.9875
▁command	-10.9875
▁parlons	-10.9876
▁assumer	-10.9876
▁significance	-10.9876
▁threaten	-10.9876
▁activement	-10.9877
▁decisive	-10.9877
▁imput	-10.9877
▁obtain	-10.9877
▁stimulant	-10.9877
▁distance	-10.9878
▁disregard	-10.9878
▁manufacturier	-10.9879
▁Comp	-10.9879
▁liable	-10.9879
▁perfectly	-10.988
▁differ	-10.988
▁confirmed	-10.9881
▁provenan	-10.9882
▁détaillée	-10.9882
▁justifying	-10.9882
▁count	-10.9884
▁ignor	-10.9884
▁estimé	-10.9884
▁invita	-10.9884
▁easi	-10.9885
▁conscient	-10.9886
▁amélioré	-10.9886
▁-40	-10.9886
▁encadr	-10.9886
▁réparer	-10.9887
▁simplify	-10.9887
▁financièrement	-10.9888
▁month	-10.9888
ine	-10.9889
▁realised	-10.989
▁attendant	-10.9892
▁yeux	-10.9892
▁finish	-10.9894
alheureusement	-10.9895
2006	-10.9896
▁endorsed	-10.9896
▁poursuivis	-10.9896
▁eco	-10.9897
gnol	-10.9897
▁president	-10.9899
▁discre	-10.9899
▁sums	-10.99
▁défenseur	-10.99
▁patrons	-10.99
▁climat	-10.9901
▁constraints	-10.9901
▁synergies	-10.9901
▁infringements	-10.9901
▁circonstances	-10.9901
▁licenciements	-10.9901
▁événements	-10.9901
▁réglementaires	-10.9901
▁insuffisances	-10.9901
▁formuler	-10.9901
▁villes	-10.9902
▁sérieuses	-10.9903
accroissent	-10.9904
▁industriels	-10.9904
▁latter	-10.9905
▁croissant	-10.9906
▁reviewed	-10.9906
▁élevées	-10.9907
▁verticales	-10.9907
▁quart	-10.9907
gains	-10.9907
▁baisse	-10.9909
▁frappé	-10.9909
▁insuffisante	-10.9909
▁suspect	-10.991
▁rejection	-10.991
▁strengthened	-10.9912
▁degrés	-10.9914
▁organisé	-10.9914
▁dég	-10.9915
▁compensate	-10.9915
▁customer	-10.9916
pour	-10.9916
▁dispositi	-10.9917
▁pursued	-10.9917
▁moderniser	-10.9918
stration	-10.9918
▁suggested	-10.9918
▁reserve	-10.9918
▁subord	-10.992
04/1999	-10.992
5-00	-10.992
▁Sea	-10.9922
mène	-10.9922
▁revêtir	-10.9923
▁fine	-10.9924
▁devenu	-10.9924
▁gardien	-10.9925
▁satisfied	-10.9925
▁prochainement	-10.9926
▁renvo	-10.9927
▁enact	-10.9928
▁thématique	-10.9929
▁perdu	-10.9931
▁harmonised	-10.9933
▁employees	-10.9934
▁produced	-10.9938
▁damaged	-10.9939
▁mé	-10.9939
▁questionnaire	-10.994
▁highest	-10.994
▁barri	-10.994
▁She	-10.994
▁matériel	-10.9942
▁pilo	-10.9942
▁efficiently	-10.9944
▁eight	-10.9944
▁Alexand	-10.9946
▁chasse	-10.9947
▁commend	-10.9948
▁saving	-10.9949
use	-10.9951
▁motif	-10.9951
tland	-10.9954
▁disposent	-10.9954
▁suspend	-10.9956
aines	-10.9959
▁path	-10.9959
▁infraction	-10.996
▁Minister	-10.9961
ume	-10.9962
▁satisfait	-10.9965
▁remise	-10.9966
▁welcomed	-10.9967
▁shame	-10.997
▁endroit	-10.997
▁previously	-10.997
igu	-10.9971
▁constater	-10.9975
avér	-10.9976
▁danger	-10.9977
▁instances	-10.9979
▁networks	-10.9983
▁incen	-10.9986
▁happening	-10.9988
▁finding	-10.9988
▁Lorsqu	-10.9988
▁permette	-10.9989
interinstitution	-10.999
▁naturelles	-10.9993
▁posent	-10.9995
rious	-10.9998
▁revers	-10.9998
▁accompagn	-11.0002
▁constitution	-11.0003
▁guaranteed	-11.0007
▁parv	-11.0007
rish	-11.0009
▁horizontal	-11.0015
▁décentralisée	-11.0023
▁nuisan	-11.0023
shed	-11.0023
▁sides	-11.0026
inate	-11.0027
▁exposé	-11.0029
loy	-11.0029
▁basé	-11.0032
▁satisfaits	-11.0036
orientat	-11.0041
ke	-11.0042
iers	-11.0042
▁cite	-11.0045
▁remov	-11.0048
sus	-11.0053
▁abstract	-11.0055
uelles	-11.0059
▁deadlines	-11.0061
▁beneficiar	-11.0062
▁vérit	-11.0063
▁acquis	-11.0065
▁montrent	-11.0066
▁exprimées	-11.0066
▁multiplic	-11.0068
▁intégrées	-11.007
▁votons	-11.007
decentralisation	-11.0072
▁prêter	-11.0076
▁fondamentales	-11.0076
▁produite	-11.008
fence	-11.0082
▁confidenti	-11.0085
▁élus	-11.0087
▁building	-11.0089
introduir	-11.009
▁Autriche	-11.0092
▁évoluer	-11.0094
▁coheren	-11.0099
▁formulées	-11.01
▁restrict	-11.0104
ol	-11.0105
▁constituen	-11.0105
▁entraîne	-11.0107
▁pull	-11.011
bility	-11.0111
▁signé	-11.0118
▁sup	-11.012
▁défici	-11.012
▁plain	-11.0124
▁conduis	-11.0126
▁liberal	-11.0131
▁touchés	-11.0134
▁marges	-11.0141
envisage	-11.0142
▁factors	-11.0146
▁cert	-11.0147
▁economics	-11.0147
▁inspire	-11.0148
▁ajouter	-11.015
▁entails	-11.0154
▁décider	-11.0155
▁carr	-11.0172
▁entrer	-11.0174
▁stimul	-11.0179
▁méthode	-11.0181
▁passées	-11.0185
▁lacune	-11.0185
▁abandonn	-11.0187
▁juridiquement	-11.0188
▁tend	-11.0188
llet	-11.0196
▁soutient	-11.0204
▁lacking	-11.0206
▁po	-11.0212
▁failures	-11.0224
▁lastly	-11.0225
▁prolong	-11.0226
▁centralisée	-11.0239
▁object	-11.0241
▁thoughts	-11.0242
▁prove	-11.0248
cripti	-11.0249
▁consolid	-11.0255
▁inutiles	-11.0257
rotection	-11.0289
▁profil	-11.0289
▁old	-11.0297
▁definit	-11.0297
▁recours	-11.0298
▁reconnaiss	-11.0302
▁entrepreneurs	-11.0303
également	-11.0306
▁soutenus	-11.0308
▁nord	-11.031
▁voy	-11.0315
acier	-11.0326
▁Presidents	-11.0333
▁prime	-11.034
▁utilise	-11.0342
▁marginalis	-11.0343
▁respecter	-11.0345
▁tiendra	-11.0366
▁delays	-11.0367
▁General	-11.0382
mbre	-11.0385
▁conception	-11.0386
▁agricoles	-11.0387
▁réflexions	-11.0387
▁parlementaires	-11.0387
▁explanations	-11.0388
▁limites	-11.039
▁échange	-11.0392
▁annuels	-11.0394
ements	-11.0399
▁Éta	-11.0409
act	-11.0415
fol	-11.042
era	-11.0429
▁Italie	-11.0443
call	-11.0449
▁front	-11.0451
▁rég	-11.0457
▁operations	-11.0463
doubt	-11.0481
▁espa	-11.0485
▁surmont	-11.0495
▁Ro	-11.0502
eusement	-11.0506
▁réserves	-11.0511
tions	-11.0513
ro	-11.0514
▁lois	-11.0514
▁illustre	-11.0522
préhensi	-11.0528
▁indicate	-11.0531
▁quote	-11.0538
▁résulte	-11.0544
▁maritimes	-11.0549
▁pleas	-11.055
▁stratégiques	-11.0551
centralised	-11.0554
▁industrie	-11.056
▁justifiée	-11.0561
▁Gr	-11.057
vais	-11.0571
ndre	-11.0572
▁quo	-11.0582
rt	-11.0585
▁legally	-11.0593
èle	-11.0595
▁issu	-11.0613
▁limitée	-11.0618
▁card	-11.0619
▁croi	-11.0624
élég	-11.0626
▁poursuiv	-11.0636
▁warn	-11.0639
▁multiple	-11.0647
gé	-11.0651
▁fear	-11.0651
▁perce	-11.0655
▁allocate	-11.0658
▁politici	-11.066
ood	-11.0663
ensive	-11.0676
▁age	-11.0679
▁fat	-11.0681
artisan	-11.0686
day	-11.0698
ario	-11.0701
▁Mal	-11.0706
▁apport	-11.0707
▁partnerships	-11.0711
▁partenariats	-11.0711
▁intentions	-11.0717
▁longue	-11.0718
▁concentr	-11.0727
▁handicapé	-11.0727
▁Ne	-11.0728
▁Cet	-11.075
convenien	-11.0768
▁follows	-11.077
iger	-11.0772
petition	-11.0773
▁préconise	-11.0781
▁sus	-11.0783
▁supprime	-11.0788
▁syn	-11.0793
▁bind	-11.0793
institutionnel	-11.0795
▁characteris	-11.0797
red	-11.0797
tic	-11.0803
▁frequent	-11.081
▁Thi	-11.0815
▁définis	-11.082
rons	-11.082
▁dur	-11.082
▁parvenu	-11.0825
itère	-11.0849
▁consist	-11.0854
8)	-11.0862
ake	-11.0864
du	-11.0865
(199	-11.0866
▁menée	-11.0869
ease	-11.087
mpetition	-11.0888
▁compar	-11.0889
▁certificate	-11.0889
▁effr	-11.0898
pon	-11.0907
treme	-11.0921
▁assume	-11.0925
▁fass	-11.093
▁durables	-11.0932
dessus	-11.0933
▁gui	-11.0937
dependent	-11.0938
ates	-11.0939
▁examinée	-11.094
00	-11.0944
▁executi	-11.0951
▁soutiendra	-11.0954
▁Mark	-11.0957
mènera	-11.0965
▁practices	-11.0968
bre	-11.097
do	-11.0979
ving	-11.0979
▁approuvée	-11.0987
▁cherch	-11.0989
▁excellente	-11.1007
▁regrett	-11.1025
pier	-11.1025
▁har	-11.1033
▁aurai	-11.1039
▁creuse	-11.1041
▁visée	-11.1046
nisme	-11.1055
▁générales	-11.1063
▁circ	-11.1065
▁days	-11.1067
▁pacte	-11.1086
▁individuals	-11.1088
her	-11.1096
▁significati	-11.1098
née	-11.1133
▁devr	-11.1135
▁3.	-11.114
▁angle	-11.1146
▁devi	-11.1147
▁urgenc	-11.1153
iser	-11.1166
▁compare	-11.1172
nou	-11.1191
▁lancé	-11.1196
▁reconsider	-11.1198
▁rencontr	-11.1201
UR	-11.1214
netheless	-11.1216
▁ga	-11.1234
▁accu	-11.1241
pet	-11.1259
adequate	-11.1262
ip	-11.1262
▁pursue	-11.1279
▁textes	-11.1299
ille	-11.13
iron	-11.1323
lles	-11.1334
▁présen	-11.1337
int	-11.1337
▁clé	-11.1338
▁influenc	-11.1339
posées	-11.1341
▁mains	-11.1342
▁manifest	-11.1349
▁prévue	-11.1355
▁133	-11.1356
▁prob	-11.139
▁core	-11.1395
▁estimer	-11.1407
mili	-11.1413
▁fiscal	-11.1419
▁compromise	-11.1423
▁énorm	-11.1426
▁commenc	-11.145
▁sco	-11.1454
▁scandal	-11.1461
▁mettr	-11.1462
▁calcul	-11.1496
▁conserve	-11.1514
▁renouvel	-11.1526
▁dénonc	-11.1528
ud	-11.1533
▁wors	-11.1537
érer	-11.1537
ague	-11.1538
▁ideas	-11.1547
▁Br	-11.1551
▁pouv	-11.1595
test	-11.1609
▁hid	-11.1613
eraient	-11.1617
▁suscite	-11.1628
▁Hea	-11.1631
eut	-11.1634
▁mass	-11.1641
uille	-11.1664
▁complain	-11.1678
isées	-11.1679
uses	-11.1689
ntiers	-11.1693
▁ven	-11.1697
imé	-11.1715
▁mett	-11.1721
▁ca	-11.1729
▁privilégi	-11.1743
tient	-11.1747
▁fauss	-11.175
ither	-11.176
mbler	-11.1761
▁analyses	-11.1805
sh	-11.1805
content	-11.1809
▁garantiss	-11.1821
▁hon	-11.1826
environnementale	-11.1833
▁exempte	-11.1838
▁diminuer	-11.1843
▁disposé	-11.1852
▁releva	-11.1861
ues	-11.1865
▁collect	-11.1892
▁3,	-11.1926
▁demeurer	-11.1949
▁faites	-11.1969
▁validit	-11.1976
▁subjects	-11.1989
elecommunication	-11.2
actualité	-11.2001
enver	-11.2008
ically	-11.2021
uch	-11.2024
gure	-11.2025
sant	-11.2027
cher	-11.2038
exécut	-11.2039
endre	-11.2041
ded	-11.2052
▁null	-11.2053
▁head	-11.207
▁détermine	-11.2074
gne	-11.2102
▁prouve	-11.2113
▁Hed	-11.212
▁bu	-11.2145
eak	-11.2152
itre	-11.2152
▁none	-11.2163
iden	-11.2168
▁soumise	-11.2174
▁inquir	-11.2182
▁Sec	-11.2194
▁investigati	-11.2201
▁aris	-11.2203
▁Is	-11.2208
▁fondamentale	-11.2218
rough	-11.2235
▁fell	-11.2324
▁rece	-11.2351
noncé	-11.2352
▁committees	-11.2354
euille	-11.2371
▁size	-11.2375
▁sustain	-11.2387
▁philosophi	-11.2388
▁saisi	-11.2407
▁Wis	-11.2428
▁visit	-11.243
▁bro	-11.2435
▁ajoute	-11.2459
▁sensi	-11.2464
▁consigne	-11.25
▁Apar	-11.2513
Orientation	-11.2521
▁confér	-11.2527
ow	-11.253
ssent	-11.254
intéresse	-11.2542
erait	-11.2548
▁introduite	-11.2549
▁Su	-11.2551
limitation	-11.2561
▁guid	-11.2561
sound	-11.2562
▁protocole	-11.2574
▁equ	-11.259
▁caractérise	-11.2599
▁traverse	-11.2601
ha	-11.2601
▁slic	-11.2606
antes	-11.2606
▁Li	-11.2607
spect	-11.262
▁proposes	-11.2653
térieur	-11.2658
études	-11.2661
tally	-11.2678
ncy	-11.2686
▁comptes	-11.2689
▁entame	-11.2696
▁interven	-11.2697
▁sp	-11.2699
▁contribuera	-11.2703
▁adresse	-11.2706
ading	-11.2741
▁consolidat	-11.2752
emorandum	-11.2757
▁Ma	-11.2757
▁bas	-11.2782
▁Pe	-11.2787
▁consister	-11.2793
ything	-11.2801
▁tempor	-11.2804
▁dissatisf	-11.2809
sion	-11.2826
rez	-11.2828
▁accessi	-11.2831
pt	-11.2834
toire	-11.2865
▁lente	-11.2877
lier	-11.2877
27	-11.2899
nez	-11.2902
▁généra	-11.2918
ifier	-11.2922
eaux	-11.2928
iting	-11.293
▁accomplis	-11.2934
his	-11.2946
alisation	-11.2948
orm	-11.2949
▁reprend	-11.2951
sieurs	-11.2963
▁adéquat	-11.2973
▁ph	-11.2996
institutionnelle	-11.2998
ler	-11.3001
▁intégr	-11.302
▁bénéfici	-11.3048
▁indirect	-11.3059
▁exclud	-11.3081
▁attach	-11.3086
edly	-11.309
▁gard	-11.3091
▁contribue	-11.3135
▁appar	-11.3152
▁Ex	-11.3152
▁complét	-11.3158
▁afr	-11.3178
iens	-11.3181
aurais	-11.3183
▁prono	-11.3192
nts	-11.3194
▁dominant	-11.3203
▁ag	-11.3223
▁solide	-11.3227
▁pres	-11.3239
gens	-11.3253
tock	-11.3269
ssible	-11.3279
orld	-11.3284
arket	-11.3285
thly	-11.329
quer	-11.3292
▁typ	-11.3299
▁soutiendr	-11.3302
ssions	-11.3306
▁habit	-11.3311
▁jui	-11.3318
ores	-11.3327
ually	-11.3345
▁traîne	-11.3347
▁impatien	-11.3356
excellent	-11.3361
▁Celle	-11.3402
1999	-11.3407
plan	-11.341
bour	-11.3423
▁délimit	-11.3425
▁catastroph	-11.3426
ner	-11.3446
spit	-11.3454
▁reg	-11.3455
▁employe	-11.3467
▁préci	-11.347
ard	-11.3481
▁driv	-11.3485
▁impliquer	-11.3488
▁characterise	-11.351
▁cro	-11.3517
▁probab	-11.3522
▁permett	-11.3532
fo	-11.3536
▁justes	-11.3536
▁Nor	-11.3546
espa	-11.3596
usion	-11.3607
▁urg	-11.362
ssement	-11.3621
▁tempt	-11.3623
tiers	-11.3651
▁oblige	-11.3657
▁connais	-11.3663
union	-11.3664
gel	-11.3669
▁replac	-11.3693
▁logic	-11.37
▁conforme	-11.3704
table	-11.3739
alité	-11.3739
outer	-11.3742
mar	-11.3747
▁institu	-11.3759
uge	-11.3771
ève	-11.3777
▁financé	-11.3782
▁considérable	-11.3787
ional	-11.3805
▁diminue	-11.3821
ér	-11.3834
▁illustr	-11.3854
▁justifié	-11.3858
▁déplor	-11.3865
▁prév	-11.3866
rise	-11.387
▁fourni	-11.3872
▁potenti	-11.3878
ook	-11.3882
national	-11.3898
ction	-11.3899
economic	-11.3905
▁entraîn	-11.3907
▁prosp	-11.3908
▁fier	-11.391
▁calculat	-11.391
▁ava	-11.3911
▁Car	-11.3951
▁Fin	-11.3954
▁cité	-11.3956
▁submit	-11.3964
rate	-11.3966
ock	-11.3966
▁pie	-11.3969
acher	-11.3975
▁cré	-11.3982
2/	-11.3997
cent	-11.4001
position	-11.4018
iques	-11.4021
work	-11.4023
écart	-11.4024
ton	-11.4031
▁É	-11.4041
▁hé	-11.4051
em	-11.4065
▁experienc	-11.4066
nly	-11.4076
onné	-11.4087
montée	-11.4095
▁parven	-11.4098
placement	-11.4114
hern	-11.4118
▁resteron	-11.4122
▁waste	-11.4127
tates	-11.4144
▁try	-11.4148
ency	-11.4158
main	-11.417
volution	-11.421
▁lien	-11.4212
ound	-11.4215
normal	-11.4218
apport	-11.4222
faste	-11.4242
Rob	-11.425
nch	-11.4254
étude	-11.4265
tifs	-11.4272
ifthly	-11.4278
gu	-11.4286
▁assur	-11.4287
rms	-11.4291
now	-11.4296
Ke	-11.4312
place	-11.4322
▁agisse	-11.4323
▁dépass	-11.4332
▁val	-11.4333
ships	-11.4333
La	-11.4342
▁pourrai	-11.4342
erre	-11.4347
avocat	-11.4354
▁fee	-11.4355
lu	-11.4362
orientation	-11.4362
ster	-11.4363
how	-11.4364
marque	-11.4373
ajouter	-11.4373
▁ent	-11.4378
▁remplace	-11.4378
▁structurel	-11.4383
étant	-11.4384
▁décide	-11.4384
support	-11.4391
avez	-11.4416
Bas	-11.4421
ver	-11.4421
active	-11.4426
▁né	-11.4429
07	-11.443
▁abandon	-11.4431
sector	-11.4432
clear	-11.4433
ask	-11.4437
Organisation	-11.444
scoreboard	-11.4442
effectu	-11.4443
▁revi	-11.4444
level	-11.4445
office	-11.4446
ground	-11.4448
intérieur	-11.4451
▁recul	-11.4451
▁read	-11.4457
utilise	-11.446
think	-11.4463
▁str	-11.4478
issue	-11.4482
abus	-11.4483
avaient	-11.4486
appui	-11.4486
échelle	-11.4487
expression	-11.4488
responsabilité	-11.449
exerci	-11.4493
cinq	-11.4494
Amsterdam	-11.4495
impôt	-11.4496
PPE	-11.4496
class	-11.4496
exclusion	-11.4498
expérience	-11.4498
organisation	-11.4498
CECA	-11.45
effort	-11.4505
consistent	-11.4508
tension	-11.4512
Autriche	-11.4512
▁insiste	-11.4513
necessarily	-11.4513
exception	-11.4513
Als	-11.4516
▁cofinanc	-11.4517
stop	-11.4518
▁changer	-11.452
capacité	-11.4523
▁ac	-11.4524
▁considérée	-11.453
agreed	-11.454
encourage	-11.4543
establish	-11.4547
specific	-11.4547
obten	-11.4548
orientations	-11.4562
justement	-11.4563
turn	-11.4564
cession	-11.4569
14	-11.4572
normale	-11.4572
together	-11.4572
locat	-11.4574
utilis	-11.4576
▁conclu	-11.458
ententes	-11.4584
▁hit	-11.4586
tradition	-11.4587
ram	-11.4592
158	-11.4597
rrière	-11.4604
ouvri	-11.4605
vu	-11.4608
avance	-11.4609
lement	-11.461
liers	-11.4616
▁profite	-11.4617
▁naturelle	-11.4626
étendre	-11.4627
▁paradox	-11.4631
▁géographique	-11.4633
▁relationship	-11.4633
▁decade	-11.4633
▁disturbance	-11.4634
intensifi	-11.4635
▁demandai	-11.4636
lution	-11.4642
tell	-11.4642
▁news	-11.4645
▁guideline	-11.4645
▁dramatique	-11.4646
▁Chair	-11.4648
Del	-11.4649
ov	-11.4652
▁network	-11.4652
▁instance	-11.4656
imp	-11.4658
hol	-11.4659
▁arrangement	-11.466
ché	-11.466
▁dangereuse	-11.4663
ill	-11.4664
▁réjoui	-11.4664
▁suggér	-11.4668
▁élément	-11.4668
▁inquiétude	-11.467
▁fon	-11.4671
▁tunnel	-11.4672
ordonn	-11.4672
▁financier	-11.4675
▁judgement	-11.4679
▁disparité	-11.468
▁occasional	-11.4694
▁author	-11.47
politiques	-11.4701
▁humaine	-11.4702
organ	-11.4708
▁éloign	-11.4715
▁accru	-11.4724
▁possibles	-11.4733
▁améliore	-11.4734
▁procéd	-11.4737
▁kil	-11.4737
▁mondial	-11.4739
▁reject	-11.4743
apprécie	-11.4747
nnual	-11.4748
▁jug	-11.475
ni	-11.4753
▁custom	-11.4753
▁parfait	-11.4755
▁civil	-11.4755
▁vigilan	-11.4757
interpr	-11.4758
affirme	-11.4764
▁délicat	-11.4768
▁educat	-11.4769
loo	-11.4769
ationalisation	-11.477
▁insuffisant	-11.4772
ser	-11.4773
si	-11.4773
pus	-11.4775
▁fournie	-11.4777
▁proceeding	-11.4777
reme	-11.4777
▁stag	-11.4779
▁diff	-11.4784
▁ratifié	-11.4787
gni	-11.4794
▁opportunité	-11.48
▁respecté	-11.4804
vers	-11.4808
U	-11.481
ystem	-11.4812
▁présiden	-11.4812
▁member	-11.4812
whi	-11.4813
▁rejoin	-11.4814
▁convainc	-11.4815
▁justify	-11.4816
afety	-11.4817
spillage	-11.4817
define	-11.4819
kill	-11.4821
▁decrease	-11.4822
▁restructure	-11.4823
▁qualifie	-11.4827
▁adopter	-11.4827
uelle	-11.4827
▁concerné	-11.4828
▁declare	-11.4828
épar	-11.4829
▁accordée	-11.483
▁laisse	-11.483
▁scrutin	-11.483
ociety	-11.4831
horizon	-11.4834
▁technologie	-11.4835
▁unfortunate	-11.4835
▁révél	-11.4836
▁sin	-11.4837
▁mistake	-11.4838
EN	-11.4839
99	-11.4839
▁reconnaît	-11.4839
▁éventuelle	-11.484
ême	-11.4841
▁monopole	-11.4843
▁Portug	-11.4843
ço	-11.4843
titude	-11.4843
▁except	-11.4845
uatrième	-11.4847
5-0073/1999	-11.4847
5-0078/1999	-11.4847
5-0087/1999	-11.4847
anifestement	-11.4848
ssorti	-11.4849
▁retro	-11.485
▁fift	-11.485
▁expéri	-11.4851
▁consommat	-11.4851
▁progressive	-11.4851
▁échel	-11.4852
▁irregularit	-11.4852
▁procure	-11.4852
▁différente	-11.4852
intervien	-11.4853
▁communauta	-11.4853
standing	-11.4853
5-0	-11.4854
▁éclairci	-11.4854
▁favorise	-11.4854
Objecti	-11.4854
▁gigant	-11.4854
▁scrupul	-11.4854
SE	-11.4854
▁champion	-11.4854
▁dénatur	-11.4854
▁enregistré	-11.4854
▁interpell	-11.4854
▁laborieuse	-11.4854
▁mobilisé	-11.4854
▁protagonist	-11.4854
▁quotidienne	-11.4854
▁systém	-11.4854
▁ultérieure	-11.4854
▁écoulé	-11.4854
Applau	-11.4854
automobile	-11.4854
démocrat	-11.4854
effroyable	-11.4854
entrepreneurship	-11.4854
functional	-11.4854
irrecevab	-11.4854
laundering	-11.4854
ltifonctionnelle	-11.4854
ologies	-11.4854
éditerranée	-11.4854
▁1260/99	-11.4854
▁17/62	-11.4854
▁1762	-11.4854
▁81.3	-11.4854
▁9002	-11.4854
▁Agreement	-11.4854
▁Ankara	-11.4854
▁Auditors	-11.4854
▁Brandenburg	-11.4854
▁Casablanca	-11.4854
▁Castro	-11.4854
▁Citizens	-11.4854
▁College	-11.4854
▁Collège	-11.4854
▁Echternach	-11.4854
▁Eieck	-11.4854
▁Empress	-11.4854
▁English	-11.4854
▁Factortame	-11.4854
▁Forestier	-11.4854
▁Friday	-11.4854
▁Goebbels	-11.4854
▁Grèce	-11.4854
▁Hicks	-11.4854
▁Huhne	-11.4854
▁Indonesia	-11.4854
▁LTCM	-11.4854
▁Madeira	-11.4854
▁Mediterranean	-11.4854
▁Netherlands	-11.4854
▁PREUSSAG	-11.4854
▁Raschhofer	-11.4854
▁SPG	-11.4854
▁Savary	-11.4854
▁Simpson	-11.4854
▁Situation	-11.4854
▁Vodafone	-11.4854
▁Wurtz	-11.4854
▁Wynn	-11.4854
▁accommodated	-11.4854
▁affiché	-11.4854
▁automatically	-11.4854
▁autonomie	-11.4854
▁biosph	-11.4854
▁calendrier	-11.4854
▁campagne	-11.4854
▁cargaison	-11.4854
▁coastguard	-11.4854
▁communautés	-11.4854
▁communitisation	-11.4854
▁complémentaire	-11.4854
▁compétents	-11.4854
▁contradictoire	-11.4854
▁cornerstone	-11.4854
▁criterion	-11.4854
▁denominator	-11.4854
▁diplomati	-11.4854
▁disintegration	-11.4854
▁disponibilité	-11.4854
▁disponibles	-11.4854
▁districts	-11.4854
▁délocalisation	-11.4854
▁dérogatoire	-11.4854
▁déroule	-11.4854
▁exacerbate	-11.4854
▁exonéré	-11.4854
▁expertise	-11.4854
▁fabri	-11.4854
▁heritage	-11.4854
▁hindrance	-11.4854
▁hospitals	-11.4854
▁hypocris	-11.4854
▁hypoth	-11.4854
▁hôpitaux	-11.4854
▁incapable	-11.4854
▁individus	-11.4854
▁inefficace	-11.4854
▁inevitabl	-11.4854
▁injustifié	-11.4854
▁insecurity	-11.4854
▁interromp	-11.4854
▁intolerable	-11.4854
▁invariablement	-11.4854
▁livelihood	-11.4854
▁magnifique	-11.4854
▁newspaper	-11.4854
▁négatifs	-11.4854
▁négligé	-11.4854
▁obstructi	-11.4854
▁parallèlement	-11.4854
▁patrimoine	-11.4854
▁pavillon	-11.4854
▁performance	-11.4854
▁performantes	-11.4854
▁permissible	-11.4854
▁predict	-11.4854
▁primarily	-11.4854
▁propriétaire	-11.4854
▁prématuré	-11.4854
▁qualifié	-11.4854
▁regeneration	-11.4854
▁reinforce	-11.4854
▁rhétorique	-11.4854
▁routine	-11.4854
▁régénération	-11.4854
▁school	-11.4854
▁shareholders	-11.4854
▁signature	-11.4854
▁siècle	-11.4854
▁smooth	-11.4854
▁societies	-11.4854
▁stubborn	-11.4854
▁subsidiary	-11.4854
▁substitu	-11.4854
▁supérieur	-11.4854
▁territory	-11.4854
▁unsatisfactory	-11.4854
▁vacuum	-11.4854
▁véhémence	-11.4854
▁ébranl	-11.4854
▁éclairer	-11.4854
▁écoles	-11.4854
▁Geneva	-11.4854
▁anomalie	-11.4854
▁bridge	-11.4854
alvinist	-11.4854
approbation	-11.4854
comptabilis	-11.4854
▁95/35/	-11.4854
▁Asturi	-11.4854
▁November	-11.4854
▁Tobin	-11.4854
▁advisable	-11.4854
▁alleviat	-11.4854
▁assassin	-11.4854
▁catholi	-11.4854
▁corrobor	-11.4854
▁disburse	-11.4854
▁extraordina	-11.4854
▁idoine	-11.4854
▁inhabitant	-11.4854
▁innocent	-11.4854
▁intellectu	-11.4854
▁minutieuse	-11.4854
▁misunderstand	-11.4854
▁prestig	-11.4854
▁proclam	-11.4854
▁recital	-11.4854
▁remédier	-11.4854
▁steadfast	-11.4854
▁systématique	-11.4854
▁tremendous	-11.4854
▁writing	-11.4854
lucidation	-11.4854
▁boulevers	-11.4854
▁century	-11.4854
▁colossa	-11.4854
▁compliqué	-11.4854
▁détourn	-11.4854
▁finnois	-11.4854
▁pétrolières	-11.4854
▁ultralib	-11.4854
▁zero	-11.4854
▁Palerm	-11.4854
▁Trade	-11.4854
▁across	-11.4854
▁compatibilit	-11.4854
▁conflit	-11.4854
▁formidable	-11.4854
▁précède	-11.4854
/99	-11.4854
▁Because	-11.4854
▁coincid	-11.4854
▁grandiose	-11.4854
▁memory	-11.4854
▁perfectionner	-11.4854
▁shortcomings	-11.4854
▁synergy	-11.4854
▁écho	-11.4854
novation	-11.4854
▁autonome	-11.4854
▁démant	-11.4854
▁valoris	-11.4854
▁vessel	-11.4854
▁imparti	-11.4854
▁realistic	-11.4854
▁trillion	-11.4854
▁ventilat	-11.4854
▁inadequacies	-11.4854
▁absurd	-11.4854
▁possède	-11.4854
▁découvr	-11.4854
▁Européen	-11.4854
▁lendemain	-11.4854
▁négligeable	-11.4854
▁échec	-11.4854
▁interrog	-11.4854
incendie	-11.4854
lisab	-11.4854
nitz	-11.4854
▁dilemm	-11.4854
▁transplant	-11.4854
▁Japon	-11.4854
▁Canad	-11.4854
▁inquisit	-11.4854
▁apparently	-11.4854
basti	-11.4854
étrang	-11.4854
▁advise	-11.4854
▁appuy	-11.4854
▁remède	-11.4854
intensive	-11.4854
▁convey	-11.4854
▁litig	-11.4854
▁rouge	-11.4854
▁deserves	-11.4854
▁flag	-11.4854
▁Next	-11.4854
▁gesture	-11.4854
▁résumer	-11.4854
▁spread	-11.4854
ômes	-11.4854
▁pillor	-11.4854
gligence	-11.4854
▁Preferences	-11.4854
▁ratify	-11.4854
▁écouter	-11.4854
▁Guid	-11.4854
(4).	-11.4855
▁artificiel	-11.4855
▁idéolog	-11.4855
▁South	-11.4855
▁raisonnable	-11.4855
▁territoriaux	-11.4855
fédéraliste	-11.4855
▁divergence	-11.4855
▁ideolog	-11.4855
▁étendu	-11.4855
▁Madère	-11.4855
▁grossière	-11.4855
▁renferme	-11.4855
▁Brande	-11.4855
implantation	-11.4855
▁facile	-11.4855
▁Director	-11.4855
▁ardeur	-11.4855
▁répercussions	-11.4855
▁insularit	-11.4855
▁pieds	-11.4855
▁dérogations	-11.4855
▁consignées	-11.4855
▁explosive	-11.4855
▁partagés	-11.4855
▁voiced	-11.4855
bourg	-11.4855
05	-11.4855
▁concertation	-11.4855
▁farmers	-11.4855
▁discré	-11.4855
▁expense	-11.4855
▁rentable	-11.4855
▁1982	-11.4855
▁concluding	-11.4855
▁enferme	-11.4855
▁disciplinaire	-11.4855
▁douan	-11.4855
preceden	-11.4855
quita	-11.4855
▁quasi	-11.4855
iculous	-11.4855
▁irré	-11.4855
▁reçoivent	-11.4855
▁specify	-11.4855
▁transnational	-11.4856
▁Direct	-11.4856
▁contrast	-11.4856
▁franchement	-11.4856
▁décisif	-11.4856
aveugle	-11.4856
▁Directorate	-11.4856
▁éligible	-11.4856
jam	-11.4856
▁trompe	-11.4856
▁Mexi	-11.4856
▁abstenu	-11.4856
▁flaw	-11.4856
▁prize	-11.4856
▁glad	-11.4856
▁hésit	-11.4856
▁redress	-11.4856
▁reinstate	-11.4856
▁reconversion	-11.4856
▁irregularities	-11.4856
▁flexibili	-11.4856
▁capitalisation	-11.4856
▁morning	-11.4857
▁démar	-11.4857
certitude	-11.4857
▁érig	-11.4857
▁thoughtful	-11.4857
▁regroupe	-11.4857
▁scandaleux	-11.4857
▁acquisitions	-11.4857
▁termine	-11.4857
▁write	-11.4857
inki	-11.4857
▁recherché	-11.4857
▁puissants	-11.4857
▁flexible	-11.4857
(1999)01	-11.4857
▁Bud	-11.4857
▁recruit	-11.4857
▁chairm	-11.4857
▁fiscalité	-11.4858
▁team	-11.4858
▁USA	-11.4858
▁macro	-11.4858
▁universelle	-11.4858
▁exercé	-11.4858
▁fonctionné	-11.4858
thematic	-11.4858
▁US	-11.4858
▁aérien	-11.4858
▁scandalous	-11.4858
accueil	-11.4858
early	-11.4859
▁dragg	-11.4859
▁redundan	-11.4859
▁2007	-11.4859
▁classique	-11.4859
▁humanist	-11.4859
▁Greece	-11.4859
▁principaux	-11.4859
Howitt	-11.4859
acharne	-11.4859
▁Schr	-11.4859
▁drastically	-11.4859
▁regrettable	-11.486
▁PSE	-11.486
▁conference	-11.486
▁delegati	-11.486
▁démantèlement	-11.486
▁clea	-11.486
▁pervers	-11.486
▁abstained	-11.486
▁sérieusement	-11.486
▁ultim	-11.486
▁intervienne	-11.486
réfère	-11.4861
▁belie	-11.4861
▁chef	-11.4861
rouillé	-11.4861
▁visible	-11.4861
guardi	-11.4861
installations	-11.4861
▁transfrontalier	-11.4861
▁disparaissent	-11.4861
▁basses	-11.4862
▁Aucun	-11.4862
putation	-11.4862
▁bénéficiera	-11.4862
▁curb	-11.4862
▁piè	-11.4862
fter	-11.4862
▁dismantled	-11.4862
▁37	-11.4862
▁Hence	-11.4862
60	-11.4862
▁slowly	-11.4863
▁reluctantly	-11.4863
▁upheld	-11.4863
▁chapeau	-11.4863
▁réitér	-11.4863
▁adequately	-11.4863
▁vingt	-11.4863
▁Contr	-11.4863
équipage	-11.4864
▁Karas	-11.4865
▁vérification	-11.4865
▁Act	-11.4865
▁normatif	-11.4865
fic	-11.4865
99)	-11.4865
wo	-11.4866
▁unlawful	-11.4866
surance	-11.4866
▁frank	-11.4866
▁143	-11.4866
▁Sixth	-11.4866
AG	-11.4867
mann	-11.4867
cture	-11.4867
▁turnout	-11.4867
▁born	-11.4867
▁Section	-11.4867
▁treaty	-11.4867
ède	-11.4868
▁dommage	-11.4868
▁capitaux	-11.4868
▁souhaitable	-11.4868
▁relancer	-11.4869
stat	-11.4869
auro	-11.4869
▁duties	-11.4869
▁mainland	-11.487
▁confuses	-11.487
▁instructive	-11.487
▁progressivement	-11.487
▁retain	-11.487
▁éloignées	-11.487
uatrièmement	-11.4871
▁explicitly	-11.4871
▁struc	-11.4871
torit	-11.4872
▁mistaken	-11.4872
▁condamné	-11.4872
▁matche	-11.4872
nish	-11.4873
▁convergent	-11.4874
▁systematic	-11.4874
▁relativise	-11.4874
▁death	-11.4874
▁réglé	-11.4875
▁investor	-11.4875
▁insupportable	-11.4875
▁frein	-11.4875
▁exceptionnel	-11.4876
▁retained	-11.4876
arrêt	-11.4877
▁fournisseur	-11.4877
▁disappear	-11.4877
▁recall	-11.4878
▁scrutiny	-11.4878
▁monopolistique	-11.4878
▁dégag	-11.4878
▁emp	-11.4878
▁neuv	-11.4881
▁easily	-11.4882
▁army	-11.4882
▁crée	-11.4882
branche	-11.4882
▁annuelle	-11.4883
▁reco	-11.4884
▁operating	-11.4884
▁AB	-11.4884
▁circons	-11.4884
▁produire	-11.4885
▁restructurer	-11.4886
ège	-11.4886
▁decreased	-11.4887
▁launch	-11.4887
▁tough	-11.4887
▁laisser	-11.4887
▁réaliste	-11.4889
▁italienne	-11.4889
▁renforcée	-11.4891
▁historique	-11.4891
nation	-11.4891
▁Right	-11.4891
▁valable	-11.4892
▁counter	-11.4892
▁decisively	-11.4893
▁exposed	-11.4893
▁immediately	-11.4893
▁gaspilla	-11.4894
▁rapidly	-11.4894
▁rejoint	-11.4894
▁naviga	-11.4895
▁révélée	-11.4895
just	-11.4896
▁partielle	-11.4897
▁commis	-11.4899
▁mix	-11.4899
rsel	-11.49
▁mutuelle	-11.4902
▁admit	-11.4902
▁criminalité	-11.4903
▁plainte	-11.4903
▁spécifiquement	-11.4903
▁sages	-11.4904
erta	-11.4905
▁Pol	-11.4905
dvisor	-11.4906
▁Sud	-11.4906
▁originally	-11.4906
▁reiterated	-11.4908
▁explorer	-11.4908
▁confirmer	-11.4908
▁pity	-11.4909
▁baisser	-11.491
obstination	-11.491
icio	-11.491
▁speculati	-11.491
▁liability	-11.4911
▁hel	-11.4911
▁hinder	-11.4911
priv	-11.4912
▁boat	-11.4912
▁cap	-11.4912
▁prevention	-11.4912
▁distinction	-11.4912
▁perdure	-11.4915
▁enforced	-11.4916
▁réalisable	-11.4916
▁conducted	-11.4917
veryone	-11.4918
▁paper	-11.4918
▁corrective	-11.4918
sed	-11.4919
▁exposées	-11.4919
▁consacrée	-11.492
▁unknown	-11.492
▁remplacé	-11.4923
▁sépar	-11.4924
▁Gro	-11.4925
▁publiées	-11.4926
▁venu	-11.4927
risation	-11.4927
▁opérationnelle	-11.4927
▁safer	-11.4929
▁Gen	-11.493
éro	-11.493
▁citoyennes	-11.493
▁monitored	-11.4932
▁choqu	-11.4933
hipped	-11.4934
lands	-11.4934
▁crew	-11.4934
tech	-11.4935
▁advantages	-11.4936
▁augur	-11.4937
▁capitalist	-11.4938
▁grow	-11.4938
▁MEPs	-11.4938
▁proportions	-11.4938
ij	-11.4938
▁salariés	-11.4938
▁piliers	-11.4938
▁écologiques	-11.4938
▁Conservatives	-11.4938
▁fut	-11.4938
enga	-11.4939
▁individuelles	-11.4939
▁rating	-11.494
▁accordé	-11.4941
agrég	-11.4941
▁exagéré	-11.4942
▁suscité	-11.4942
▁lourd	-11.4944
▁revenir	-11.4945
▁avoided	-11.4945
▁supprimé	-11.4945
▁subordonné	-11.4946
▁paradoxale	-11.4946
▁évaluée	-11.4947
▁remarquer	-11.4949
▁élaborées	-11.4949
▁maximise	-11.495
▁amour	-11.495
▁humains	-11.495
achat	-11.4951
▁équilibré	-11.4951
▁inférieures	-11.4952
illi	-11.4952
equitably	-11.4954
▁civile	-11.4954
▁étudi	-11.4954
proch	-11.4956
▁chère	-11.4956
▁annually	-11.4956
▁listen	-11.4957
▁dropp	-11.4957
erreur	-11.4958
▁édict	-11.4959
▁compete	-11.4959
▁majorit	-11.4959
▁associer	-11.4959
▁modifiée	-11.4961
▁censé	-11.4961
▁topic	-11.4964
▁décisionnel	-11.4964
ible	-11.4964
▁rempliss	-11.4965
▁travailler	-11.4965
foresee	-11.4967
accusation	-11.4969
▁Val	-11.4969
▁arrière	-11.4969
▁construct	-11.4973
▁partiel	-11.4973
▁évidentes	-11.4974
▁shortly	-11.4974
▁soucieuse	-11.4975
▁bomb	-11.4977
▁motivation	-11.4978
▁exerci	-11.4979
▁huit	-11.4979
ueux	-11.4979
ovo	-11.4982
▁crédi	-11.4982
▁juges	-11.4983
▁underst	-11.4985
▁prude	-11.4987
▁Euro	-11.4988
III	-11.4988
▁paradoxical	-11.4989
fulfilled	-11.499
▁imposent	-11.4991
▁pacts	-11.4993
▁analogue	-11.4993
▁esca	-11.4993
▁ajouterai	-11.4995
▁marks	-11.4998
▁redoute	-11.4999
▁garantit	-11.5001
▁scie	-11.5006
actions	-11.5006
▁image	-11.5006
▁exprimée	-11.5011
▁bord	-11.5014
▁minister	-11.5015
▁irlandais	-11.5015
▁burden	-11.5016
▁conseil	-11.5016
▁irrégularité	-11.5017
▁running	-11.5017
▁plant	-11.502
▁provoqué	-11.502
▁satisfy	-11.5021
▁modeste	-11.5021
▁incitant	-11.5023
▁hot	-11.5027
▁14	-11.503
▁accél	-11.503
▁participat	-11.5031
▁appoint	-11.5031
▁orientation	-11.5033
▁revenue	-11.5034
▁dramatise	-11.5034
▁disciplin	-11.5035
▁suggérer	-11.5043
▁franchis	-11.5044
▁restraint	-11.5044
▁moteur	-11.5046
▁completed	-11.5047
▁Af	-11.5047
▁adult	-11.5047
▁primiti	-11.5048
lessly	-11.5049
▁rappelées	-11.5055
ily	-11.5056
▁cibl	-11.5056
▁débattu	-11.5058
flict	-11.5061
▁insécurité	-11.5063
▁respectées	-11.507
▁seconde	-11.507
▁frost	-11.5071
▁couple	-11.5074
▁stressing	-11.5076
▁probable	-11.5076
▁restor	-11.5076
▁mutu	-11.5077
▁entreten	-11.5077
▁dramatiques	-11.5079
▁decades	-11.508
▁internationally	-11.508
▁géographiques	-11.508
▁disturbances	-11.508
▁décrit	-11.5081
▁relationships	-11.5082
▁judgements	-11.5083
▁speeches	-11.5084
▁évoquées	-11.5087
▁prevented	-11.509
▁sectorielles	-11.5092
gulation	-11.5093
▁spécialisée	-11.5099
dis	-11.51
▁classes	-11.5101
ssive	-11.5101
▁tradition	-11.5105
▁faiblesse	-11.5106
▁underline	-11.5106
▁reduced	-11.5108
▁ve	-11.5112
mitted	-11.5115
▁specialist	-11.5116
▁tire	-11.5117
ui	-11.5118
▁Paris	-11.5118
▁loca	-11.5118
▁Gree	-11.5121
▁décri	-11.5121
▁intensifi	-11.5123
▁garantira	-11.5125
▁évité	-11.5129
▁fournies	-11.5133
▁attendre	-11.5134
▁treat	-11.5134
▁remed	-11.5137
▁inquiét	-11.5137
▁crain	-11.5138
▁appli	-11.5138
▁qualification	-11.5141
imera	-11.5144
adopt	-11.5146
▁vary	-11.5146
▁ruin	-11.5148
gra	-11.5148
▁tackl	-11.5149
▁particip	-11.5151
▁développés	-11.5163
ormes	-11.5165
▁exc	-11.5166
▁understanding	-11.5168
▁financ	-11.517
▁secur	-11.5174
xon	-11.5177
possible	-11.5183
▁saurai	-11.5184
▁historic	-11.5193
ious	-11.5193
▁migrat	-11.5197
▁privées	-11.5197
▁initié	-11.5202
▁nationalist	-11.5206
▁respectés	-11.5209
▁abus	-11.5209
tiques	-11.521
▁web	-11.5213
▁decent	-11.5219
110	-11.5222
▁dérives	-11.5223
▁prospères	-11.5226
▁détaill	-11.5228
resume	-11.5233
rojects	-11.5234
▁findings	-11.5236
▁buildings	-11.5237
▁terribles	-11.5238
cation	-11.5239
▁hearing	-11.524
▁professions	-11.5241
▁passing	-11.5242
▁load	-11.5243
▁opportunités	-11.5243
▁vocation	-11.5245
▁engagées	-11.5246
nférence	-11.5248
▁manufacturer	-11.5248
▁inégalité	-11.5261
▁acceptés	-11.5261
▁reven	-11.5261
▁hous	-11.5262
▁accrues	-11.5265
▁exécuté	-11.5271
▁reculé	-11.5274
▁scoreboard	-11.5283
▁feron	-11.5284
▁Organisation	-11.5285
▁formal	-11.5287
▁exigence	-11.5291
sho	-11.5292
anging	-11.5296
▁harmonise	-11.5301
▁fam	-11.5305
war	-11.5306
écarte	-11.5315
▁users	-11.5315
▁refusé	-11.5315
▁9	-11.532
eler	-11.5322
▁réd	-11.5323
▁Est	-11.5325
▁nécessairement	-11.5329
▁démontre	-11.5329
▁adoptée	-11.5346
▁opti	-11.5355
▁ajouté	-11.5364
ncer	-11.5374
▁créés	-11.5374
▁kill	-11.5377
its	-11.5383
ort	-11.5383
▁decides	-11.5387
▁backward	-11.539
▁courte	-11.54
ution	-11.54
crimina	-11.5404
▁taxes	-11.5415
▁classe	-11.5415
hole	-11.5418
▁directes	-11.5421
▁enrich	-11.5428
ls	-11.5433
▁essen	-11.5433
uris	-11.5434
▁sli	-11.5435
AL	-11.5438
▁taxe	-11.5445
nternational	-11.5445
allel	-11.5449
tés	-11.5449
▁holds	-11.5449
▁constitute	-11.5449
nent	-11.5451
▁publi	-11.5453
▁standardis	-11.5457
▁interpretati	-11.5458
media	-11.5459
▁passée	-11.5463
▁mil	-11.5465
ression	-11.5466
icité	-11.5473
▁avaient	-11.5474
additionne	-11.5474
▁existants	-11.5479
réside	-11.5483
▁reaction	-11.5485
simplified	-11.5487
▁équipe	-11.5502
énorme	-11.5503
▁Sw	-11.5504
▁prosecutors	-11.5512
▁attempts	-11.5516
▁redistribu	-11.5517
▁budgétaires	-11.5519
▁fournisse	-11.552
▁franchi	-11.5528
nage	-11.5529
▁dirais	-11.5529
▁personnelle	-11.5534
▁nett	-11.5541
▁gest	-11.5544
▁sche	-11.5545
▁coule	-11.5545
▁onwards	-11.5556
▁Jan	-11.5559
▁affréteur	-11.5559
▁productive	-11.5562
film	-11.5565
▁IS	-11.5568
▁gé	-11.5575
▁essentielles	-11.558
▁prosecute	-11.5583
▁opération	-11.5586
orte	-11.5587
▁préférer	-11.5588
▁transmettr	-11.5594
▁fails	-11.5595
▁pos	-11.5596
▁hui	-11.56
▁donnée	-11.5607
ences	-11.5614
▁processes	-11.5615
stable	-11.5626
▁rid	-11.5627
▁tools	-11.5631
▁expliqu	-11.5636
hat	-11.564
▁satisfai	-11.5642
▁proposées	-11.5645
▁libér	-11.5645
▁effectu	-11.565
expan	-11.565
dez	-11.5652
▁nov	-11.5653
enrichi	-11.5656
▁eff	-11.5658
▁inject	-11.5658
▁relatifs	-11.5659
sons	-11.5661
▁situ	-11.5662
▁attribu	-11.5663
▁throw	-11.5669
▁doter	-11.568
▁justifiable	-11.5684
▁flou	-11.5693
▁examinat	-11.5695
côte	-11.5697
▁leader	-11.5697
nnes	-11.5711
▁bénéfice	-11.5713
▁limitation	-11.572
▁directeur	-11.5721
aute	-11.5721
ack	-11.5724
▁donn	-11.5725
▁entretien	-11.5746
▁dépasse	-11.5747
▁envoyé	-11.5753
▁instruction	-11.5768
viser	-11.5768
▁afférente	-11.5783
▁faille	-11.579
▁dispute	-11.5792
identif	-11.5794
▁timetabl	-11.5806
▁package	-11.5813
▁Ha	-11.5825
▁divergente	-11.5827
tically	-11.5829
▁anticipe	-11.5832
ceful	-11.5841
▁instauré	-11.5844
▁Franç	-11.5846
▁informé	-11.5846
dated	-11.5849
▁meant	-11.5851
alisme	-11.5855
stination	-11.586
olved	-11.5865
▁tak	-11.5865
▁laissée	-11.5872
▁utilisé	-11.5872
▁beg	-11.5874
▁réglementé	-11.5876
▁responsabilis	-11.5882
▁objecti	-11.589
▁demandent	-11.5892
ours	-11.5894
ssembl	-11.5904
▁perplexit	-11.5908
▁compl	-11.5929
location	-11.5934
▁gra	-11.5941
▁Per	-11.5945
lève	-11.5948
▁attaqu	-11.5949
eb	-11.595
élabore	-11.5953
▁bé	-11.596
▁confirmée	-11.5978
▁ro	-11.5981
▁acce	-11.5984
ult	-11.599
▁institué	-11.5996
onie	-11.5999
▁compt	-11.6005
▁publicly	-11.6007
▁Ici	-11.6011
▁conséquente	-11.6014
▁correction	-11.6016
the	-11.6021
▁décharge	-11.6031
▁demi	-11.6038
▁Jus	-11.605
▁soumet	-11.6061
▁seg	-11.6063
reaties	-11.6071
gress	-11.6072
onic	-11.6078
ntage	-11.6083
▁passes	-11.6099
▁promis	-11.6101
▁south	-11.6102
▁sensibles	-11.6102
ling	-11.6104
▁souill	-11.6114
▁delet	-11.6117
▁contest	-11.6135
▁harmoni	-11.6138
▁res	-11.6142
▁demeur	-11.6144
▁user	-11.6183
▁Fis	-11.6184
portant	-11.6185
▁opposé	-11.6186
▁ferme	-11.6193
▁muni	-11.6199
▁enj	-11.6203
aître	-11.6211
ossible	-11.6227
▁politics	-11.6228
bert	-11.6233
éno	-11.624
vo	-11.6249
▁bru	-11.6278
attachée	-11.6279
sembler	-11.6286
▁exécut	-11.6292
ored	-11.6304
▁developments	-11.6311
shop	-11.6323
anges	-11.6325
edge	-11.6334
▁sho	-11.6359
▁évit	-11.6367
oni	-11.6369
▁argent	-11.637
igner	-11.6376
▁accus	-11.638
visions	-11.6387
▁border	-11.639
tir	-11.6392
dure	-11.6395
08/1999	-11.6401
▁emba	-11.6418
avion	-11.6428
ouverte	-11.643
end	-11.6431
ancy	-11.6442
▁retenu	-11.6443
ssé	-11.6445
iv	-11.6452
▁na	-11.6463
▁locale	-11.6488
▁chain	-11.6491
▁poi	-11.6506
▁contribut	-11.6514
ndant	-11.6517
objectifs	-11.6522
tim	-11.6529
yers	-11.6532
▁nationalisation	-11.6537
tons	-11.6546
▁becom	-11.6557
▁articul	-11.6565
rid	-11.6578
▁concepts	-11.6586
▁traditionnelle	-11.6589
rées	-11.6591
▁constitué	-11.6625
▁feasib	-11.6639
▁seas	-11.6641
prévisible	-11.6656
▁doubts	-11.6663
menté	-11.6666
oir	-11.6669
éclaircissements	-11.667
▁scar	-11.6675
rose	-11.6677
▁terr	-11.668
▁uniformes	-11.669
ey	-11.6701
▁examinations	-11.6703
▁traiter	-11.6704
▁impatie	-11.671
▁audi	-11.6712
▁fra	-11.6715
▁octroie	-11.6722
▁Fr	-11.6729
tamment	-11.6731
interven	-11.6734
found	-11.6741
reach	-11.675
▁judicieu	-11.6757
imposa	-11.6757
mb	-11.6771
▁importantly	-11.6774
▁libéralis	-11.6774
sation	-11.678
▁heure	-11.6787
▁discover	-11.6798
▁admi	-11.6818
▁thé	-11.6835
▁sembl	-11.6841
▁ob	-11.6842
▁dominante	-11.6843
portée	-11.685
▁desquel	-11.6863
usse	-11.6874
croît	-11.6887
ference	-11.6898
interentreprises	-11.69
▁financée	-11.6901
rmée	-11.6945
héri	-11.6953
eign	-11.7008
▁authoris	-11.7038
▁apprend	-11.7048
▁somet	-11.7055
▁introduis	-11.7069
▁bi	-11.7082
▁drop	-11.7084
▁exerce	-11.7089
een	-11.7095
▁assisté	-11.7109
▁égards	-11.7117
eared	-11.7124
▁attribue	-11.7136
▁vol	-11.7143
nom	-11.7153
mind	-11.7165
▁Pr	-11.7188
bout	-11.7192
▁génér	-11.7194
perate	-11.7201
isme	-11.7214
▁oui	-11.723
▁rem	-11.7235
▁exists	-11.724
▁diss	-11.7243
gg	-11.7247
renationaliser	-11.7258
▁prioriti	-11.7288
▁conj	-11.7314
▁insér	-11.7314
▁big	-11.7317
▁aboli	-11.7334
▁pouss	-11.7335
▁persiste	-11.7335
ins	-11.7368
▁criticis	-11.737
▁fast	-11.7397
▁revitalise	-11.74
▁mete	-11.7402
▁marqu	-11.7412
▁sape	-11.7414
isons	-11.742
▁compli	-11.7424
▁estima	-11.7427
▁yes	-11.7444
ountry	-11.7456
▁convi	-11.7461
▁lance	-11.7463
cil	-11.748
dge	-11.7503
▁vide	-11.7509
amment	-11.7516
▁rapproch	-11.7538
▁entier	-11.7543
muni	-11.7545
▁interdi	-11.7553
▁inf	-11.7566
▁facilite	-11.7575
states	-11.7583
▁improves	-11.7602
dem	-11.7631
teurs	-11.7634
▁réduite	-11.7647
▁dite	-11.767
onsider	-11.768
nding	-11.7682
▁souffre	-11.7683
inst	-11.7698
▁bala	-11.7708
▁développ	-11.7725
▁impo	-11.7747
▁logical	-11.7751
▁voteron	-11.7756
stes	-11.7796
puls	-11.7816
ught	-11.7816
▁empêch	-11.782
appelé	-11.7832
aring	-11.7842
▁accent	-11.7845
ident	-11.7884
▁demonstra	-11.7892
ira	-11.7896
▁prononc	-11.7904
herefore	-11.7904
oise	-11.7907
▁auto	-11.7917
▁cit	-11.7922
light	-11.7969
oil	-11.7986
▁appr	-11.8006
▁rigour	-11.8018
▁développé	-11.8046
entation	-11.8064
▁gré	-11.8067
▁repr	-11.8076
▁conduir	-11.808
▁assimil	-11.8095
inclu	-11.8102
▁philosoph	-11.8103
▁intervenu	-11.8104
▁fondé	-11.8106
humilit	-11.8152
signed	-11.8158
onger	-11.8169
aggrave	-11.821
▁classi	-11.8235
oc	-11.8286
▁visite	-11.8317
ecommendations	-11.8323
▁cho	-11.8344
▁entendr	-11.8356
entr	-11.8357
▁tal	-11.8359
▁travaille	-11.8368
▁investigat	-11.8376
ét	-11.8377
▁pratiqu	-11.839
hérents	-11.8401
stic	-11.8409
▁débattr	-11.8415
ul	-11.843
▁satisf	-11.8445
▁découle	-11.8467
reconcil	-11.8469
▁mili	-11.8472
▁seu	-11.8476
▁entam	-11.8482
réservées	-11.849
▁acts	-11.8497
▁cor	-11.8518
▁Men	-11.8519
▁enlarg	-11.8547
munit	-11.8552
taine	-11.8556
▁apportée	-11.8557
▁Ord	-11.8558
▁offset	-11.8565
▁guide	-11.8578
▁adopti	-11.8588
▁cr	-11.8592
▁marquée	-11.8611
▁modernis	-11.8616
▁sixt	-11.8618
ettant	-11.8666
iquement	-11.8669
yant	-11.8669
nant	-11.8676
▁Mar	-11.8676
setting	-11.8679
▁étude	-11.8692
ced	-11.8699
▁souven	-11.8701
ré	-11.8705
lui	-11.8743
igres	-11.8817
nen	-11.8824
nclusion	-11.8827
tionnaires	-11.8848
▁débouche	-11.8851
▁pouva	-11.8852
référence	-11.8868
▁exceptional	-11.8886
▁existante	-11.8893
▁nomme	-11.8897
aking	-11.8906
tting	-11.8907
▁entraînerai	-11.8917
▁émettr	-11.8921
▁univers	-11.8928
▁inc	-11.8941
lli	-11.8947
▁quota	-11.8948
clés	-11.8964
▁découl	-11.8973
ame	-11.898
▁wor	-11.8985
▁noté	-11.8994
league	-11.9038
▁adhére	-11.9043
▁justifi	-11.9048
▁stre	-11.9056
▁Interna	-11.9058
▁sol	-11.9062
▁engag	-11.9078
▁agenc	-11.9111
▁produc	-11.9113
aper	-11.912
▁tourne	-11.9182
▁interpr	-11.9204
issi	-11.9205
▁défavor	-11.9213
▁disparit	-11.9216
▁perplexe	-11.9238
aud	-11.9239
iven	-11.9244
▁construi	-11.9244
aggrav	-11.9249
▁pert	-11.9273
ois	-11.9289
▁retien	-11.9293
▁profitera	-11.9295
▁pouvai	-11.9324
▁privilégie	-11.9329
evant	-11.9345
isting	-11.9373
▁inscrir	-11.9376
▁assimila	-11.9386
▁Ar	-11.9394
▁eliminate	-11.9412
▁dép	-11.9419
férence	-11.9462
▁perçoi	-11.9475
▁impliquera	-11.9481
▁redistribut	-11.9483
▁perç	-11.9484
▁élabor	-11.9495
▁prévo	-11.9497
▁introduira	-11.9505
mell	-11.9512
▁complai	-11.9528
▁estim	-11.9538
▁arise	-11.9557
accessi	-11.9574
ighten	-11.9601
▁focal	-11.9633
▁bate	-11.9634
inscrit	-11.9634
▁ferr	-11.9637
ances	-11.9639
▁massi	-11.9653
aval	-11.9663
jac	-11.9666
sous	-11.967
ited	-11.9674
▁recentra	-11.9713
lo	-11.9718
▁cam	-11.9719
▁confi	-11.972
tout	-11.9721
▁intégra	-11.9736
intégra	-11.9746
cle	-11.9747
▁culturel	-11.9748
▁acc	-11.9756
scend	-11.977
▁interfere	-11.978
▁irre	-11.978
qui	-11.98
▁Commi	-11.9823
▁parl	-11.9826
ga	-11.9858
▁mov	-11.988
▁gagn	-11.9889
entail	-11.9913
ract	-11.9917
inter	-11.9919
▁française	-11.9928
ade	-11.9942
▁reconnue	-11.9954
▁expe	-11.9976
limitées	-11.9977
rant	-11.999
efois	-11.9992
▁donnera	-11.9994
▁forc	-11.9995
▁effo	-12.0005
ongst	-12.0006
▁posé	-12.0018
▁simplis	-12.0028
▁dénonce	-12.0042
▁déce	-12.005
suivre	-12.0081
einte	-12.0083
gar	-12.0091
▁Tou	-12.0103
▁recommand	-12.0166
▁manifeste	-12.0172
▁épi	-12.0172
▁souffr	-12.0183
ety	-12.0201
▁évalu	-12.0217
▁demands	-12.0218
oud	-12.0218
▁revitalis	-12.0223
rain	-12.0238
talement	-12.0239
▁Fran	-12.0251
accompagne	-12.0261
▁bloc	-12.0263
zo	-12.0266
▁Last	-12.027
ert	-12.0278
▁garantisse	-12.0285
ttant	-12.0288
mises	-12.0289
▁subi	-12.0301
▁Fi	-12.0312
ttee	-12.0328
ince	-12.036
▁persist	-12.0364
▁ti	-12.0366
.4	-12.0367
▁Rad	-12.0368
▁uncertaint	-12.0378
▁occup	-12.038
men	-12.0382
▁suiv	-12.0386
▁ja	-12.0392
è	-12.0394
▁sach	-12.0398
clusion	-12.0401
ends	-12.0423
▁identi	-12.0428
▁totall	-12.0443
▁perp	-12.0447
ier	-12.045
▁Further	-12.0452
▁whi	-12.0454
ust	-12.0457
ison	-12.0496
▁impos	-12.0497
▁Con	-12.0515
▁pers	-12.0533
umb	-12.0534
▁partial	-12.0571
▁rencontre	-12.0593
onal	-12.06
den	-12.0618
ain	-12.062
▁attribut	-12.0642
▁spécifi	-12.0655
rd	-12.0665
▁integra	-12.0666
motion	-12.0667
▁fronti	-12.0685
▁viva	-12.07
igned	-12.0722
▁containe	-12.0725
▁tente	-12.0731
pa	-12.0749
▁anticipat	-12.075
nés	-12.0752
▁pass	-12.0756
ists	-12.0776
ately	-12.0785
▁pact	-12.0789
▁suit	-12.0804
▁tir	-12.0809
far	-12.0813
absente	-12.0822
federalis	-12.0828
▁Do	-12.0839
▁circu	-12.0851
impos	-12.0851
cisive	-12.0853
▁poursuit	-12.0856
ma	-12.0874
▁sé	-12.0875
20	-12.0904
egal	-12.0905
ared	-12.0926
ancer	-12.0928
op	-12.095
▁impliqu	-12.0964
▁harmonie	-12.0975
▁protectionnis	-12.0997
▁substantia	-12.101
lays	-12.1015
ward	-12.1018
Autori	-12.1047
plaç	-12.106
▁verra	-12.1066
▁air	-12.1103
ausse	-12.111
cumul	-12.1148
mission	-12.1185
▁possibl	-12.1238
▁éclaircissement	-12.1259
010	-12.1261
eel	-12.1269
▁enfan	-12.1278
appoint	-12.1279
▁Form	-12.1295
ef	-12.1306
▁accro	-12.1313
enne	-12.1337
bours	-12.136
▁certificat	-12.1367
▁cou	-12.1377
▁nul	-12.1383
▁rés	-12.1384
▁remet	-12.1385
▁ass	-12.1394
▁universit	-12.1403
▁div	-12.1419
▁enc	-12.1451
▁repo	-12.1461
▁conserv	-12.1487
li	-12.1491
iously	-12.1505
nsequently	-12.152
▁overs	-12.1521
▁mériter	-12.1526
rgence	-12.1538
nte	-12.1539
élabor	-12.1541
▁roo	-12.1555
▁col	-12.1564
ulée	-12.1596
ces	-12.1613
bi	-12.1623
▁conven	-12.1635
comes	-12.1649
médi	-12.1656
▁Ta	-12.1657
▁simplifi	-12.1668
▁préconis	-12.1668
las	-12.1683
▁confin	-12.169
assign	-12.1695
tenus	-12.1704
▁arde	-12.1722
▁mainte	-12.1732
ig	-12.1734
▁indicat	-12.1747
▁adv	-12.1757
▁angl	-12.1757
méricains	-12.1778
▁politi	-12.1778
▁cherche	-12.1788
ealing	-12.1791
▁top	-12.1806
rande	-12.1815
mis	-12.182
▁désir	-12.1826
▁résist	-12.1852
harmonis	-12.1854
ssentially	-12.1863
appliqu	-12.1869
rent	-12.1892
▁soul	-12.1894
▁augmentera	-12.1925
adapte	-12.1926
▁ressorti	-12.1932
▁approuv	-12.1974
▁émett	-12.1974
bauche	-12.1987
▁surcharg	-12.1991
▁jours	-12.2015
▁climati	-12.2027
▁soulev	-12.2046
▁structur	-12.2057
▁eas	-12.2081
▁reconsidér	-12.2091
▁étaie	-12.2096
évit	-12.2097
rgouvernementale	-12.212
▁définit	-12.212
mes	-12.214
▁provi	-12.214
▁attaché	-12.2149
▁frag	-12.2152
dicaux	-12.2192
aci	-12.2197
ateur	-12.2214
esteurs	-12.2218
▁prépare	-12.2228
sur	-12.2228
uées	-12.2233
▁constituera	-12.2259
ast	-12.2268
▁miss	-12.2286
ok	-12.2294
utter	-12.2294
▁cofinance	-12.2306
ode	-12.2347
rac	-12.2355
▁duré	-12.236
▁reti	-12.2395
erions	-12.2395
bei	-12.2396
inaction	-12.2407
▁solve	-12.2416
lté	-12.2425
nvention	-12.2444
téri	-12.2476
▁régi	-12.2482
▁spécial	-12.2484
ctively	-12.2523
let	-12.2547
▁associa	-12.2549
▁equa	-12.2563
issance	-12.2581
approfondiss	-12.2631
yone	-12.2633
▁ferm	-12.2641
▁highe	-12.2643
▁inte	-12.2652
isateur	-12.2665
enant	-12.2674
rançais	-12.2675
▁dom	-12.2706
▁divergent	-12.2707
▁dél	-12.2715
▁explicit	-12.2716
▁définie	-12.2717
▁exercis	-12.2719
▁packag	-12.2733
▁sum	-12.2735
▁laissé	-12.2738
4/1999	-12.2746
pends	-12.2767
cités	-12.2777
▁disput	-12.2781
▁confirmé	-12.2782
▁transp	-12.2787
qually	-12.2795
▁absolue	-12.2799
ron	-12.2801
phé	-12.2811
▁aggre	-12.2827
prête	-12.283
pit	-12.2842
▁rec	-12.2853
orted	-12.2858
▁transpo	-12.2858
▁prim	-12.2865
ligne	-12.2893
▁protectionis	-12.2898
▁pen	-12.2898
entend	-12.29
▁tig	-12.2926
▁ext	-12.2948
attribuer	-12.2948
itant	-12.2978
espér	-12.298
forth	-12.3016
persons	-12.302
erons	-12.3028
▁situe	-12.303
▁actu	-12.3039
▁hun	-12.3048
unes	-12.3049
▁profiter	-12.3056
plus	-12.306
rapport	-12.3062
erefore	-12.307
ives	-12.3103
tile	-12.3109
ivid	-12.3119
▁revie	-12.312
adding	-12.3129
ger	-12.3133
eth	-12.3144
▁suffisant	-12.3155
▁rat	-12.3162
concurrence	-12.3174
alling	-12.3207
▁Intern	-12.3207
▁tiendr	-12.3225
competition	-12.3258
▁réel	-12.3261
montrent	-12.3272
▁Cor	-12.3273
tif	-12.3302
▁obtien	-12.3304
▁undermin	-12.3305
▁Apr	-12.3342
▁préfér	-12.3342
▁irai	-12.3345
urant	-12.336
scripti	-12.3362
▁associat	-12.3365
order	-12.3369
▁passion	-12.3386
▁énerg	-12.3386
▁nomm	-12.3414
uls	-12.3423
▁ras	-12.3428
ested	-12.3452
▁diversifi	-12.3463
▁grav	-12.3471
mise	-12.3508
▁clou	-12.3513
▁exchang	-12.3555
ition	-12.3565
▁fl	-12.3565
mographi	-12.3566
▁méthod	-12.3587
▁voudra	-12.3628
exil	-12.3631
établi	-12.3632
due	-12.3634
ulièrement	-12.3639
▁lacun	-12.364
▁centralisé	-12.3648
attente	-12.3648
▁globa	-12.3655
tru	-12.3661
▁fu	-12.3693
▁side	-12.3695
incite	-12.3702
pétition	-12.3708
wis	-12.3723
férant	-12.3729
▁esp	-12.3741
▁réalisée	-12.3746
ord	-12.3752
lectricit	-12.3754
aimerai	-12.3758
déterminé	-12.3766
écriva	-12.3771
▁perde	-12.3774
ueur	-12.3782
certain	-12.3788
med	-12.3792
▁faite	-12.3804
dant	-12.3808
▁modif	-12.3829
▁emb	-12.3832
▁nui	-12.3833
▁précéd	-12.3862
▁impl	-12.3864
duire	-12.3868
lisme	-12.3871
▁ultra	-12.3887
lined	-12.39
social	-12.3907
▁évolue	-12.3909
affaibli	-12.3923
▁moderat	-12.3927
▁préjudic	-12.3929
▁confident	-12.394
earing	-12.3954
▁remerci	-12.3956
qual	-12.3959
▁tribu	-12.396
▁envisagé	-12.3961
line	-12.3973
care	-12.3973
battant	-12.3974
développement	-12.3976
▁inscri	-12.3985
▁tabl	-12.3994
ality	-12.4003
od	-12.4014
development	-12.4033
question	-12.4036
venue	-12.4038
▁centr	-12.4046
eading	-12.4053
▁abstra	-12.4058
▁prefer	-12.4058
droit	-12.407
▁impr	-12.4071
mbe	-12.4073
mpet	-12.4085
ptions	-12.4087
guidelines	-12.4089
▁servi	-12.4094
▁histori	-12.4129
étaire	-12.4131
intervention	-12.4136
productive	-12.4146
Community	-12.4152
▁qualificati	-12.4155
where	-12.4155
aboli	-12.4156
▁octroy	-12.4157
can	-12.416
opportunité	-12.417
▁concer	-12.4173
▁tack	-12.4178
wide	-12.4184
▁plac	-12.4185
ado	-12.4194
bord	-12.4194
contrôle	-12.421
▁directe	-12.4211
▁redonn	-12.4215
exprime	-12.4215
fait	-12.422
vention	-12.4224
encore	-12.4226
text	-12.4232
ladie	-12.4232
▁phas	-12.4242
▁susp	-12.4243
▁insist	-12.4247
▁horizonta	-12.4258
accident	-12.4259
▁mesur	-12.4259
▁demandi	-12.4259
coup	-12.426
▁ski	-12.426
temps	-12.4261
▁op	-12.4275
▁opte	-12.4284
govern	-12.4297
ô	-12.4297
quality	-12.4299
Fonds	-12.4299
code	-12.43
élargi	-12.4301
▁Lu	-12.4309
opération	-12.4309
made	-12.4309
▁fill	-12.4312
Equal	-12.4318
nergie	-12.4318
change	-12.4325
accroisse	-12.433
atif	-12.4332
flu	-12.4333
about	-12.4333
▁affecte	-12.4333
▁heureuse	-12.4335
▁consacr	-12.4335
gre	-12.4341
effective	-12.4342
igne	-12.4343
appar	-12.4348
▁tim	-12.4352
appropriation	-12.4354
owners	-12.4359
appelle	-12.4359
▁Lors	-12.436
régionale	-12.4361
homme	-12.4363
agricultur	-12.4363
▁Be	-12.4363
exemple	-12.4363
State	-12.4366
▁conf	-12.4368
prouve	-12.4369
1999/210	-12.4372
K	-12.4373
foi	-12.4375
▁dramati	-12.4376
fying	-12.4377
adulte	-12.4378
much	-12.4378
ules	-12.438
restraint	-12.4383
▁Asi	-12.4384
▁différen	-12.439
▁acqui	-12.4393
mentioned	-12.44
weak	-12.44
opinion	-12.4404
...	-12.4405
aches	-12.4408
favour	-12.441
conception	-12.4413
implement	-12.4414
▁manqu	-12.4417
procureur	-12.4419
type	-12.4422
▁marqua	-12.4423
▁aur	-12.4423
unique	-12.4425
rès	-12.4425
Assemblée	-12.4426
▁incom	-12.4426
increasing	-12.4427
existe	-12.4428
absolu	-12.4429
augmente	-12.4429
nouveau	-12.443
▁quelqu	-12.4431
▁Amend	-12.4434
build	-12.4437
responsibility	-12.4437
liance	-12.4438
off	-12.4438
extrême	-12.444
faces	-12.444
population	-12.4443
accél	-12.4445
observations	-12.4447
incitant	-12.4447
cohéren	-12.4448
competence	-12.445
burden	-12.4452
running	-12.4453
exposé	-12.4453
irlandais	-12.4453
enterprises	-12.4455
formation	-12.4457
chose	-12.4459
égard	-12.4463
atteinte	-12.4463
acquis	-12.4464
origine	-12.4464
éloign	-12.4465
▁dimin	-12.4466
lieu	-12.4468
implique	-12.4469
Code	-12.447
conseil	-12.4472
entraîne	-12.4473
tionnaire	-12.4473
▁cons	-12.4474
aît	-12.4474
contrôlé	-12.4475
demain	-12.4476
different	-12.4477
argument	-12.4477
provided	-12.4477
Alexand	-12.4478
▁humain	-12.4478
organisme	-12.448
power	-12.4481
issements	-12.4481
parole	-12.4482
insécurité	-12.4483
infraction	-12.4485
Internet	-12.4486
insiste	-12.4486
Europol	-12.4486
ambition	-12.4486
millennium	-12.4486
électronique	-12.4487
water	-12.4487
fashion	-12.4488
material	-12.4489
image	-12.4489
based	-12.449
accept	-12.4491
baisse	-12.4491
activity	-12.4491
reason	-12.4492
nière	-12.4493
évidence	-12.4493
Ex	-12.4495
abl	-12.4495
experts	-12.4495
ABB	-12.4497
▁inégal	-12.4497
matériel	-12.4498
tual	-12.4498
available	-12.4501
30	-12.4501
inacceptable	-12.4501
éléments	-12.4502
efficient	-12.4505
elected	-12.4505
81	-12.4506
ê	-12.4507
down	-12.4507
looking	-12.4509
assistance	-12.4509
exploit	-12.451
défini	-12.451
indicateur	-12.4515
Est	-12.4515
month	-12.4516
annuels	-12.4516
examined	-12.4518
needed	-12.4518
scale	-12.452
irrégularité	-12.4522
Euro	-12.4523
minateur	-12.4523
cases	-12.4523
gestion	-12.4526
univers	-12.4527
▁aff	-12.4527
pruden	-12.4528
compétence	-12.4528
ore	-12.453
broad	-12.453
ery	-12.4532
abandon	-12.4533
trait	-12.4534
appropriate	-12.4535
étudi	-12.4536
ondamentalement	-12.4539
▁congratulat	-12.4541
▁gradu	-12.4541
annual	-12.4543
différente	-12.4544
élu	-12.4544
five	-12.4545
organe	-12.4546
▁intersector	-12.4548
texte	-12.4553
ucieuses	-12.4553
finding	-12.4555
explication	-12.4555
construction	-12.456
con	-12.4563
thématique	-12.4563
balance	-12.4566
igeant	-12.4567
▁entrepren	-12.457
well	-12.4572
validit	-12.4575
▁rempli	-12.4578
uelque	-12.458
correct	-12.4583
connue	-12.4585
▁guil	-12.4586
catifs	-12.459
associer	-12.459
appare	-12.4591
édict	-12.4593
communautaires	-12.4594
citoyens	-12.4597
grow	-12.4602
empêcha	-12.4603
sujets	-12.4607
21	-12.4607
▁abouti	-12.4608
chaîne	-12.4608
responsible	-12.4609
instant	-12.461
nticoncurrentiel	-12.461
closure	-12.4613
produit	-12.4614
▁ap	-12.4616
▁polic	-12.4617
▁destruct	-12.4622
front	-12.4622
▁equitabl	-12.4622
control	-12.4622
speak	-12.4624
certaine	-12.4633
▁exagér	-12.4634
▁frapp	-12.4634
É	-12.4635
accuse	-12.4637
▁flo	-12.4638
tels	-12.4639
ick	-12.464
impatien	-12.4641
tification	-12.4643
▁Conservative	-12.4643
▁écologique	-12.4643
▁salarié	-12.4643
▁proportion	-12.4644
▁MEP	-12.4644
▁sérieuse	-12.4644
▁pilier	-12.4644
▁différenc	-12.4644
possibilité	-12.4645
▁individuel	-12.4645
sensible	-12.4647
▁visé	-12.4648
parler	-12.4648
▁citoyen	-12.465
▁advantage	-12.4651
▁consisten	-12.4652
▁individuelle	-12.4654
▁subordonn	-12.4655
▁sectorielle	-12.4655
érence	-12.4657
exige	-12.4657
sentiment	-12.4658
émet	-12.4659
oyer	-12.4659
▁événement	-12.466
▁licenciement	-12.466
▁infringement	-12.466
▁circonstance	-12.466
▁constraint	-12.4661
▁synergie	-12.4661
influence	-12.4662
évoque	-12.4663
▁patron	-12.4664
▁diver	-12.4664
▁citizen	-12.4665
focus	-12.4665
integrat	-12.4667
▁confronté	-12.4668
▁réglementaire	-12.4668
▁abstention	-12.4668
▁prepar	-12.4669
significan	-12.4669
▁opérationnel	-12.4671
▁chiffre	-12.4673
▁catégorie	-12.4674
miss	-12.4674
citoyennes	-12.4674
▁subvention	-12.4675
▁negotiation	-12.4677
développée	-12.4677
▁consommateur	-12.4678
claim	-12.468
▁mak	-12.4681
arm	-12.4681
augur	-12.4681
urban	-12.4684
▁indicator	-12.4684
inégalité	-12.4684
▁scheme	-12.4685
▁compétitive	-12.4686
▁inférieur	-12.469
▁criminel	-12.4691
ogether	-12.4692
iz	-12.4692
attendre	-12.4692
déposé	-12.4696
▁ville	-12.4697
actual	-12.4698
ages	-12.4699
▁différent	-12.4701
▁délit	-12.4705
▁fournis	-12.4708
▁distinct	-12.4708
modifiée	-12.4709
▁industriel	-12.471
investi	-12.4711
▁tran	-12.4713
▁obstin	-12.4715
stressing	-12.4717
imposer	-12.4719
attach	-12.472
▁inégale	-12.472
encadre	-12.4721
ourselves	-12.4724
▁conscien	-12.4726
▁légitim	-12.4726
cours	-12.4726
▁travailleur	-12.4728
uarante	-12.4729
aissée	-12.473
peripheral	-12.4732
interventions	-12.4732
▁env	-12.4734
opportunités	-12.4737
assi	-12.4738
ortée	-12.4739
▁terribl	-12.4741
▁enforc	-12.4741
▁insuffisance	-12.4742
life	-12.4742
fenc	-12.4748
ajouterai	-12.4748
spér	-12.4749
▁bank	-12.4751
▁price	-12.4754
avantag	-12.4758
▁concurrentiel	-12.4759
stablish	-12.4759
oppos	-12.476
Autrich	-12.4761
répond	-12.4765
▁join	-12.4767
▁favoris	-12.4768
▁character	-12.4768
▁intégré	-12.4769
▁unacceptabl	-12.4769
▁inférieure	-12.477
▁Presiden	-12.477
pre	-12.4771
▁react	-12.4773
▁colle	-12.4774
▁bénéfi	-12.4774
▁interi	-12.4776
vote	-12.4776
écri	-12.4776
nvironnement	-12.4779
crée	-12.4779
ctuelle	-12.4779
▁permanen	-12.4781
▁soulign	-12.4782
genda	-12.4783
legally	-12.4783
volved	-12.4783
uthority	-12.4784
énonce	-12.4787
▁introdui	-12.4789
lternative	-12.479
▁prohibit	-12.4792
▁inadmissib	-12.4794
▁monopolisti	-12.4794
▁spéc	-12.4795
sectorielles	-12.4796
▁révélé	-12.4796
▁négoci	-12.4798
▁resolut	-12.4799
ified	-12.48
ignor	-12.48
▁engagé	-12.4802
▁competitiv	-12.4804
utres	-12.4804
écurité	-12.4805
▁confus	-12.4806
▁abro	-12.4807
fort	-12.4807
▁mati	-12.4809
properly	-12.4809
▁legitim	-12.481
vons	-12.4811
▁rendement	-12.4812
▁converg	-12.4813
▁taxpay	-12.4814
admissible	-12.4815
users	-12.4816
typ	-12.4817
▁professionnel	-12.4817
afeguard	-12.4817
▁souscri	-12.4819
dommag	-12.4819
incom	-12.482
informe	-12.4821
▁annex	-12.4821
▁weigh	-12.4822
▁influen	-12.4822
nstitutionnel	-12.4823
▁evaluat	-12.4824
▁réfléchi	-12.4825
open	-12.4825
▁capacit	-12.4826
▁earlie	-12.4827
▁simplifie	-12.4827
ologique	-12.4829
utile	-12.4829
▁défaillan	-12.4829
gi	-12.4831
▁marchand	-12.4832
viendr	-12.4832
▁reluctant	-12.4832
▁révol	-12.4833
▁insuffisa	-12.4833
▁dismantl	-12.4834
▁flexib	-12.4835
▁disparaisse	-12.4835
frontaliers	-12.4835
hapeau	-12.4836
inquième	-12.4836
riminal	-12.4836
▁Ho	-12.4837
ématique	-12.4837
▁corrupti	-12.4837
célè	-12.4838
nstitution	-12.4838
eureusement	-12.4838
▁abstain	-12.4838
rban	-12.4839
▁réuni	-12.4839
EI	-12.4839
elimina	-12.4839
▁démantèle	-12.4839
entente	-12.484
abou	-12.484
▁administrat	-12.484
▁sectoriel	-12.484
▁nécessit	-12.4841
▁Govern	-12.4842
▁malheureuse	-12.4842
▁environ	-12.4842
▁strength	-12.4843
▁territori	-12.4843
▁juge	-12.4843
percev	-12.4844
omorrow	-12.4844
fects	-12.4844
ifié	-12.4844
laboration	-12.4844
▁rembours	-12.4844
ould	-12.4844
hier	-12.4845
▁réussi	-12.4845
▁negotiat	-12.4845
▁install	-12.4846
hacun	-12.4846
ancien	-12.4846
▁recru	-12.4846
payers	-12.4846
ransparency	-12.4846
▁drag	-12.4846
▁pétrol	-12.4847
▁explanat	-12.4847
▁conviendra	-12.4847
▁recommend	-12.4847
mphasis	-12.4847
fficiency	-12.4847
acquisition	-12.4848
xemptions	-12.4848
▁prés	-12.4848
xcessive	-12.4848
▁collabor	-12.4848
vidence	-12.4848
ligence	-12.4848
annexe	-12.4848
insulaire	-12.4849
eriodic	-12.4849
conversion	-12.4849
cutable	-12.4849
▁distribu	-12.4849
éligib	-12.485
ndustry	-12.485
voquée	-12.485
unnel	-12.485
ncreased	-12.4851
▁coopér	-12.4851
aritime	-12.4851
nvironment	-12.4851
imagin	-12.4851
figur	-12.4851
▁règ	-12.4851
▁disturb	-12.4852
ersonally	-12.4852
battu	-12.4852
suppose	-12.4852
rogations	-12.4852
▁occur	-12.4852
nstead	-12.4852
▁explosi	-12.4852
percussions	-12.4852
xamin	-12.4852
éritable	-12.4852
▁categor	-12.4852
ramework	-12.4852
cular	-12.4852
primée	-12.4853
Accord	-12.4853
cueill	-12.4853
▁parliament	-12.4853
▁artifici	-12.4853
public	-12.4853
ifiable	-12.4853
arantie	-12.4853
écoute	-12.4853
veloppe	-12.4853
▁périphéri	-12.4853
ança	-12.4853
inancial	-12.4853
europé	-12.4853
claration	-12.4854
quilibr	-12.4854
▁Cinq	-12.4854
▁négligea	-12.4854
▁référ	-12.4854
additionalit	-12.4854
irectorate	-12.4854
▁infrastruc	-12.4854
▁Améri	-12.4854
▁insatisfa	-12.4854
éerlandais	-12.4854
anship	-12.4854
traire	-12.4854
bilities	-12.4854
lemagne	-12.4854
accommod	-12.4854
graphique	-12.4854
isheries	-12.4854
cifique	-12.4854
trapé	-12.4854
proxim	-12.4854
▁90	-12.4854
mécani	-12.4854
anisée	-12.4854
frame	-12.4854
emblée	-12.4854
▁parlementa	-12.4854
aturée	-12.4855
board	-12.4855
▁sécu	-12.4855
uropean	-12.4855
consum	-12.4855
affin	-12.4855
ncident	-12.4855
cturelle	-12.4855
▁misappr	-12.4855
bouche	-12.4856
assurance	-12.4856
putés	-12.4856
igueur	-12.4856
empl	-12.4856
▁véh	-12.4856
▁dénon	-12.4857
raignant	-12.4857
▁negl	-12.4857
rogra	-12.4857
▁camp	-12.4857
▁connect	-12.4857
▁dipl	-12.4857
larité	-12.4858
entielle	-12.4858
llègue	-12.4858
astically	-12.4859
llages	-12.4859
tombée	-12.4859
minar	-12.4859
06	-12.4859
▁relance	-12.4859
ception	-12.4859
céder	-12.4859
illage	-12.4859
uesteurs	-12.4859
(1)	-12.4859
▁élargiss	-12.486
européens	-12.486
érale	-12.486
aker	-12.4861
riori	-12.4861
ected	-12.4861
brouill	-12.4862
étise	-12.4862
articular	-12.4863
ehensi	-12.4863
nationalise	-12.4863
angerous	-12.4863
learly	-12.4864
ortuga	-12.4864
installa	-12.4865
▁applica	-12.4866
▁insensi	-12.4866
ica	-12.4866
igences	-12.4867
assist	-12.4867
▁illus	-12.4867
overty	-12.4868
ilatérale	-12.4869
ersonne	-12.4871
▁impressi	-12.4872
▁San	-12.4872
▁qualit	-12.4872
erior	-12.4873
rofess	-12.4873
▁collèg	-12.4873
mping	-12.4874
▁marginal	-12.4874
▁égale	-12.4875
ield	-12.4875
AN	-12.4875
arante	-12.4877
incre	-12.4877
▁répa	-12.4878
cheva	-12.4879
ritan	-12.4879
toric	-12.4879
vative	-12.488
▁intensi	-12.488
tabled	-12.4881
enuine	-12.4881
verba	-12.4883
ignant	-12.4884
▁Trans	-12.4885
atters	-12.4885
ambi	-12.4885
enfer	-12.4886
ditions	-12.4887
▁pén	-12.4888
▁modifié	-12.4888
uff	-12.4889
▁déno	-12.489
mics	-12.4891
till	-12.4891
▁mémo	-12.4891
▁Liber	-12.4893
IB	-12.4893
▁embro	-12.4895
▁Trea	-12.4896
▁mondialis	-12.4898
trice	-12.4899
nergy	-12.4901
▁argu	-12.4904
uoi	-12.4905
vateurs	-12.4907
pha	-12.4907
absolut	-12.4907
manent	-12.4908
▁resp	-12.4908
LA	-12.4909
▁spir	-12.491
bels	-12.491
▁personn	-12.4911
▁ho	-12.4912
gui	-12.4912
▁formula	-12.4913
lérer	-12.4913
nnel	-12.4913
▁bén	-12.4914
▁probl	-12.4914
ark	-12.4914
fraude	-12.4916
▁réco	-12.4917
spons	-12.4917
ssues	-12.4918
▁tém	-12.4918
jeté	-12.492
▁procédur	-12.4921
▁réins	-12.4921
▁prev	-12.4922
▁satisfactor	-12.4923
▁appren	-12.4923
▁résu	-12.4928
ays	-12.4929
orial	-12.4934
▁heur	-12.4934
▁quali	-12.4937
spent	-12.4937
▁wit	-12.4938
ombre	-12.4938
▁déclar	-12.4938
▁opér	-12.494
▁confer	-12.494
▁énergi	-12.494
ibi	-12.4942
▁buil	-12.4947
mill	-12.4947
▁Fru	-12.4948
étend	-12.4948
▁Sept	-12.4948
esearch	-12.4949
lanc	-12.495
▁corr	-12.4951
▁alter	-12.4952
pres	-12.4952
veux	-12.4952
nuer	-12.4953
stems	-12.4953
aucune	-12.4955
▁confr	-12.4956
articule	-12.4963
etworks	-12.4965
risme	-12.4967
structive	-12.4968
aught	-12.4969
▁annu	-12.497
▁prepare	-12.497
▁capa	-12.4974
v	-12.8693
ç	-13.8623
î	-13.8624
V	-13.8625
3	-13.8626
H	-13.8627
W	-13.8628
0	-13.8629
9	-13.863
j	-13.8631
q	-13.8632
