<unk>	0
<s>	0
</s>	0
,	-3.18659
.	-3.55895
▁the	-3.63278
'	-3.69098
s	-3.78154
▁	-3.81735
▁de	-3.84954
▁of	-4.31829
▁la	-4.34711
▁to	-4.37275
▁and	-4.61218
▁a	-4.67294
▁l	-4.69162
▁et	-4.69937
▁in	-4.76523
▁le	-4.79435
à	-4.86502
▁les	-4.93052
▁d	-4.98605
▁des	-4.98807
▁que	-5.01732
▁is	-5.08198
▁that	-5.13179
▁en	-5.27091
e	-5.28277
▁I	-5.38836
-	-5.44344
▁for	-5.4698
ing	-5.50732
▁du	-5.53772
▁be	-5.54151
▁this	-5.56476
▁Commission	-5.59646
▁on	-5.60091
▁qui	-5.60253
▁nous	-5.60452
▁we	-5.66246
▁dans	-5.69181
▁un	-5.69787
▁pour	-5.71399
▁not	-5.72825
▁une	-5.76175
▁ce	-5.7957
▁est	-5.82543
▁which	-5.84221
▁au	-5.87919
r	-5.88467
▁are	-5.9059
▁pas	-5.90632
d	-5.90733
▁it	-5.93677
▁have	-5.94209
▁s	-5.96307
▁qu	-6.00722
▁sur	-6.01534
▁ne	-6.0707
▁as	-6.08596
▁with	-6.10113
ed	-6.15905
▁will	-6.16571
▁par	-6.16756
er	-6.22656
▁The	-6.23214
t	-6.23493
▁European	-6.25413
▁-	-6.25605
▁je	-6.28247
es	-6.31786
y	-6.32142
▁by	-6.34862
est	-6.36154
▁plus	-6.36331
▁Mr	-6.36638
é	-6.38592
▁has	-6.40159
re	-6.40834
ly	-6.44554
▁il	-6.45469
a	-6.45545
▁n	-6.47121
▁se	-6.47558
▁an	-6.49842
ment	-6.52918
▁Je	-6.53626
▁would	-6.54442
cette	-6.55526
il	-6.56103
ant	-6.57043
▁C	-6.64258
in	-6.67981
▁at	-6.70504
▁We	-6.71292
▁should	-6.72039
▁all	-6.7211
▁also	-6.74531
eur	-6.74644
▁must	-6.74651
nt	-6.75363
▁Union	-6.76013
▁aux	-6.78078
▁but	-6.78841
▁President	-6.78995
▁sont	-6.79974
▁Il	-6.80586
▁you	-6.82929
▁Europe	-6.83639
▁Nous	-6.84389
▁mais	-6.84521
▁européenne	-6.85025
▁Parlement	-6.85583
ent	-6.86897
▁vous	-6.87015
▁Parliament	-6.87562
▁our	-6.88353
c	-6.88638
on	-6.89723
n	-6.89852
ons	-6.91742
un	-6.91755
▁avec	-6.92022
▁Monsi	-6.92534
▁been	-6.93124
▁M	-6.94067
▁c	-6.95295
▁question	-6.96239
▁from	-6.968
▁être	-6.9719
une	-6.97465
▁politique	-6.97795
▁fait	-6.97958
▁programme	-6.99808
l	-7.01849
▁like	-7.03199
▁It	-7.03372
▁ces	-7.04273
▁can	-7.05645
▁point	-7.06104
▁do	-7.06542
▁there	-7.06562
al	-7.06976
▁tout	-7.07356
▁été	-7.08092
▁or	-7.08368
▁more	-7.08592
▁This	-7.10811
▁Le	-7.11058
▁important	-7.11157
p	-7.11817
▁comme	-7.13304
▁ont	-7.13485
▁rapport	-7.14182
▁me	-7.16971
▁si	-7.17195
▁La	-7.17755
▁these	-7.19067
o	-7.19735
▁was	-7.20022
▁(	-7.20246
en	-7.20396
▁In	-7.22777
Union	-7.22903
▁ou	-7.22982
▁report	-7.23113
▁leur	-7.24607
▁its	-7.24754
▁Président	-7.26005
▁so	-7.26166
▁one	-7.2628
▁aussi	-7.26702
g	-7.2727
▁Member	-7.27561
m	-7.29373
▁very	-7.30208
▁their	-7.30341
▁également	-7.32373
▁bien	-7.32973
▁États	-7.33539
▁who	-7.34038
▁no	-7.34436
▁faire	-7.3498
u	-7.35138
te	-7.35156
▁européen	-7.3626
i	-7.37526
▁L	-7.37559
▁pays	-7.37754
▁Council	-7.39205
▁what	-7.39274
▁need	-7.3942
ation	-7.40687
▁part	-7.4075
▁A	-7.41225
▁y	-7.41484
▁re	-7.41552
▁Conseil	-7.42235
▁doit	-7.42789
▁new	-7.4327
▁peut	-7.43487
▁States	-7.43543
▁:	-7.44384
it	-7.45445
)	-7.45664
▁my	-7.45713
▁j	-7.46917
▁us	-7.47026
▁about	-7.477
ra	-7.48338
?	-7.48686
▁make	-7.49059
▁même	-7.49188
▁time	-7.49229
▁if	-7.49665
▁am	-7.50195
▁son	-7.50589
▁très	-7.51143
▁other	-7.51548
▁entre	-7.51741
▁policy	-7.52181
▁membres	-7.52434
▁only	-7.5275
▁?	-7.53392
▁non	-7.53451
▁take	-7.542
▁avons	-7.54288
ce	-7.54427
f	-7.54573
:	-7.56186
▁possible	-7.57029
▁up	-7.592
▁directive	-7.59849
▁En	-7.60087
ai	-7.60258
▁car	-7.61298
▁therefore	-7.6149
▁out	-7.62546
▁because	-7.62935
▁tous	-7.63008
▁S	-7.63398
▁social	-7.63432
▁situation	-7.63685
▁J	-7.6427
▁voudrais	-7.64995
v	-7.6518
▁programmes	-7.65675
▁cela	-7.6597
▁donc	-7.66795
▁into	-7.67195
▁people	-7.68318
▁faut	-7.69558
▁some	-7.70845
elle	-7.70976
▁any	-7.7121
▁"	-7.71312
▁support	-7.71336
▁dont	-7.71843
▁Les	-7.71956
▁way	-7.72585
▁nos	-7.7353
▁position	-7.736
▁fact	-7.74211
▁devons	-7.74334
▁just	-7.74502
▁when	-7.74659
▁Madame	-7.74998
▁now	-7.75034
▁regard	-7.75316
▁matière	-7.75646
▁institutions	-7.75901
able	-7.76
▁Ce	-7.76225
▁concern	-7.76317
▁say	-7.77059
▁Commissioner	-7.7716
▁development	-7.7769
▁made	-7.79017
▁respect	-7.79366
▁initiative	-7.79531
▁place	-7.79772
▁work	-7.79959
▁développement	-7.80049
ir	-7.80521
▁vote	-7.80667
▁soit	-7.8085
▁elle	-7.80871
▁between	-7.81081
▁régions	-7.81149
ci	-7.81157
▁national	-7.81475
le	-7.82252
is	-7.82379
▁such	-7.82514
se	-7.82708
▁Community	-7.83217
▁manière	-7.84272
ée	-7.84595
▁debate	-7.85499
▁within	-7.86448
▁concerne	-7.86767
▁dire	-7.86962
▁encore	-7.87569
▁being	-7.88036
▁political	-7.8929
▁public	-7.89538
▁your	-7.89896
▁rapporteur	-7.90156
▁were	-7.90244
▁issue	-7.90436
▁those	-7.90595
Europe	-7.91089
▁sa	-7.91103
▁areas	-7.91312
"	-7.91729
▁sans	-7.9176
ujour	-7.92113
▁sécurité	-7.9215
▁commission	-7.92154
▁countries	-7.92532
▁contre	-7.92929
▁p	-7.92935
▁under	-7.93005
▁mon	-7.9324
▁travail	-7.93457
ait	-7.93485
▁than	-7.93691
▁regions	-7.93926
▁P	-7.94231
és	-7.95568
▁o	-7.95624
ou	-7.96213
▁m	-7.96603
ne	-7.97663
▁want	-7.97779
fin	-7.97872
▁aid	-7.98668
▁déjà	-7.99417
▁where	-7.99496
▁economic	-7.99948
▁them	-8.00527
▁justice	-8.00683
▁believe	-8.00702
▁groupe	-8.00832
b	-8.01016
▁concurrence	-8.01536
▁débat	-8.01662
▁cas	-8.01802
▁deux	-8.02039
▁proposition	-8.02339
h	-8.02649
▁inter	-8.02863
▁pense	-8.02981
ar	-8.03604
▁future	-8.04657
▁vue	-8.04717
▁Présidente	-8.05221
▁first	-8.05306
ve	-8.05557
▁order	-8.05933
;	-8.06435
▁économique	-8.0657
▁questions	-8.06705
an	-8.06987
▁cet	-8.07073
▁competition	-8.08183
▁action	-8.08494
▁citoyens	-8.08585
▁already	-8.08635
▁jour	-8.08712
ont	-8.08918
▁EU	-8.0922
▁rural	-8.09367
hui	-8.09707
▁financial	-8.10024
▁think	-8.10077
▁b	-8.10379
▁niveau	-8.10479
que	-8.10851
▁Committee	-8.1096
▁suis	-8.10962
▁many	-8.11459
▁doivent	-8.11905
▁does	-8.11978
▁see	-8.12191
▁collègues	-8.12236
▁Madam	-8.12365
▁cadre	-8.12537
▁sommes	-8.12551
▁ainsi	-8.1286
▁over	-8.12939
▁ses	-8.13298
▁most	-8.13381
▁nombre	-8.13825
▁process	-8.14285
▁could	-8.14332
▁services	-8.14915
age	-8.15704
▁marché	-8.1604
▁two	-8.16277
▁had	-8.16277
▁lors	-8.16499
▁protection	-8.16777
▁market	-8.17058
▁even	-8.17156
▁sera	-8.17203
▁well	-8.17407
▁On	-8.1767
▁same	-8.1781
▁area	-8.18079
▁t	-8.18324
ur	-8.18486
▁course	-8.18915
▁how	-8.19394
▁opinion	-8.19635
▁Mais	-8.19849
or	-8.20063
▁principe	-8.20173
▁proposal	-8.20205
▁here	-8.20597
▁own	-8.20847
▁There	-8.21009
▁toute	-8.21176
▁said	-8.219
▁today	-8.22049
▁importance	-8.22107
▁know	-8.22318
▁long	-8.22791
▁too	-8.2282
▁cannot	-8.22944
▁ensure	-8.22947
▁much	-8.22949
▁certain	-8.23083
▁compte	-8.23213
▁end	-8.23268
▁mise	-8.23911
▁right	-8.23941
ions	-8.24054
▁tant	-8.24169
▁system	-8.24457
▁transport	-8.24497
▁vot	-8.24989
▁clear	-8.25053
▁Prodi	-8.25089
▁savoir	-8.25156
▁parce	-8.2553
▁years	-8.25626
▁last	-8.25712
ez	-8.25866
at	-8.25963
▁As	-8.26058
▁mesures	-8.26062
▁against	-8.26202
▁That	-8.2673
▁droit	-8.26769
▁put	-8.26871
▁dit	-8.26908
ion	-8.26913
▁No	-8.27039
▁common	-8.27281
▁Dan	-8.27288
▁may	-8.27425
▁reform	-8.27862
▁accord	-8.28382
▁his	-8.2844
▁give	-8.28863
▁Mme	-8.29053
▁level	-8.29108
ité	-8.29258
ic	-8.29293
▁However	-8.29523
▁still	-8.29527
▁contrôle	-8.30077
▁politiques	-8.30381
▁Commissaire	-8.30661
ie	-8.30688
▁far	-8.30735
▁sujet	-8.30737
mettre	-8.30813
▁effet	-8.30848
▁law	-8.30999
me	-8.31035
ive	-8.31222
▁principle	-8.31324
▁particularly	-8.31388
▁points	-8.31454
▁culture	-8.31724
▁autres	-8.31817
▁seulement	-8.31865
▁dis	-8.31871
▁view	-8.31941
▁case	-8.31993
▁great	-8.32197
ten	-8.32253
▁state	-8.32795
mi	-8.33091
▁demande	-8.33175
▁able	-8.3341
▁example	-8.33569
▁résolution	-8.3357
▁toutes	-8.33807
▁domaine	-8.34317
im	-8.34863
▁fois	-8.34885
A	-8.34893
ro	-8.34916
▁;	-8.35256
▁D	-8.35283
us	-8.35403
▁particular	-8.35798
▁moment	-8.3597
▁given	-8.36059
être	-8.36206
▁conditions	-8.36444
▁temps	-8.36664
▁uvre	-8.36749
▁citizens	-8.36799
▁problèmes	-8.36819
▁present	-8.36934
▁avoir	-8.37137
▁1999	-8.37173
▁cours	-8.37187
qu	-8.37346
▁hope	-8.37786
▁then	-8.37862
▁communautaire	-8.38032
▁budget	-8.38403
autres	-8.38477
k	-8.38538
▁Pour	-8.39038
ary	-8.39109
▁gouvernement	-8.39158
▁amendments	-8.39204
▁ceux	-8.3922
ous	-8.39263
▁good	-8.39302
▁measures	-8.39502
▁grande	-8.39537
▁aides	-8.39658
▁large	-8.3968
▁va	-8.39778
▁taken	-8.39874
▁ré	-8.39929
▁B	-8.40051
▁why	-8.40278
▁moins	-8.4028
▁terms	-8.40397
ity	-8.40708
▁again	-8.40885
▁Cela	-8.40936
▁présent	-8.412
▁communication	-8.41329
▁certains	-8.41649
▁F	-8.41653
ol	-8.41755
▁responsabilité	-8.41891
st	-8.41949
▁plan	-8.42194
▁réforme	-8.42231
w	-8.42369
▁telle	-8.42392
▁serait	-8.42425
▁matter	-8.42548
▁entreprises	-8.42759
ement	-8.42794
▁1	-8.42886
ées	-8.4306
ance	-8.43169
▁problème	-8.4321
▁Treaty	-8.43484
▁regional	-8.43558
▁number	-8.44137
▁système	-8.44547
▁consider	-8.44647
▁shall	-8.44795
▁problems	-8.4518
if	-8.45287
▁particulier	-8.45458
▁pourquoi	-8.45458
▁cooperation	-8.45459
▁processus	-8.45491
▁base	-8.46174
▁concerned	-8.46374
▁local	-8.4644
▁parti	-8.46484
z	-8.46582
▁droits	-8.46813
▁legal	-8.46841
▁propositions	-8.46889
▁form	-8.46968
as	-8.47369
▁dé	-8.47771
▁continue	-8.4836
▁crois	-8.48843
▁ma	-8.48857
▁avant	-8.48965
▁exemple	-8.48967
th	-8.4905
▁amendements	-8.49364
▁nouvelle	-8.4938
▁issues	-8.49398
▁toujours	-8.49576
▁initiatives	-8.49868
▁projets	-8.50166
▁cha	-8.50298
▁fonds	-8.50548
▁House	-8.5092
▁Si	-8.50938
ist	-8.51393
▁international	-8.51492
▁nouveau	-8.51613
▁both	-8.51624
▁coopération	-8.51624
▁resolution	-8.51624
▁ask	-8.51989
rait	-8.52215
▁he	-8.52221
▁cher	-8.52306
▁set	-8.52326
▁world	-8.52334
▁safety	-8.52334
▁before	-8.52335
▁efforts	-8.52408
▁If	-8.52821
▁few	-8.53047
▁face	-8.53049
▁soient	-8.53089
ette	-8.5323
▁lieu	-8.53574
▁besoin	-8.53704
▁présidence	-8.5377
▁sous	-8.54277
▁tax	-8.54418
▁decision	-8.54449
▁raison	-8.54449
État	-8.54496
▁necessary	-8.55221
▁première	-8.55221
▁type	-8.55221
▁information	-8.55225
agit	-8.55262
ac	-8.55491
▁attention	-8.55507
▁commune	-8.55536
▁notamment	-8.55964
▁partie	-8.56198
▁sociale	-8.5646
▁beaucoup	-8.56698
▁nécessaire	-8.56714
▁But	-8.5672
▁peu	-8.56954
▁year	-8.57001
ri	-8.57106
▁monde	-8.57481
ul	-8.57566
▁favour	-8.57586
▁pre	-8.57661
ted	-8.57721
ront	-8.57993
▁second	-8.58026
▁f	-8.58094
▁main	-8.58231
▁whether	-8.58953
▁use	-8.58954
▁projet	-8.59072
▁objectifs	-8.59104
am	-8.59192
▁commissaire	-8.59787
▁change	-8.60156
ill	-8.60283
▁positive	-8.60486
▁employment	-8.60578
UE	-8.60625
▁fin	-8.60667
ut	-8.60922
et	-8.61193
▁rôle	-8.61261
▁next	-8.61261
▁however	-8.61267
▁document	-8.61373
▁without	-8.61383
▁hand	-8.6144
▁vo	-8.61611
▁Group	-8.62042
▁laquelle	-8.62043
▁agenda	-8.62121
▁juridique	-8.62187
▁thank	-8.62214
ère	-8.62652
▁since	-8.62659
▁décision	-8.62946
▁nom	-8.63057
▁come	-8.63185
ès	-8.63556
▁lorsqu	-8.63567
▁role	-8.63625
▁années	-8.63763
▁mesure	-8.638
▁quelques	-8.63943
▁zones	-8.64153
gouvernementale	-8.64547
▁country	-8.64698
de	-8.64804
▁actions	-8.65166
el	-8.65173
▁semble	-8.6523
▁ex	-8.65781
▁guidelines	-8.6609
▁prendre	-8.6612
▁pouvoir	-8.66268
▁2000	-8.66363
▁lui	-8.66476
op	-8.66683
▁con	-8.66844
▁Conference	-8.66862
▁help	-8.66862
▁T	-8.66966
▁traité	-8.67193
▁account	-8.67635
▁Leader	-8.67689
▁devrait	-8.67706
▁done	-8.67881
▁Members	-8.68335
ate	-8.6834
ils	-8.68677
▁secteur	-8.68812
▁Par	-8.6884
action	-8.69259
▁something	-8.69363
▁enlargement	-8.69364
▁rights	-8.6949
▁responsibility	-8.70296
▁For	-8.70297
▁government	-8.70333
▁%	-8.70459
▁environmental	-8.7096
▁internal	-8.71067
▁propose	-8.713
▁proposals	-8.71325
▁problem	-8.71423
▁control	-8.71498
▁group	-8.71783
▁extreme	-8.71927
▁pouvons	-8.71937
▁personnes	-8.72651
▁Kosovo	-8.72799
▁trop	-8.72804
▁URBAN	-8.72962
▁État	-8.73155
ordre	-8.73306
▁What	-8.73673
▁freedom	-8.73673
ge	-8.73792
▁projects	-8.73849
▁sens	-8.74109
▁INTERREG	-8.74558
▁means	-8.74785
▁going	-8.74954
▁State	-8.75016
▁look	-8.75039
▁instrument	-8.75258
▁h	-8.75412
▁LEADER	-8.75451
▁Presidency	-8.75451
▁certaine	-8.75505
▁through	-8.75512
che	-8.75515
▁était	-8.76102
▁De	-8.76142
▁wish	-8.76164
▁Austria	-8.76256
▁specific	-8.76349
▁alors	-8.7636
▁autre	-8.76515
▁ici	-8.76878
▁président	-8.77141
▁faveur	-8.77261
▁industry	-8.77261
▁legislation	-8.77261
▁rather	-8.77263
▁grand	-8.7727
▁règlement	-8.77273
▁Article	-8.77374
▁go	-8.77556
▁mis	-8.77579
au	-8.77632
accord	-8.7782
▁après	-8.78128
▁G	-8.78142
▁EQUAL	-8.7823
▁resources	-8.78379
aient	-8.78403
▁peuvent	-8.79105
▁basis	-8.79122
▁liberté	-8.79144
▁provide	-8.79265
emploi	-8.79399
▁once	-8.79515
▁force	-8.79538
▁proposed	-8.79558
ies	-8.79709
▁participation	-8.80039
elon	-8.80603
%	-8.80702
▁millions	-8.80933
▁progress	-8.80957
▁towards	-8.80988
▁bon	-8.81005
▁moi	-8.81044
▁soutien	-8.81639
▁population	-8.81661
▁Messieurs	-8.81935
▁législation	-8.81935
▁down	-8.82074
▁achieve	-8.82121
▁mes	-8.8239
▁economy	-8.82896
▁ressources	-8.83018
▁unique	-8.8315
each	-8.83213
▁exist	-8.83256
▁call	-8.83295
vi	-8.8342
▁agree	-8.83442
▁Conférence	-8.83867
▁France	-8.83874
▁eu	-8.83976
▁mois	-8.84245
▁terme	-8.84272
▁agreement	-8.84732
CO	-8.84824
▁premier	-8.84848
▁surtout	-8.84848
▁authorities	-8.84848
▁voulons	-8.8487
▁avez	-8.85582
▁service	-8.85598
▁sector	-8.85599
▁discussion	-8.85601
S	-8.85626
▁2	-8.85716
▁policies	-8.85838
espère	-8.85838
▁R	-8.85901
▁pu	-8.86013
▁adopted	-8.86048
▁elles	-8.86203
▁objectives	-8.86262
particulièrement	-8.86568
▁bonne	-8.86647
▁trois	-8.86836
▁celle	-8.86929
▁clearly	-8.87136
▁région	-8.8755
▁rules	-8.87586
▁femmes	-8.87848
▁every	-8.87915
ise	-8.88345
▁donner	-8.88372
▁sorte	-8.8844
▁application	-8.8859
▁subject	-8.88743
▁three	-8.88868
▁garantir	-8.88874
▁lutte	-8.88882
▁clairement	-8.88955
▁objectif	-8.89144
▁human	-8.89468
▁welcome	-8.89645
▁result	-8.89738
half	-8.89763
environnement	-8.8977
▁essential	-8.89899
▁peace	-8.89899
▁having	-8.89903
ivre	-8.90003
end	-8.90115
ter	-8.90425
▁pourrait	-8.9043
C	-8.90518
▁chose	-8.90714
article	-8.90828
▁back	-8.90951
▁greater	-8.91299
▁Interreg	-8.91304
▁comment	-8.91611
▁ni	-8.91645
▁small	-8.9179
ntergovernmental	-8.91892
▁major	-8.91946
▁Mesdames	-8.91994
▁depuis	-8.91994
▁security	-8.92022
▁real	-8.92031
▁commun	-8.92343
▁find	-8.92383
▁accept	-8.92493
▁concerns	-8.92606
▁avis	-8.92778
2	-8.9278
abord	-8.9283
▁effective	-8.92959
▁become	-8.93058
▁forward	-8.93151
▁whole	-8.93262
0	-8.93637
▁voie	-8.93827
initiative	-8.94112
▁pro	-8.94175
▁députés	-8.94223
▁seront	-8.94356
▁européennes	-8.94479
▁importante	-8.94918
▁tel	-8.94931
▁start	-8.95002
élargissement	-8.95212
▁Haider	-8.95221
▁code	-8.95237
▁prochaine	-8.95332
▁règles	-8.95433
▁sûr	-8.95539
▁constitue	-8.95915
▁vers	-8.96001
ner	-8.96004
▁Tobin	-8.96319
▁further	-8.96319
▁celui	-8.96319
▁food	-8.96325
▁implementation	-8.96347
même	-8.96371
▁yet	-8.96412
▁express	-8.96437
co	-8.96603
▁Vou	-8.96875
um	-8.97097
▁include	-8.97188
▁vie	-8.97217
▁donné	-8.97237
▁E	-8.97243
ux	-8.97415
▁committee	-8.9742
▁energy	-8.9743
▁women	-8.9743
▁rien	-8.97433
▁different	-8.97438
▁Court	-8.97568
▁7	-8.97623
sion	-8.97693
la	-8.97846
▁administration	-8.97895
▁groups	-8.98075
vant	-8.98227
8	-8.98269
▁period	-8.98285
ch	-8.98302
▁européens	-8.98397
▁serious	-8.98472
1	-8.98479
▁création	-8.98553
▁especially	-8.98553
▁discrimination	-8.98554
▁structurels	-8.98555
▁opportunity	-8.98559
▁Portuguese	-8.98562
▁membre	-8.9859
▁itself	-8.98664
▁Et	-8.98804
▁égard	-8.99122
▁making	-8.99402
▁general	-8.99527
▁jusqu	-8.99699
▁procédure	-8.99743
▁million	-8.99749
▁cost	-8.99776
▁formation	-8.99831
▁after	-8.99951
▁autorités	-8.99995
elles	-9.00126
ers	-9.00165
uring	-9.00384
▁So	-9.00795
▁deal	-9.00815
▁authority	-9.00842
▁deuxième	-9.00846
▁nouvelles	-9.01091
▁certainly	-9.01184
▁passé	-9.01623
▁façon	-9.02002
▁gentlemen	-9.02002
▁paix	-9.02002
▁période	-9.02002
▁maintenant	-9.02005
ting	-9.02118
▁clair	-9.02122
▁mentioned	-9.02184
▁least	-9.02201
▁intérieur	-9.0224
▁create	-9.02505
▁présenter	-9.02863
▁alimentaire	-9.03178
▁cohésion	-9.03178
▁always	-9.03178
▁possibilité	-9.03329
▁quant	-9.037
our	-9.0389
▁nature	-9.04242
▁allow	-9.04319
▁difficile	-9.04369
▁dimension	-9.04369
▁gestion	-9.04369
▁together	-9.04369
▁capital	-9.04469
▁Elle	-9.04532
▁solution	-9.04533
▁structure	-9.04544
▁aucun	-9.048
▁lack	-9.04826
▁cars	-9.0517
▁décisions	-9.05344
▁difficult	-9.05347
té	-9.0538
▁voir	-9.0543
▁approach	-9.05574
▁responsible	-9.05574
▁lead	-9.05622
▁doute	-9.05627
ante	-9.05688
▁contribution	-9.05768
ensemble	-9.05819
▁remercier	-9.05954
5	-9.06011
▁groupes	-9.06091
▁Assemblée	-9.06103
tion	-9.06189
uses	-9.06278
▁funds	-9.06285
▁understand	-9.06374
▁develop	-9.06429
▁dialogue	-9.06793
▁involved	-9.06889
▁another	-9.06915
▁ban	-9.06939
▁working	-9.07015
▁quand	-9.07031
▁used	-9.07074
M	-9.07081
vis	-9.07251
▁Une	-9.07262
▁interests	-9.07483
▁high	-9.07504
▁increase	-9.07752
▁environment	-9.07937
▁taxe	-9.07961
▁kind	-9.08028
▁fundamental	-9.08032
▁6	-9.08033
▁seem	-9.08215
▁really	-9.08251
▁propos	-9.08318
avenir	-9.08325
▁créer	-9.08383
▁did	-9.08468
▁lequel	-9.0868
▁outre	-9.08822
I	-9.09166
▁stratégie	-9.09278
▁third	-9.09278
▁transparence	-9.09278
▁single	-9.09282
▁five	-9.09336
▁davantage	-9.09381
▁Au	-9.09516
▁dernier	-9.09564
▁idea	-9.0961
application	-9.09622
▁véhicules	-9.09667
▁aura	-9.09712
ique	-9.09776
▁off	-9.09786
▁5	-9.09857
ll	-9.10302
x	-9.10423
▁Comme	-9.10425
ful	-9.10493
▁democratic	-9.10539
▁taking	-9.10544
▁better	-9.10545
▁plusieurs	-9.10546
▁vraiment	-9.10649
ladies	-9.1077
▁risk	-9.10855
▁Uni	-9.10936
▁months	-9.10996
▁financiers	-9.11
▁avait	-9.11124
▁affaires	-9.11219
▁vis	-9.11234
▁N	-9.11384
▁feel	-9.11408
rons	-9.11649
▁différents	-9.11826
▁transparency	-9.11826
▁money	-9.11828
▁indeed	-9.11829
ques	-9.11849
▁portugaise	-9.11867
▁draft	-9.11947
▁cause	-9.11948
ard	-9.12226
mb	-9.12483
aide	-9.12574
▁adopt	-9.12622
and	-9.1281
▁documents	-9.12936
om	-9.13021
▁cependant	-9.13124
▁My	-9.13423
▁collègue	-9.13523
amendement	-9.13542
▁text	-9.13759
▁nu	-9.13986
▁van	-9.13991
▁communautaires	-9.14015
rai	-9.1413
▁act	-9.14139
▁Un	-9.14181
▁ai	-9.14214
▁At	-9.14232
▁framework	-9.1444
▁nouveaux	-9.14461
▁pris	-9.15095
gré	-9.15184
▁prevent	-9.15326
tre	-9.15419
▁domaines	-9.1542
▁4	-9.15482
autre	-9.15499
▁day	-9.15578
▁aware	-9.15765
▁réponse	-9.15773
▁construction	-9.15786
▁promotion	-9.15811
▁decisions	-9.15853
▁bring	-9.16153
▁reste	-9.16368
▁régionale	-9.16436
▁r	-9.16675
▁six	-9.16677
▁pay	-9.16696
▁9	-9.17097
▁1997	-9.17125
▁conséquent	-9.17125
▁toutefois	-9.17125
▁Finally	-9.17126
▁cultural	-9.17129
▁remain	-9.17131
▁souvent	-9.17144
▁contraire	-9.17157
▁joint	-9.17227
▁Funds	-9.17271
▁aucune	-9.17379
▁souligner	-9.17413
▁efficace	-9.1745
hi	-9.17493
▁demand	-9.17591
▁Traité	-9.17621
▁3	-9.17667
▁per	-9.18166
▁vari	-9.18237
▁mention	-9.18263
▁blanc	-9.18495
▁Fonds	-9.18495
▁available	-9.18495
▁excellent	-9.18505
▁special	-9.18519
▁regulations	-9.18522
▁And	-9.18544
▁Austrian	-9.18641
▁fort	-9.18647
▁mot	-9.1898
▁reason	-9.18988
▁conclusion	-9.19043
D	-9.19051
▁souhaite	-9.19199
ern	-9.19335
▁conclusions	-9.19338
▁needs	-9.19357
ish	-9.19362
tiens	-9.19391
tructural	-9.19568
▁simple	-9.19734
ateur	-9.19752
▁Whi	-9.19843
▁fl	-9.19878
▁might	-9.19883
▁nécessité	-9.19883
▁nationaux	-9.19885
▁manque	-9.19897
▁charge	-9.19911
▁conciliation	-9.19912
▁majority	-9.19913
▁motion	-9.20113
▁aspects	-9.20166
vous	-9.2063
ici	-9.20803
▁past	-9.20843
▁ensemble	-9.21005
▁words	-9.21082
▁appropriate	-9.21292
▁Paper	-9.21292
▁including	-9.21292
▁coordination	-9.21297
▁confiance	-9.21298
▁gr	-9.21336
out	-9.21374
▁nationales	-9.21435
▁Enfin	-9.21466
▁br	-9.21691
▁effect	-9.21862
▁dernière	-9.21909
économie	-9.21936
▁interest	-9.22091
ue	-9.22148
▁ailleurs	-9.22328
▁existe	-9.22434
▁actuelle	-9.22617
▁puisse	-9.22624
▁crime	-9.22721
▁nothing	-9.22725
▁démocratie	-9.22749
▁actually	-9.22761
▁qualité	-9.22815
▁transports	-9.2286
▁things	-9.22975
homme	-9.23002
▁vehicles	-9.23034
▁général	-9.23061
▁relations	-9.2329
▁region	-9.23305
▁talk	-9.23361
▁demander	-9.23396
▁encourage	-9.23403
aire	-9.23588
▁valeurs	-9.23762
▁combat	-9.23935
▁life	-9.24101
▁urban	-9.2417
ian	-9.24201
▁rapidement	-9.24244
▁co	-9.24248
▁Ou	-9.24259
▁play	-9.2433
▁Affairs	-9.24354
▁choses	-9.24363
▁résultats	-9.24394
▁access	-9.2441
ag	-9.2463
ap	-9.24642
▁longer	-9.2472
▁plans	-9.24822
▁aim	-9.2509
▁final	-9.25468
▁current	-9.2548
▁générale	-9.2549
▁aide	-9.25547
▁show	-9.25584
▁intérêts	-9.25602
▁companies	-9.2564
▁mind	-9.25642
▁13	-9.25658
égalité	-9.25733
▁while	-9.25839
7	-9.26219
▁orientations	-9.2627
▁extrême	-9.26355
▁suite	-9.26358
▁catastrophe	-9.26382
▁power	-9.26383
▁relative	-9.26395
objectif	-9.26435
▁lignes	-9.2644
▁organisations	-9.26751
ability	-9.27107
▁Amendment	-9.27133
▁negotiations	-9.27141
▁Party	-9.27147
▁direction	-9.27243
▁meilleure	-9.27325
▁fond	-9.2738
▁certainement	-9.27445
énergie	-9.27948
ab	-9.28245
▁Amsterdam	-9.28266
moi	-9.28469
▁compris	-9.28648
▁among	-9.28648
▁convient	-9.28655
▁tenir	-9.2869
▁von	-9.28851
ha	-9.28909
▁expressed	-9.28944
▁consideration	-9.2897
ated	-9.29181
▁démocratique	-9.29474
importance	-9.29548
▁H	-9.29617
▁dispositions	-9.29719
▁15	-9.29823
▁moyens	-9.29896
eurs	-9.29937
▁values	-9.30036
▁Hulten	-9.30186
▁enough	-9.30186
▁preuve	-9.30186
▁devrions	-9.30187
▁soutenir	-9.30191
▁veux	-9.30191
▁III	-9.30197
▁mieux	-9.30199
▁comité	-9.30206
▁cohesion	-9.30218
ts	-9.30336
▁best	-9.30369
▁visant	-9.30391
▁continu	-9.3082
▁matters	-9.30875
▁based	-9.30981
▁voitures	-9.3106
▁objective	-9.31084
▁assurer	-9.31125
▁procedure	-9.31169
▁conform	-9.31217
▁date	-9.31486
▁intervention	-9.31511
of	-9.31565
▁previous	-9.31583
gislative	-9.31747
▁cinq	-9.31748
▁début	-9.31749
▁profit	-9.31749
▁individual	-9.31751
▁dangerous	-9.31765
▁Re	-9.31937
▁12	-9.32474
less	-9.33092
▁emploi	-9.33153
▁ten	-9.33231
▁criminal	-9.33311
▁Cour	-9.33316
▁Communauté	-9.33336
▁ourselves	-9.33336
▁signifie	-9.33336
▁stand	-9.33345
▁rappeler	-9.33358
▁production	-9.33388
▁entendu	-9.33407
▁partage	-9.33546
▁fonction	-9.33723
quel	-9.33781
ément	-9.33839
".	-9.33939
▁assistance	-9.33991
▁disaster	-9.34321
▁propre	-9.34323
▁guarantee	-9.34336
▁addition	-9.34343
▁relation	-9.34352
▁quelque	-9.34433
▁context	-9.3445
▁get	-9.34496
E	-9.34517
▁open	-9.34527
▁apply	-9.34533
▁central	-9.34723
4	-9.34727
▁request	-9.34734
▁full	-9.34774
▁seul	-9.34908
/	-9.34949
▁devraient	-9.34953
▁pourra	-9.34962
▁mission	-9.34983
▁majorité	-9.34988
▁training	-9.35146
omp	-9.35172
▁pla	-9.3537
▁enfin	-9.35384
▁i	-9.35407
▁II	-9.35529
▁upon	-9.35538
ho	-9.35643
▁déclaration	-9.35982
▁financier	-9.35999
▁10	-9.36006
▁présente	-9.36061
isation	-9.36174
▁là	-9.3622
▁jobs	-9.36467
▁petite	-9.36513
▁trouve	-9.36537
▁Autriche	-9.36544
▁although	-9.36589
▁chômage	-9.36589
▁cross	-9.36589
▁simply	-9.36589
▁trade	-9.36589
▁étant	-9.36668
▁urgent	-9.36669
mment	-9.36986
▁offer	-9.37029
▁présenté	-9.37058
▁14	-9.37287
up	-9.37311
▁crucial	-9.37332
lé	-9.37627
▁forme	-9.3766
▁société	-9.37668
▁maritime	-9.3767
▁though	-9.37961
▁share	-9.37975
▁principles	-9.38
▁essentiel	-9.38031
▁proper	-9.38094
▁fall	-9.38212
▁four	-9.3825
▁democracy	-9.38255
▁little	-9.38255
▁strategy	-9.38255
▁libre	-9.38256
▁standards	-9.38256
▁1998	-9.38256
▁message	-9.38256
▁unemployment	-9.3827
▁fully	-9.38447
term	-9.38471
▁actuellement	-9.38486
▁structural	-9.38635
▁quelle	-9.38731
▁principes	-9.38756
▁ga	-9.38978
▁mal	-9.39289
O	-9.39371
▁financière	-9.39424
rendre	-9.39488
▁remercie	-9.39532
▁bear	-9.39721
▁comes	-9.39778
▁économiques	-9.39823
▁statement	-9.3983
▁tell	-9.39861
▁French	-9.3995
▁remind	-9.3995
▁retard	-9.3995
▁key	-9.39951
▁peux	-9.39998
▁considération	-9.40002
▁quality	-9.40095
))	-9.40359
▁al	-9.40454
▁Not	-9.40949
▁négociations	-9.41032
▁amendment	-9.41255
▁represent	-9.41317
j	-9.41469
ought	-9.41562
lo	-9.41618
▁IGC	-9.41674
▁With	-9.41674
▁normes	-9.41675
▁sign	-9.41681
▁EUR	-9.41692
▁Mon	-9.41881
▁risque	-9.42016
▁parties	-9.42297
ness	-9.42464
▁ordre	-9.4254
▁grave	-9.42603
ations	-9.42739
heure	-9.42748
▁her	-9.42899
▁task	-9.42946
clear	-9.43021
▁promote	-9.43111
▁address	-9.43213
▁short	-9.43429
▁Tampere	-9.43429
▁véritable	-9.43429
▁frontières	-9.43429
▁answer	-9.43429
▁crise	-9.43429
▁appelle	-9.43461
▁nombreux	-9.43476
▁po	-9.43505
▁following	-9.43776
▁mean	-9.44024
▁analyse	-9.44089
▁autorité	-9.44212
▁veiller	-9.4425
ud	-9.44287
▁sources	-9.44304
▁governments	-9.4452
▁men	-9.44696
▁improve	-9.44786
6	-9.44805
▁vrai	-9.45076
▁active	-9.45095
caution	-9.45208
▁Toutefois	-9.45214
▁volonté	-9.45214
▁font	-9.45294
▁contenu	-9.45296
▁réellement	-9.45305
▁raisons	-9.45322
▁implemented	-9.45379
▁meeting	-9.45501
▁discussions	-9.45673
▁requirements	-9.45691
ais	-9.45861
▁doing	-9.46083
▁sense	-9.46233
9	-9.46281
iv	-9.46349
id	-9.46507
▁administrative	-9.46596
▁publique	-9.46608
▁stress	-9.46815
▁correct	-9.46845
ui	-9.46848
▁increasing	-9.46868
▁doubt	-9.47023
▁Cependant	-9.47033
▁confidence	-9.47033
▁science	-9.47033
▁fight	-9.47033
▁veut	-9.47034
▁exigences	-9.47045
▁durable	-9.47048
▁free	-9.47052
▁financement	-9.4716
▁approved	-9.47173
▁currently	-9.47231
▁parler	-9.47329
▁Nations	-9.47614
▁intention	-9.47909
ration	-9.48045
▁sure	-9.48114
ating	-9.48137
rg	-9.4843
▁provision	-9.48501
P	-9.48506
▁project	-9.48517
année	-9.48549
intégration	-9.48559
▁Tout	-9.48618
▁centrale	-9.48678
ory	-9.4874
▁CIG	-9.48884
▁activities	-9.48884
▁plutôt	-9.48884
▁practice	-9.48884
▁amount	-9.48885
▁titre	-9.48885
▁quatre	-9.48886
pite	-9.48888
▁precisely	-9.48913
▁carry	-9.48933
▁management	-9.48951
ver	-9.49051
3	-9.49077
▁double	-9.49081
▁global	-9.49142
▁demain	-9.49159
▁aspect	-9.49172
▁balance	-9.49195
▁tenu	-9.49211
nous	-9.49363
ty	-9.49578
▁20	-9.49626
▁tr	-9.49875
tes	-9.49963
▁coûts	-9.50026
▁total	-9.50088
▁espace	-9.50253
▁proposé	-9.50317
▁confirm	-9.50341
coming	-9.50389
▁thing	-9.50461
▁agit	-9.50744
▁directrices	-9.50771
▁précaution	-9.50778
▁true	-9.50999
dire	-9.51047
▁prise	-9.51143
▁consommateurs	-9.51144
▁travailleurs	-9.51235
▁cases	-9.51268
près	-9.51281
▁term	-9.51404
▁voted	-9.51522
▁goods	-9.51834
over	-9.51883
▁live	-9.51956
▁forte	-9.52028
ak	-9.52322
utilisation	-9.52381
▁résultat	-9.524
▁changes	-9.52446
▁success	-9.52683
▁recyclage	-9.52694
▁technical	-9.52694
▁integration	-9.52702
▁année	-9.52704
▁society	-9.52716
▁tiers	-9.52717
▁trouver	-9.52755
▁indispensable	-9.52761
euros	-9.52814
▁parole	-9.52822
▁movement	-9.52832
▁simplement	-9.52901
▁com	-9.52987
▁results	-9.52997
▁automobile	-9.53014
▁exige	-9.53062
▁creat	-9.53194
ier	-9.53198
▁prises	-9.53305
▁renforcer	-9.53345
▁permett	-9.53405
▁25	-9.53424
▁constructeurs	-9.53434
▁instruments	-9.53661
▁experts	-9.53704
▁gouvernements	-9.5378
▁quel	-9.53846
(	-9.53864
▁speak	-9.54023
▁demandé	-9.54146
▁eux	-9.5415
▁seule	-9.54175
H	-9.54408
▁step	-9.54421
▁expect	-9.54426
▁content	-9.54439
▁recent	-9.54496
▁Kinnock	-9.54655
▁jamais	-9.54655
▁partnership	-9.54655
▁recycling	-9.54655
▁technique	-9.54655
▁instance	-9.54656
▁item	-9.54668
▁activités	-9.54687
ok	-9.5469
▁fonctionnement	-9.54722
▁porte	-9.54743
▁note	-9.54769
▁funding	-9.54867
▁turn	-9.54901
▁limit	-9.5491
▁affect	-9.54913
str	-9.54949
land	-9.55055
▁add	-9.55117
▁pose	-9.55157
▁représentants	-9.55225
▁risques	-9.55239
▁juste	-9.55303
▁benefit	-9.55306
▁termes	-9.55407
part	-9.55509
▁representatives	-9.55682
border	-9.55817
tic	-9.55819
▁ans	-9.56002
▁V	-9.56089
▁attend	-9.56097
▁directives	-9.56205
ord	-9.5626
▁Fund	-9.56437
▁party	-9.56438
▁strong	-9.56489
▁First	-9.56495
most	-9.56496
▁nécessaires	-9.5661
▁above	-9.56655
▁exchange	-9.56655
▁fondamentaux	-9.56655
▁judiciaire	-9.56655
▁recherche	-9.56655
▁vigueur	-9.56655
▁réalité	-9.56667
▁priority	-9.5667
▁moyenne	-9.56684
▁relat	-9.56692
▁seen	-9.56721
▁répondre	-9.56759
▁prepared	-9.56778
▁pleased	-9.56779
▁permettre	-9.56882
▁effort	-9.5692
▁comments	-9.56928
ex	-9.56946
▁included	-9.57155
▁All	-9.57243
▁asked	-9.57267
quelles	-9.57813
ot	-9.57848
▁locales	-9.58095
▁hui	-9.58096
▁establish	-9.58218
▁environnemental	-9.5822
▁territoire	-9.58493
▁manufacturers	-9.58505
industrie	-9.58521
▁député	-9.58523
▁plu	-9.58543
▁direct	-9.58571
▁experience	-9.58572
information	-9.58587
▁sociaux	-9.58696
▁2000-2006	-9.58696
▁Government	-9.58696
▁Thank	-9.58696
▁budgétaire	-9.58696
▁communauté	-9.58696
▁conférence	-9.58696
▁focus	-9.58696
▁operation	-9.58696
▁practical	-9.58696
▁solidarity	-9.58696
▁tomorrow	-9.58696
▁écologique	-9.58696
▁strand	-9.58696
▁soumis	-9.58697
▁quoi	-9.58736
▁him	-9.58752
▁anti	-9.58775
▁carrie	-9.58859
aux	-9.59109
▁texte	-9.59268
▁000	-9.59275
▁court	-9.5928
▁adopté	-9.59408
▁provided	-9.59412
▁sais	-9.59435
▁markets	-9.59584
▁others	-9.59589
▁autant	-9.59646
▁marchés	-9.59677
dit	-9.59707
▁soon	-9.59741
▁product	-9.59801
▁secteurs	-9.60053
til	-9.60063
▁régionales	-9.60168
▁voter	-9.60196
▁follow	-9.60203
tique	-9.60314
▁concept	-9.60579
▁week	-9.60633
▁autrichien	-9.60743
objet	-9.60779
▁Justice	-9.60779
▁développer	-9.60779
▁field	-9.60779
▁keep	-9.60779
▁monétaire	-9.60779
▁venir	-9.6078
▁caract	-9.6078
▁ayant	-9.60815
▁line	-9.60956
▁businesses	-9.60967
▁port	-9.61064
▁effectivement	-9.61074
▁Or	-9.61166
▁internationale	-9.61178
▁différentes	-9.61191
▁To	-9.61194
▁dés	-9.61388
▁contribuer	-9.61617
▁bas	-9.61677
▁grands	-9.61684
use	-9.61716
ture	-9.61821
▁paragraphe	-9.61857
▁reasons	-9.62076
▁finance	-9.62529
raient	-9.62603
▁sujets	-9.62626
▁éléments	-9.62646
▁business	-9.62715
der	-9.62715
▁needed	-9.62759
▁commitment	-9.62814
ry	-9.62852
▁begin	-9.62907
▁Schroedter	-9.62907
▁perhaps	-9.62907
▁décharge	-9.62907
▁quickly	-9.62907
▁extent	-9.62908
▁liability	-9.62908
▁route	-9.62908
▁principale	-9.62921
▁assez	-9.6293
▁old	-9.62955
▁personnel	-9.63002
▁consultation	-9.63077
▁Firstly	-9.63078
man	-9.63111
veral	-9.63118
▁tabled	-9.63139
▁savons	-9.6321
ism	-9.63242
▁dangereuses	-9.63278
▁hold	-9.63375
▁décidé	-9.63416
▁contexte	-9.6357
▁He	-9.63588
rious	-9.63757
▁rurales	-9.63798
▁either	-9.63901
ables	-9.63971
▁dernières	-9.64132
▁close	-9.64237
ches	-9.64329
▁occasion	-9.64632
▁UE	-9.64692
▁equal	-9.64894
▁costs	-9.64959
▁st	-9.64961
▁produit	-9.6503
▁Patten	-9.65081
▁analysis	-9.65081
▁nucléaire	-9.65081
▁research	-9.65081
▁road	-9.65081
▁fonctionnaires	-9.65081
▁parvenir	-9.65081
▁East	-9.65081
▁Theato	-9.65082
▁priorities	-9.65083
▁courage	-9.65088
▁Secondly	-9.65125
▁acceptable	-9.65238
▁référence	-9.65303
▁capacité	-9.65304
▁impact	-9.65304
▁mer	-9.65349
▁regulation	-9.65373
▁move	-9.65799
▁presented	-9.65859
▁oil	-9.65912
Le	-9.6616
▁50	-9.66289
▁8	-9.66401
▁représente	-9.66445
▁grandes	-9.66743
▁draw	-9.66789
▁states	-9.6684
▁claire	-9.66885
avons	-9.67056
▁contrôles	-9.67109
▁faudra	-9.67247
▁water	-9.67299
▁applicable	-9.67303
▁discharge	-9.67303
▁partenariat	-9.67303
▁solidarité	-9.67303
▁succès	-9.67303
▁broad	-9.67303
▁réglementation	-9.67303
▁volet	-9.67303
▁précisément	-9.6731
▁delay	-9.67311
▁11	-9.67347
Autriche	-9.67363
▁card	-9.67366
F	-9.67374
▁Balkans	-9.67536
▁puisque	-9.67569
▁thought	-9.677
ally	-9.67733
▁estime	-9.67768
▁session	-9.6796
▁firstly	-9.68116
▁sort	-9.68223
▁donne	-9.68406
▁ch	-9.68463
tant	-9.6849
▁dispos	-9.69099
ob	-9.69172
▁idée	-9.69228
▁structures	-9.69238
▁list	-9.69359
▁coup	-9.69465
▁refer	-9.69521
élaboration	-9.69576
▁favorable	-9.69576
▁marchandises	-9.69576
▁medium	-9.69576
▁potential	-9.69576
▁pêche	-9.69576
▁strategic	-9.69576
▁révision	-9.69576
▁unacceptable	-9.69576
établissement	-9.69576
▁ago	-9.69586
▁imp	-9.69587
▁planning	-9.69594
▁stage	-9.6961
▁absolutely	-9.69611
▁she	-9.69623
▁Langen	-9.69632
▁dû	-9.69651
▁tels	-9.69689
life	-9.69702
▁essentielle	-9.69722
ale	-9.69769
▁reference	-9.69809
▁raised	-9.69828
▁attitude	-9.69943
rions	-9.70126
▁pourrons	-9.70175
▁difficultés	-9.70204
▁insist	-9.70207
▁congratulate	-9.70339
▁fraud	-9.70448
avis	-9.7045
▁carte	-9.70501
▁forces	-9.70561
▁employ	-9.70658
▁met	-9.70774
▁éviter	-9.70811
▁implement	-9.71214
▁intérêt	-9.71274
▁priorités	-9.71305
ia	-9.71536
▁vi	-9.71619
▁Se	-9.71688
isme	-9.71735
▁pré	-9.71771
▁recognise	-9.71822
ublic	-9.71863
▁correspond	-9.71901
▁côté	-9.71901
▁minimum	-9.71901
▁progrès	-9.71901
▁promouvoir	-9.71901
▁réflexion	-9.71901
▁prestation	-9.71901
▁fear	-9.71902
▁croissance	-9.71903
▁opportunities	-9.71904
▁office	-9.71911
▁collaboration	-9.71914
▁specifically	-9.71918
▁figure	-9.71939
all	-9.71947
▁concentration	-9.71956
▁front	-9.71962
▁hommes	-9.72003
▁independent	-9.72005
▁responsable	-9.72012
▁workers	-9.72017
▁monitoring	-9.72062
▁reached	-9.72065
era	-9.72088
▁received	-9.72116
▁travailler	-9.72125
▁established	-9.72147
▁montre	-9.72194
▁approche	-9.72199
▁limited	-9.72296
▁Car	-9.72489
ière	-9.72572
entre	-9.72679
▁civil	-9.72755
▁devron	-9.72767
▁officials	-9.72797
▁considered	-9.72805
▁nations	-9.73023
ure	-9.73081
▁prend	-9.73167
▁intend	-9.73251
▁colleagues	-9.73289
▁compétences	-9.73343
▁conséquences	-9.73453
▁rend	-9.7364
▁fraude	-9.73672
▁damage	-9.73991
▁prochain	-9.74034
▁detail	-9.74067
▁danger	-9.74253
▁Objective	-9.74282
▁When	-9.74282
▁currency	-9.74282
▁mérite	-9.74282
▁pensons	-9.74282
▁positif	-9.74282
▁response	-9.74282
▁Region	-9.74282
▁transactions	-9.74283
▁capitaux	-9.74286
▁basic	-9.74304
▁grant	-9.74312
▁hard	-9.74312
▁Of	-9.74333
▁mere	-9.7434
▁faudrait	-9.74344
▁culturelle	-9.74349
▁modèle	-9.74366
▁semaine	-9.74441
▁actuel	-9.74453
B	-9.74483
efficacité	-9.74485
▁puissent	-9.74503
▁v	-9.74509
▁job	-9.74521
▁affected	-9.7454
▁importantes	-9.74612
ack	-9.74703
▁never	-9.74707
▁increased	-9.74819
▁challenge	-9.74824
▁devoir	-9.7486
▁dois	-9.74872
▁changement	-9.74908
▁agreements	-9.74937
impos	-9.75016
▁financières	-9.75029
▁light	-9.75069
▁Do	-9.7522
▁importants	-9.75228
▁strict	-9.75254
ow	-9.75257
▁post	-9.7555
▁30	-9.75837
▁O	-9.75899
▁parle	-9.75948
▁continuer	-9.76105
ification	-9.76278
▁meilleur	-9.76407
▁possibilités	-9.76446
▁extend	-9.76502
▁Social	-9.76701
▁1996	-9.76721
▁Barnier	-9.76721
▁Policy	-9.76721
▁Portugal	-9.76721
▁agricole	-9.76721
▁applied	-9.76721
▁connection	-9.76722
urgence	-9.76722
▁séance	-9.76723
▁health	-9.76725
▁chacun	-9.76729
▁victimes	-9.76743
▁renewable	-9.76744
▁throughout	-9.76749
▁outside	-9.76762
▁capable	-9.76788
▁permet	-9.768
▁lié	-9.76816
▁informations	-9.769
ze	-9.76968
▁citoyen	-9.76985
▁constituent	-9.76996
▁manufacturer	-9.77058
▁regret	-9.77306
▁exclu	-9.77349
▁particulière	-9.77388
▁achieved	-9.7755
▁coming	-9.776
▁scientifiques	-9.77615
▁responsabilités	-9.77876
▁2000.	-9.78047
delà	-9.7811
▁OLAF	-9.78259
▁avenir	-9.78618
▁Des	-9.78693
è	-9.78847
▁consiste	-9.7891
▁raise	-9.78953
▁précédent	-9.79035
▁vu	-9.7905
▁One	-9.79067
▁étai	-9.79067
▁invest	-9.79074
igh	-9.79079
▁urge	-9.79095
▁w	-9.79184
▁Treaties	-9.79221
▁absolument	-9.79221
▁approuvé	-9.79221
▁behind	-9.79221
▁coalition	-9.79221
▁judicial	-9.79221
▁naturellement	-9.79221
▁régime	-9.79221
▁évident	-9.79221
▁Therefore	-9.79221
▁biais	-9.79222
▁transnational	-9.79223
▁growth	-9.79227
▁défi	-9.79234
▁sensible	-9.79234
▁lesquels	-9.79248
▁comprendre	-9.79339
▁cur	-9.79426
▁Minister	-9.79508
▁pratique	-9.79515
▁implementing	-9.79667
estime	-9.79706
▁wishes	-9.7976
▁exercice	-9.79993
▁celles	-9.80014
▁villes	-9.80128
▁An	-9.8022
▁élément	-9.80367
▁nor	-9.80375
▁effects	-9.80653
▁fournir	-9.80702
▁Traités	-9.80845
idée	-9.80858
▁value	-9.81035
▁causes	-9.81126
▁vient	-9.81194
▁derniers	-9.81196
▁compromise	-9.81331
▁contribute	-9.8135
▁solutions	-9.81431
▁ba	-9.8147
▁rest	-9.81512
▁trans	-9.81561
▁strengthen	-9.81579
▁meet	-9.81643
ç	-9.81747
▁vise	-9.81751
▁protect	-9.8176
▁PPE	-9.81785
adhésion	-9.81785
▁Florenz	-9.81785
▁phase	-9.81785
▁prix	-9.81785
▁speech	-9.81785
▁malheureusement	-9.81786
▁réalisé	-9.81786
▁souci	-9.81787
▁sanction	-9.81797
▁pendant	-9.81799
▁santé	-9.81801
▁élargissement	-9.81805
▁difficulties	-9.8182
▁creation	-9.81822
viennent	-9.81846
▁assessment	-9.81869
▁model	-9.81904
▁établi	-9.81925
avoir	-9.81941
▁réjouis	-9.82054
▁féliciter	-9.82096
▁chance	-9.82165
▁word	-9.82178
occasion	-9.82191
▁influence	-9.82225
▁saying	-9.82375
▁bonnes	-9.82375
▁sustainabl	-9.82709
▁envisage	-9.82961
po	-9.82973
▁réformes	-9.83032
▁améliorer	-9.83174
Unis	-9.83292
▁arguments	-9.8332
spect	-9.83444
▁Erika	-9.83463
▁using	-9.83546
▁happen	-9.83781
▁félicite	-9.84221
▁firm	-9.84253
▁procédures	-9.84295
▁Wogau	-9.84417
▁criteria	-9.84417
▁déposé	-9.84417
▁reconstruction	-9.84417
▁résoudre	-9.84417
▁spirit	-9.84417
▁Indeed	-9.84418
▁home	-9.84418
▁longtemps	-9.84422
▁Report	-9.84423
▁mondialisation	-9.84424
▁montant	-9.84462
▁contradiction	-9.84468
▁version	-9.84556
▁due	-9.8463
▁critique	-9.84647
▁clos	-9.84695
▁try	-9.84715
▁scope	-9.84748
▁personne	-9.84779
▁ministre	-9.84847
▁modification	-9.84847
▁compromis	-9.84886
▁atteint	-9.8494
▁establishing	-9.84954
▁communes	-9.84964
ative	-9.84987
▁sectors	-9.85083
▁Europol	-9.8523
▁entend	-9.85372
▁interventions	-9.85576
▁k	-9.85605
▁procedures	-9.85636
▁trait	-9.85637
▁stated	-9.85689
▁abord	-9.85774
▁ever	-9.85981
▁voté	-9.86073
▁examiner	-9.86093
▁disposer	-9.86102
L	-9.86268
▁red	-9.86382
▁according	-9.86404
▁commencer	-9.86534
▁euro	-9.86561
ised	-9.86598
▁Elles	-9.86747
▁pratiques	-9.86803
self	-9.86829
issent	-9.869
be	-9.8691
▁honour	-9.87119
▁Turkey	-9.8712
▁avoid	-9.8712
▁bodies	-9.8712
▁crisis	-9.8712
▁ensuite	-9.8712
▁radical	-9.8712
▁travaux	-9.8712
▁explain	-9.8712
▁steel	-9.8712
▁Ireland	-9.87121
▁commerce	-9.87122
▁troisième	-9.87126
▁ferme	-9.87138
▁possibility	-9.87157
▁17	-9.87161
▁require	-9.87207
▁namely	-9.8721
▁significant	-9.87214
▁série	-9.87219
▁purpose	-9.87276
ca	-9.87364
▁wide	-9.87369
▁required	-9.87395
asile	-9.87428
V	-9.87509
▁seriously	-9.87511
▁fi	-9.87536
▁appel	-9.87548
▁extérieur	-9.87595
N	-9.87614
▁moyen	-9.87624
▁suffisa	-9.87717
▁justement	-9.87772
iers	-9.87822
▁navires	-9.87975
▁condition	-9.87996
▁inform	-9.88117
▁propres	-9.88184
no	-9.88342
gal	-9.88362
▁agriculture	-9.88628
▁hors	-9.88769
▁actes	-9.88966
eau	-9.88971
ng	-9.89072
▁attach	-9.8915
▁Israel	-9.89271
▁factor	-9.89439
▁environnement	-9.89539
▁ceci	-9.89627
▁touche	-9.89638
▁élevé	-9.89701
ling	-9.89745
▁found	-9.89753
▁responsables	-9.89765
▁reforms	-9.8982
▁accords	-9.89839
▁Tibet	-9.89864
▁Jonckheer	-9.89897
▁Palacio	-9.89897
▁Voilà	-9.89897
▁attempt	-9.89897
▁genre	-9.89897
▁privé	-9.89897
▁review	-9.89897
▁subsidiarity	-9.89897
▁subsidiarité	-9.89897
giving	-9.89898
▁menace	-9.89899
▁modernisation	-9.89901
▁réfugiés	-9.89901
▁living	-9.89903
▁pleinement	-9.89907
▁globalisation	-9.89911
▁devra	-9.89941
▁myself	-9.89958
▁integrated	-9.89985
▁discuter	-9.89988
▁procéder	-9.89993
▁Brussels	-9.89994
eux	-9.90033
ouverture	-9.90069
▁K	-9.90183
▁rail	-9.90311
▁perspective	-9.90466
▁consumer	-9.90468
Office	-9.90502
▁Bi	-9.90575
▁constater	-9.90653
▁expérience	-9.90757
▁fail	-9.90781
▁mondiale	-9.91113
▁exclusion	-9.91163
ors	-9.91168
▁pa	-9.9123
▁suivante	-9.91265
▁paragraph	-9.91289
▁powers	-9.91318
▁sociales	-9.91734
▁forth	-9.91752
taux	-9.91782
00	-9.91795
by	-9.91813
art	-9.92029
apport	-9.92238
entrée	-9.92523
▁examine	-9.92539
▁successful	-9.92606
▁institution	-9.92649
▁scientifi	-9.92712
▁produce	-9.92747
sized	-9.92755
▁Convention	-9.92755
▁circulation	-9.92755
▁conference	-9.92755
▁continent	-9.92755
▁efficiency	-9.92755
▁impossible	-9.92755
▁locaux	-9.92755
▁police	-9.92755
▁réalisation	-9.92755
▁themselves	-9.92755
▁yesterday	-9.92755
▁pursu	-9.92755
▁Question	-9.92755
▁held	-9.92756
▁everyone	-9.92758
▁vital	-9.92758
▁How	-9.92762
▁rappelle	-9.92764
étude	-9.92767
▁table	-9.92789
▁quota	-9.92808
▁community	-9.92817
▁Some	-9.92818
▁poursuivre	-9.92841
▁loin	-9.92842
▁fishing	-9.92855
▁jeunes	-9.92877
▁faisant	-9.92882
▁reports	-9.92895
▁completely	-9.92907
▁decided	-9.92959
▁emplois	-9.93029
▁concrètes	-9.93124
▁highlight	-9.93196
▁original	-9.93279
▁traiter	-9.93349
▁puis	-9.934
▁measure	-9.93442
Amsterdam	-9.93484
making	-9.93489
▁tasks	-9.93549
▁exprimé	-9.93625
▁created	-9.93758
▁speakers	-9.93815
▁auto	-9.9408
▁impose	-9.94138
▁précis	-9.94362
gue	-9.94419
ient	-9.94429
cur	-9.94678
▁soi	-9.94682
ning	-9.94765
▁borders	-9.95019
▁voting	-9.95036
▁ministres	-9.95217
▁repeat	-9.95477
▁permis	-9.95684
abilité	-9.95684
▁Nevertheless	-9.95696
▁britannique	-9.95696
▁competence	-9.95696
▁critères	-9.95696
▁flexible	-9.95696
▁soulevé	-9.95696
échelle	-9.95696
▁everything	-9.95696
▁inacceptable	-9.95696
▁dossier	-9.95697
▁sitting	-9.95697
▁exclusive	-9.95698
▁renouvelables	-9.957
▁serve	-9.95706
▁relevant	-9.95709
▁left	-9.95713
▁unfortunately	-9.95727
▁overall	-9.95736
▁18	-9.95756
▁tard	-9.95769
▁reduce	-9.95863
▁tourisme	-9.95869
▁investment	-9.95873
▁let	-9.9591
▁class	-9.9593
▁considérer	-9.95935
▁improvement	-9.95945
▁granted	-9.95962
▁Sur	-9.96007
▁sc	-9.96057
▁normal	-9.9607
▁fix	-9.96084
▁implique	-9.96087
▁passer	-9.96088
▁notification	-9.96097
▁paraît	-9.96134
▁candidats	-9.96148
▁atteindre	-9.96337
▁via	-9.96366
▁convention	-9.96433
▁contain	-9.96437
▁away	-9.96474
▁rule	-9.96484
▁priorité	-9.96484
ailleurs	-9.96516
▁observations	-9.96527
▁article	-9.96612
▁politics	-9.96622
espace	-9.96655
▁border	-9.96746
ible	-9.96935
▁connaissance	-9.97039
▁lot	-9.97072
▁catastrophes	-9.97204
ide	-9.97372
▁desire	-9.97569
▁event	-9.97594
▁low	-9.97649
▁organisation	-9.97853
▁fa	-9.97882
▁views	-9.98145
▁amendement	-9.98487
▁accorder	-9.98492
▁reach	-9.98609
▁complete	-9.98633
activité	-9.98677
▁war	-9.98686
▁Bruxelles	-9.98726
▁Transport	-9.98726
▁asylum	-9.98726
▁législatif	-9.98726
▁private	-9.98726
▁programmation	-9.98726
▁remote	-9.98726
▁suivi	-9.98726
▁utile	-9.98726
▁Monti	-9.98727
▁gens	-9.98727
▁faible	-9.98728
▁stop	-9.9876
▁départ	-9.9876
▁poor	-9.98773
▁reality	-9.98792
▁referred	-9.9883
les	-9.98877
▁précédente	-9.98953
▁recently	-9.98977
▁taxation	-9.98987
▁heard	-9.99011
▁along	-9.99014
▁poursuite	-9.9911
▁assist	-9.99112
▁culturel	-9.99119
▁similar	-9.99156
▁pourtant	-9.99205
▁heart	-9.9921
pp	-9.99232
▁fondamental	-9.99251
▁rapide	-9.99295
▁provisions	-9.9936
▁goes	-9.99373
▁members	-9.99403
▁dépenses	-9.99548
▁recommandations	-9.99549
R	-9.99551
▁valeur	-9.99591
▁agreed	-9.99604
intention	-9.99628
autorité	-9.99629
intérêt	-9.99633
▁80	-9.99693
▁liste	-9.99706
▁Culture	-9.99737
▁rate	-9.99746
▁body	-9.99807
▁centre	-9.99875
▁disasters	-9.99927
▁ét	-10.0003
pro	-10.0005
aurai	-10.0013
▁jouer	-10.0017
▁impression	-10.0017
▁socialistes	-10.0022
▁Députés	-10.0048
▁mondial	-10.0049
▁spécifiques	-10.0068
▁esprit	-10.0079
▁pouvoirs	-10.0098
▁centres	-10.0098
▁Da	-10.0102
▁jours	-10.0114
ition	-10.0116
▁fixé	-10.0145
approuve	-10.0152
▁maintain	-10.0163
▁levels	-10.0165
▁accepter	-10.0166
▁défend	-10.0168
▁Koch	-10.0185
▁Rights	-10.0185
▁circumstances	-10.0185
▁déclaré	-10.0185
▁huge	-10.0185
▁statut	-10.0185
▁succeed	-10.0185
▁billion	-10.0185
▁initial	-10.0185
▁Merci	-10.0185
▁connu	-10.0185
▁parliamentary	-10.0186
▁ensuring	-10.0188
▁FP	-10.0189
▁useful	-10.019
▁prie	-10.019
ities	-10.0193
▁conclure	-10.0199
▁option	-10.0202
side	-10.0203
▁signal	-10.023
▁sea	-10.0235
▁affairs	-10.0241
▁caused	-10.0258
emp	-10.026
▁mandat	-10.0269
▁garantie	-10.0278
▁disposition	-10.0284
évolution	-10.0285
▁2,	-10.03
▁interne	-10.0304
to	-10.0305
he	-10.0316
▁test	-10.0322
ied	-10.0334
/2000)	-10.0335
▁apporter	-10.0414
▁tri	-10.0442
▁économie	-10.045
▁agricultur	-10.0458
▁dég	-10.0466
▁fais	-10.0488
▁amend	-10.0488
▁répond	-10.0491
▁sufficient	-10.0491
▁entire	-10.0492
▁Commissioners	-10.0496
▁threat	-10.05
▁Certain	-10.0508
▁Turquie	-10.0508
▁appear	-10.0508
▁comprehensive	-10.0508
▁compétitivité	-10.0508
▁condemn	-10.0508
▁conflit	-10.0508
▁consensus	-10.0508
▁obstacles	-10.0508
▁reflect	-10.0508
▁refugees	-10.0508
▁travers	-10.0508
▁évidemment	-10.0508
▁claim	-10.0508
▁reçu	-10.0508
▁permit	-10.0508
▁flexibility	-10.0508
▁devenir	-10.0508
▁remember	-10.0508
▁réduction	-10.0508
▁Rule	-10.0508
▁staff	-10.0508
▁competitiveness	-10.0508
▁mentionné	-10.0508
▁stabilité	-10.0508
▁criticism	-10.0509
▁élections	-10.0509
▁énorme	-10.0509
▁stability	-10.0509
▁hier	-10.0511
▁produits	-10.0515
▁obviously	-10.0519
▁drawn	-10.0522
▁conduite	-10.0526
▁establishment	-10.0532
▁effectué	-10.0534
▁concentrate	-10.0538
▁relate	-10.0543
▁réunion	-10.0549
je	-10.0569
▁pure	-10.0576
▁closed	-10.0576
▁aider	-10.0578
▁consequences	-10.058
ial	-10.0585
▁refus	-10.0592
▁Helsinki	-10.0593
ga	-10.06
esprit	-10.0618
opinion	-10.062
▁participer	-10.0621
alt	-10.0643
▁industries	-10.0649
▁situations	-10.0655
▁heures	-10.0657
▁établir	-10.0659
▁faite	-10.0665
▁enter	-10.0682
▁Hav	-10.07
▁obligation	-10.0715
▁adoption	-10.0722
▁emphasise	-10.0727
▁supported	-10.0732
▁days	-10.0736
▁events	-10.0764
▁passe	-10.0765
▁discuss	-10.0773
▁complex	-10.0779
▁modifications	-10.0787
▁build	-10.08
bi	-10.0811
T	-10.0813
▁join	-10.0814
▁function	-10.082
▁seek	-10.0821
ble	-10.0825
▁Rapport	-10.0831
▁train	-10.0835
ellement	-10.0839
▁ultrapériphéri	-10.0841
▁Berger	-10.0841
▁British	-10.0841
▁Premièrement	-10.0841
▁beyond	-10.0841
▁conduct	-10.0841
▁conscient	-10.0841
▁considère	-10.0841
▁déclare	-10.0841
▁maximum	-10.0841
▁pavillon	-10.0841
▁probably	-10.0841
▁recours	-10.0841
▁safeguard	-10.0841
▁annual	-10.0841
▁knowledge	-10.0841
▁scandal	-10.0841
histoire	-10.0841
▁anything	-10.0841
▁external	-10.0841
▁fellow	-10.0841
▁lecture	-10.0841
▁ressortissant	-10.0841
▁gros	-10.0841
▁demeure	-10.0842
▁defend	-10.0843
Orient	-10.0843
▁flag	-10.0843
▁traitement	-10.0844
▁Deuxièmement	-10.0844
▁directement	-10.0845
▁relatif	-10.0845
▁elections	-10.0845
▁permettez	-10.0849
▁faisons	-10.0852
▁Isra	-10.0853
ood	-10.0855
ncy	-10.0856
▁ports	-10.0868
stitutional	-10.0871
▁properly	-10.0874
▁victims	-10.0876
▁ref	-10.0877
▁setting	-10.0882
▁discussing	-10.0883
▁parlé	-10.0885
démocrates	-10.0893
▁comptes	-10.0895
▁Ma	-10.0902
▁subjects	-10.0903
▁accepted	-10.091
▁réelle	-10.0923
▁constituer	-10.0928
▁inquiétudes	-10.0947
form	-10.0953
▁emphasis	-10.0957
Erika	-10.0964
▁exprimer	-10.0969
▁conséquence	-10.0971
▁zone	-10.0973
était	-10.0974
▁petit	-10.0975
▁fourni	-10.0979
▁looking	-10.0998
▁grounds	-10.1003
▁reprises	-10.1008
▁offre	-10.101
▁déc	-10.101
aires	-10.1017
▁examen	-10.1022
ire	-10.1023
▁accompli	-10.1035
ume	-10.1042
▁accident	-10.1055
▁dispose	-10.1072
▁assure	-10.1082
emplois	-10.1083
▁Que	-10.1113
▁press	-10.1123
▁union	-10.1127
▁prévu	-10.1129
for	-10.1138
▁chances	-10.1138
▁rester	-10.1138
▁prepar	-10.1141
▁involve	-10.1143
vert	-10.1145
▁thinking	-10.1145
▁régional	-10.1147
▁demonstrate	-10.1158
▁sait	-10.1181
▁cover	-10.1185
▁Budget	-10.1186
▁People	-10.1186
▁Schengen	-10.1186
▁ambitious	-10.1186
▁conflict	-10.1186
▁danois	-10.1186
▁discours	-10.1186
▁permanent	-10.1186
▁prévoit	-10.1186
▁supervision	-10.1186
▁target	-10.1186
époque	-10.1186
▁violation	-10.1186
▁tonnes	-10.1186
▁1994	-10.1186
▁Since	-10.1186
▁thus	-10.1186
▁eligible	-10.1186
iddle	-10.1187
▁submitted	-10.1187
▁historique	-10.1188
▁entièrement	-10.119
▁yeux	-10.1194
▁souligné	-10.1195
▁reasonable	-10.1197
▁cities	-10.1197
▁totalement	-10.1197
DE	-10.1204
▁discussed	-10.1208
▁souhait	-10.1217
▁finally	-10.1227
▁Comment	-10.1229
▁satisfaction	-10.123
▁steps	-10.1232
▁cut	-10.1233
▁efficient	-10.1238
▁effectively	-10.1239
▁complexe	-10.125
▁enable	-10.1266
▁scale	-10.1268
ose	-10.1273
ever	-10.1276
ton	-10.1276
vient	-10.1285
▁island	-10.1296
▁négociation	-10.1317
▁spécifique	-10.1318
OLAF	-10.1321
▁fondamentales	-10.1345
agir	-10.1357
etary	-10.1362
▁accès	-10.1366
employed	-10.1381
▁parlementaires	-10.1395
▁agir	-10.1409
▁penser	-10.1417
▁hear	-10.1435
▁positions	-10.1458
▁contributions	-10.1488
▁40	-10.1501
▁Ministers	-10.1502
▁approve	-10.1517
exprim	-10.1518
▁restrict	-10.1519
▁19	-10.1522
▁exact	-10.1525
▁limiter	-10.1527
▁former	-10.1528
▁rapports	-10.1532
intégr	-10.1535
▁mi	-10.1538
oyen	-10.154
▁person	-10.1541
▁fulfil	-10.1543
General	-10.1543
▁According	-10.1543
▁adequate	-10.1543
▁choix	-10.1543
▁commercial	-10.1543
▁ecological	-10.1543
▁improving	-10.1543
▁parfois	-10.1543
▁presidency	-10.1543
▁siècle	-10.1543
▁wrong	-10.1543
▁défense	-10.1543
▁procès	-10.1543
▁logique	-10.1543
accent	-10.1543
▁approval	-10.1543
▁avaient	-10.1543
▁committed	-10.1543
▁assistants	-10.1543
▁législative	-10.1543
▁excessive	-10.1543
volving	-10.1544
▁confront	-10.1544
▁elected	-10.1548
▁défendre	-10.1562
▁engagé	-10.1563
▁milliards	-10.1564
▁modifier	-10.1565
▁définir	-10.1571
▁etc	-10.1572
▁conception	-10.1578
▁systems	-10.158
▁learn	-10.1589
way	-10.1595
vais	-10.1605
avions	-10.1606
▁défini	-10.1664
▁engagements	-10.1683
▁man	-10.1684
▁compétence	-10.1686
▁coût	-10.1687
adoption	-10.169
iser	-10.1692
Parliament	-10.1694
▁graves	-10.1715
ical	-10.1722
▁délais	-10.1734
▁Socialists	-10.1734
▁invite	-10.1746
▁évaluation	-10.1746
EC	-10.1785
▁évolution	-10.1797
hors	-10.1799
rie	-10.1852
▁thanks	-10.1853
▁cesse	-10.1858
tement	-10.1861
occup	-10.1867
▁suggest	-10.1886
▁conclude	-10.1888
▁read	-10.1895
▁Ainsi	-10.1913
▁Although	-10.1913
▁Denmark	-10.1913
▁activity	-10.1913
▁calendrier	-10.1913
▁conscience	-10.1913
▁contrary	-10.1913
▁convergence	-10.1913
▁implications	-10.1913
▁operators	-10.1913
▁réduire	-10.1913
▁sidérurgie	-10.1913
▁terrain	-10.1913
▁volume	-10.1913
▁Prosecutor	-10.1913
▁Roya	-10.1913
▁pauvres	-10.1913
▁price	-10.1913
▁Berend	-10.1913
▁raisonnable	-10.1913
▁retire	-10.1913
▁paper	-10.1913
▁pollution	-10.1914
▁définition	-10.1915
▁return	-10.1915
▁sérieux	-10.1915
▁81	-10.1916
tour	-10.1917
▁acteurs	-10.1917
▁equality	-10.1917
▁mêmes	-10.1919
▁carefully	-10.192
▁immediately	-10.1922
▁milieu	-10.1926
▁occasions	-10.1932
▁appliquée	-10.1933
ster	-10.1935
▁covered	-10.1937
▁receive	-10.1941
▁demandons	-10.1942
▁mauvaise	-10.1942
▁scoreboard	-10.1943
▁savez	-10.1948
▁présentation	-10.195
▁waste	-10.1952
▁reading	-10.1955
▁addressed	-10.1959
▁Ceci	-10.1963
▁promot	-10.1971
issant	-10.1983
▁recommendations	-10.1997
▁Israeli	-10.2
wing	-10.2004
ator	-10.201
▁reli	-10.2015
directly	-10.2015
▁rich	-10.2018
▁fund	-10.203
▁indépendants	-10.2036
▁populations	-10.2044
▁déclarations	-10.2053
argent	-10.2067
▁état	-10.2068
▁parlementaire	-10.207
▁colleague	-10.2071
The	-10.2079
value	-10.208
▁ships	-10.2094
▁utiliser	-10.2099
▁relatives	-10.2106
ienne	-10.2108
log	-10.2144
▁argument	-10.2145
▁adopter	-10.2146
▁obligations	-10.2174
▁plant	-10.2177
alité	-10.2204
▁regrette	-10.2206
▁humaine	-10.2208
▁publics	-10.2212
Est	-10.2212
▁facteur	-10.2213
itaire	-10.2237
Uni	-10.2237
▁globale	-10.2242
mp	-10.2257
▁respecter	-10.226
aut	-10.2261
▁harmoni	-10.2262
▁decide	-10.2271
mais	-10.2272
▁changements	-10.2272
bre	-10.2276
▁promis	-10.2277
▁conclu	-10.2277
▁appliqué	-10.2277
▁natural	-10.2282
harm	-10.2288
▁Lange	-10.2288
▁personal	-10.2291
ermettez	-10.2294
interdiction	-10.2298
transfrontalière	-10.2298
▁1995	-10.2298
▁Decourrière	-10.2298
▁February	-10.2298
▁Furthermore	-10.2298
▁Kouchner	-10.2298
▁Seattle	-10.2298
▁Tourism	-10.2298
▁acknowledge	-10.2298
▁arrangements	-10.2298
▁burden	-10.2298
▁chaîne	-10.2298
▁delegation	-10.2298
▁délégation	-10.2298
▁février	-10.2298
▁happy	-10.2298
▁instead	-10.2298
▁populaire	-10.2298
▁status	-10.2298
▁territory	-10.2298
▁veulent	-10.2298
▁voix	-10.2298
▁wonder	-10.2298
▁évoqué	-10.2298
▁obtain	-10.2298
▁proportion	-10.2298
▁section	-10.2298
▁flexibilité	-10.2298
▁await	-10.2298
▁conseil	-10.2298
▁chef	-10.2299
▁constructive	-10.2299
▁réseaux	-10.2299
▁farmers	-10.2299
▁prévention	-10.2299
▁beginning	-10.2299
▁manner	-10.2299
▁governance	-10.23
▁earlier	-10.2301
▁renforcement	-10.2303
▁italien	-10.231
early	-10.231
▁young	-10.2317
▁vois	-10.2318
▁discipline	-10.232
▁introduce	-10.232
▁crédits	-10.2321
ork	-10.2323
▁tourn	-10.2327
▁sound	-10.2328
▁gain	-10.2329
▁govern	-10.233
house	-10.2331
▁detailed	-10.2333
▁courts	-10.2334
▁storms	-10.2357
▁exemption	-10.2359
▁données	-10.2366
▁mod	-10.2371
▁largement	-10.2392
time	-10.2416
▁rightly	-10.2417
▁proposing	-10.2429
▁français	-10.243
▁unies	-10.2449
avez	-10.2458
▁détail	-10.247
▁Député	-10.247
▁peuple	-10.2471
vel	-10.2472
▁voiture	-10.2472
évaluation	-10.2475
▁stratégiques	-10.2486
▁prior	-10.249
▁utilis	-10.2521
▁peuples	-10.2523
▁aims	-10.2527
iez	-10.2543
▁intégrée	-10.2544
▁civile	-10.255
▁accidents	-10.256
uch	-10.2571
▁sûre	-10.2579
▁risks	-10.2599
▁inclu	-10.2603
▁considéré	-10.2626
▁nationale	-10.2628
related	-10.2631
▁allons	-10.2653
▁16	-10.2656
▁efficacité	-10.2664
▁semaines	-10.2671
▁faites	-10.2672
▁diminu	-10.2673
▁accepté	-10.2673
lier	-10.2675
▁sub	-10.2676
▁German	-10.268
▁dépend	-10.2696
▁résolu	-10.2697
explo	-10.2698
octroi	-10.2698
▁Costa	-10.2698
▁Economic	-10.2698
▁January	-10.2698
▁McCarthy	-10.2698
▁Palestinian	-10.2698
▁Unfortunately	-10.2698
▁appropriation	-10.2698
▁constitute	-10.2698
▁disparities	-10.2698
▁enormous	-10.2698
▁janvier	-10.2698
▁morning	-10.2698
▁outcome	-10.2698
▁potentiel	-10.2698
▁poverty	-10.2698
▁study	-10.2698
▁withdraw	-10.2698
▁critical	-10.2698
▁souveraineté	-10.2698
▁préalable	-10.2698
▁coast	-10.2698
▁certificat	-10.2698
▁moral	-10.2698
▁wealth	-10.2699
▁procureur	-10.2699
▁classification	-10.2699
▁Italy	-10.2699
▁paid	-10.2699
▁investissements	-10.2699
▁visible	-10.2699
▁sincèrement	-10.2701
▁criminalité	-10.2704
▁rise	-10.2707
▁historic	-10.2707
▁néanmoins	-10.2711
▁constitution	-10.2714
▁apporté	-10.2714
▁soutenu	-10.2715
▁prétend	-10.2723
centralised	-10.2725
▁opposed	-10.2726
▁vite	-10.2729
▁introduced	-10.2743
viens	-10.2744
▁half	-10.2752
▁save	-10.2753
▁fair	-10.2755
▁payer	-10.2758
▁employees	-10.276
▁labour	-10.2763
day	-10.2767
▁haut	-10.2768
▁droite	-10.2773
▁existent	-10.2777
▁speaking	-10.2784
▁assumer	-10.2785
ick	-10.2788
▁publiques	-10.2793
▁intentions	-10.2793
▁building	-10.2802
ify	-10.2807
▁attribu	-10.2808
▁send	-10.2821
▁insister	-10.283
▁transparent	-10.2838
▁St	-10.2842
▁extension	-10.2842
▁échanges	-10.2846
port	-10.2856
▁bad	-10.2869
▁Qu	-10.287
▁materials	-10.2873
▁mé	-10.2875
▁ligne	-10.2888
▁existence	-10.2889
amélioration	-10.289
examen	-10.2891
engagement	-10.2895
▁provid	-10.2897
▁appliquer	-10.2908
▁realise	-10.2939
envers	-10.2942
▁joue	-10.2973
▁française	-10.2973
▁infrastructure	-10.2979
▁aborder	-10.2981
améliorer	-10.2983
▁exprimée	-10.2991
▁cent	-10.2997
aving	-10.3001
▁requires	-10.304
fter	-10.3041
▁facilit	-10.3045
▁proposée	-10.3066
▁transfer	-10.3091
▁montrer	-10.3093
▁count	-10.3094
▁complète	-10.3099
▁principal	-10.3112
unanimité	-10.3115
▁December	-10.3115
▁Rapkay	-10.3115
▁across	-10.3115
▁capacity	-10.3115
▁décembre	-10.3115
▁intéressant	-10.3115
▁reconnu	-10.3115
▁relève	-10.3115
▁réduit	-10.3115
▁êtes	-10.3115
▁applies	-10.3115
▁genuine	-10.3115
▁history	-10.3115
▁personnellement	-10.3115
▁pilot	-10.3115
▁servir	-10.3115
rrière	-10.3115
▁sovereignty	-10.3115
▁around	-10.3115
▁collective	-10.3116
▁reduction	-10.3117
▁combien	-10.3117
▁allocated	-10.3119
▁Ex	-10.3119
ound	-10.3119
▁organisé	-10.312
ably	-10.312
▁21	-10.312
▁finalement	-10.3121
▁certainty	-10.3121
▁considér	-10.3123
▁laid	-10.3125
▁loi	-10.3131
▁Germany	-10.3134
▁augmenter	-10.3134
▁attendons	-10.3137
▁additional	-10.3137
▁deep	-10.314
talian	-10.3145
▁weeks	-10.3146
▁concentrer	-10.3148
▁pression	-10.3149
▁attendre	-10.3151
▁totally	-10.3152
▁importe	-10.3156
▁Agenda	-10.3168
▁partenaires	-10.3169
▁longue	-10.317
▁consistent	-10.3176
▁enterprises	-10.3179
▁obteni	-10.3197
▁adapt	-10.3203
▁majeure	-10.3208
▁duty	-10.321
▁later	-10.3211
▁innovation	-10.3214
▁contrôler	-10.3215
▁destinée	-10.3226
▁fonctionne	-10.3229
▁parliaments	-10.3229
idé	-10.3233
io	-10.324
▁developed	-10.3244
▁rencontre	-10.3247
arme	-10.325
▁statements	-10.3254
▁adéquate	-10.3275
▁dealing	-10.3295
▁minutes	-10.3299
▁utilisé	-10.3299
▁adoptée	-10.3315
▁délai	-10.3321
▁representative	-10.3324
▁Socialist	-10.3325
accès	-10.3326
éviter	-10.3327
égard	-10.3329
CE	-10.333
point	-10.3331
espérons	-10.3337
oire	-10.3352
attend	-10.3352
▁acte	-10.3356
▁asking	-10.3367
▁tru	-10.3382
naire	-10.3382
▁pénale	-10.3398
appar	-10.3412
Bas	-10.3419
▁affaire	-10.3435
▁destiné	-10.3435
▁marque	-10.344
▁ideas	-10.3452
▁bénéficier	-10.3456
▁juridiques	-10.3468
▁examin	-10.3475
▁urbain	-10.348
/1999	-10.3482
▁proposer	-10.3494
▁lien	-10.3497
▁reject	-10.3512
▁compren	-10.3513
▁socio	-10.3518
▁charte	-10.352
oubli	-10.3546
▁proceed	-10.3549
▁Syrie	-10.3549
▁head	-10.3549
responsibilities	-10.3549
▁Chamber	-10.3549
▁Why	-10.3549
▁ambitieux	-10.3549
▁cohérence	-10.3549
▁convaincu	-10.3549
▁côte	-10.3549
▁internationaux	-10.3549
▁légitime	-10.3549
▁matériaux	-10.3549
▁neighbour	-10.3549
▁nonetheless	-10.3549
▁plenary	-10.3549
▁retrouv	-10.3549
▁récemment	-10.3549
▁suffit	-10.3549
▁vessels	-10.3549
▁Danemark	-10.3549
▁floor	-10.3549
▁otherwise	-10.3549
▁professionnelle	-10.3549
▁weapons	-10.355
▁frais	-10.355
▁degree	-10.355
▁matin	-10.355
▁monopolies	-10.355
▁More	-10.355
▁foreign	-10.355
▁mort	-10.355
▁Directive	-10.3551
▁mainteni	-10.3552
▁désor	-10.3553
▁réaliser	-10.356
signed	-10.3561
▁réaction	-10.3562
tient	-10.3564
▁pied	-10.3565
position	-10.3572
▁commitments	-10.3572
▁shown	-10.3579
▁auxquel	-10.3581
▁prévue	-10.3621
▁organes	-10.3638
▁Qui	-10.3661
▁limite	-10.3679
vait	-10.3684
▁consult	-10.3688
▁pénal	-10.3704
▁voire	-10.3739
éni	-10.3744
led	-10.3752
▁énergie	-10.3756
▁manage	-10.3757
▁démocratiques	-10.3757
▁achiev	-10.3761
▁remarques	-10.3763
▁element	-10.3775
▁source	-10.3778
▁comprend	-10.378
▁suivant	-10.3782
extrême	-10.3783
▁agiss	-10.3786
orientation	-10.3789
▁amélioration	-10.3789
▁exécut	-10.379
▁sent	-10.38
appliquer	-10.3801
usage	-10.3802
▁argent	-10.381
▁ignore	-10.3827
▁explicite	-10.3857
▁avancée	-10.3867
▁constate	-10.388
▁engage	-10.3888
insta	-10.3894
▁précise	-10.3899
▁consumers	-10.3911
engager	-10.3931
▁Ar	-10.3935
chez	-10.3935
▁opportun	-10.3937
entreprises	-10.3941
▁puisqu	-10.3958
▁commissaires	-10.3961
▁intends	-10.3968
▁citer	-10.3973
▁challenges	-10.3975
ène	-10.3979
▁assess	-10.399
▁profession	-10.3991
▁Syria	-10.3994
arrêt	-10.3994
individu	-10.4001
▁municipal	-10.4004
▁revêt	-10.4004
Allemagne	-10.4004
aménagement	-10.4004
▁Control	-10.4004
▁September	-10.4004
▁Vitorino	-10.4004
▁consacré	-10.4004
▁disponible	-10.4004
▁economies	-10.4004
▁exercise	-10.4004
▁guerre	-10.4004
▁méthode	-10.4004
▁participate	-10.4004
▁plénière	-10.4004
▁programming	-10.4004
▁propriétaire	-10.4004
▁recognition	-10.4004
▁respond	-10.4004
▁septembre	-10.4004
▁sympathy	-10.4004
▁sérieusement	-10.4004
▁tanker	-10.4004
▁xenophobia	-10.4004
▁éligibles	-10.4004
interprét	-10.4004
▁Golan	-10.4004
▁sentiment	-10.4004
ajout	-10.4004
▁confusion	-10.4004
▁souhaiterais	-10.4004
▁sometimes	-10.4004
Applaudissements	-10.4004
▁big	-10.4004
▁else	-10.4005
▁2006	-10.4005
▁orateurs	-10.4005
▁Today	-10.4005
▁dangereux	-10.4005
▁durée	-10.4006
verbal	-10.4007
▁soutenons	-10.4007
▁secure	-10.4008
▁idées	-10.4008
▁manifestation	-10.4009
▁juge	-10.401
▁fondement	-10.4011
▁avancer	-10.4013
▁examination	-10.4013
▁niveaux	-10.4015
▁Charter	-10.4015
▁considerably	-10.4018
▁involvement	-10.4024
▁Now	-10.4025
▁Sch	-10.4025
▁soumettr	-10.4025
▁aspiration	-10.4029
▁pren	-10.4036
▁permettra	-10.4047
▁reaction	-10.405
ssel	-10.4053
▁proche	-10.4058
▁run	-10.406
▁stipulate	-10.4069
opportunité	-10.4069
▁gender	-10.4073
▁improved	-10.4076
▁presse	-10.4081
▁presqu	-10.4089
▁Van	-10.4089
▁fer	-10.4093
▁libéral	-10.4109
istes	-10.4119
▁puissi	-10.4134
▁arrive	-10.4139
▁voy	-10.4144
▁Only	-10.4155
▁prêts	-10.4159
▁systèmes	-10.4181
▁guarantees	-10.4182
▁seuls	-10.4187
ept	-10.4198
▁terminer	-10.4206
▁remarque	-10.422
isée	-10.4223
▁urbaines	-10.4225
▁elements	-10.4239
▁renationalis	-10.425
▁scheme	-10.425
▁stratégique	-10.4252
▁ship	-10.4252
▁socialiste	-10.4253
▁ground	-10.4253
existence	-10.4255
absence	-10.4255
impression	-10.4257
either	-10.4264
▁infrastructures	-10.4265
organisation	-10.4266
▁reprise	-10.4273
▁controls	-10.4283
▁demands	-10.4285
▁ambition	-10.4287
▁légal	-10.4295
après	-10.43
▁formes	-10.4305
▁voul	-10.4326
▁uniform	-10.4331
▁26	-10.4332
▁internes	-10.4339
▁économies	-10.4351
▁contains	-10.436
▁perspectives	-10.4383
▁reduc	-10.4384
▁concentr	-10.4386
ach	-10.4395
venons	-10.4401
▁forget	-10.4408
▁critiques	-10.442
▁établis	-10.4421
vez	-10.444
ward	-10.4441
agissa	-10.4442
▁formal	-10.4445
▁manufactur	-10.4459
▁favoris	-10.446
augmente	-10.4463
▁obvious	-10.4464
ohesion	-10.447
onciliation	-10.447
▁name	-10.4474
▁annuel	-10.4476
ribunal	-10.4477
encontre	-10.4478
nternal	-10.4479
▁ressort	-10.448
▁controvers	-10.448
▁fédér	-10.448
Applause	-10.448
Organisation	-10.448
accueil	-10.448
onsequently	-10.448
▁Freedom	-10.448
▁Minutes	-10.448
▁PME	-10.448
▁Stenzel	-10.448
▁advice	-10.448
▁campagne	-10.448
▁clarté	-10.448
▁codecision	-10.448
▁codécision	-10.448
▁crédibilité	-10.448
▁deadline	-10.448
▁enceinte	-10.448
▁heritage	-10.448
▁introduit	-10.448
▁mistake	-10.448
▁moindre	-10.448
▁obtenu	-10.448
▁pauvreté	-10.448
▁publié	-10.448
▁relationship	-10.448
▁transfrontalier	-10.448
▁écrit	-10.448
annonce	-10.448
▁century	-10.448
▁dollar	-10.448
▁Instance	-10.448
▁relever	-10.448
▁devenu	-10.448
▁Code	-10.448
▁suivre	-10.448
▁entail	-10.448
▁découl	-10.448
▁répartition	-10.448
▁prioritaire	-10.4481
vocation	-10.4481
▁spent	-10.4481
▁2002	-10.4481
▁endorse	-10.4481
VP	-10.4482
▁loss	-10.4482
▁lettre	-10.4483
▁approuver	-10.4483
▁transition	-10.4483
ancienne	-10.4483
▁différences	-10.4484
▁désire	-10.4484
▁effectiveness	-10.4484
▁explanation	-10.4484
▁committees	-10.4484
▁35	-10.4484
▁24	-10.4485
▁Thirdly	-10.4485
▁mainstreaming	-10.4487
▁leave	-10.4488
▁contribué	-10.4488
▁circonstances	-10.4498
▁diverses	-10.4499
▁partout	-10.4502
▁exactly	-10.4502
▁permettent	-10.4506
▁competitive	-10.4507
▁ahead	-10.4508
▁amended	-10.4513
▁opération	-10.4513
▁signaler	-10.4513
▁poser	-10.4518
▁demonstrated	-10.4519
▁évoque	-10.4519
▁besoins	-10.4523
▁managed	-10.4524
équilibre	-10.4526
▁sensitive	-10.453
▁Quelle	-10.4537
▁requested	-10.4545
▁paie	-10.455
▁acquis	-10.4554
▁intérieures	-10.4561
▁intégration	-10.4574
▁refuse	-10.4584
▁Internet	-10.4586
▁sole	-10.4596
▁bu	-10.4605
▁profonde	-10.4614
▁laisser	-10.4617
▁excuse	-10.4633
▁essentiels	-10.4653
▁soir	-10.4657
▁U	-10.4662
▁immigration	-10.4665
▁fiscale	-10.467
▁introduction	-10.4689
teen	-10.47
▁réserve	-10.4707
▁absence	-10.471
▁side	-10.4733
▁chargé	-10.4748
▁connaît	-10.4748
▁supplémentaire	-10.4749
▁revenu	-10.4754
augmentation	-10.4754
mêmes	-10.4756
exclusion	-10.4758
experts	-10.4759
Assemblée	-10.4759
▁mots	-10.4766
▁stricte	-10.4776
▁goal	-10.4796
connaissance	-10.4806
▁100	-10.4836
▁considérable	-10.4862
▁souligne	-10.489
▁futur	-10.4894
▁génér	-10.4898
▁37	-10.4917
▁défis	-10.4924
automobiles	-10.4929
ignor	-10.4936
ubject	-10.4949
▁tackle	-10.4954
▁deliver	-10.4958
▁divers	-10.4963
éanmoins	-10.4964
▁resolve	-10.4966
entral	-10.4972
▁indicate	-10.4977
nternational	-10.4979
liberal	-10.498
élabore	-10.498
▁Altener	-10.498
▁Greece	-10.498
▁Kingdom	-10.498
▁Market	-10.498
▁Objet	-10.498
▁Pourquoi	-10.498
▁SAVE	-10.498
▁advance	-10.498
▁alternative	-10.498
▁bateaux	-10.498
▁collectivité	-10.498
▁contraignant	-10.498
▁déchets	-10.498
▁evaluation	-10.498
▁financing	-10.498
▁financé	-10.498
▁insuffisant	-10.498
▁investigation	-10.498
▁monnaie	-10.498
▁nevertheless	-10.498
▁overcome	-10.498
▁présence	-10.498
▁pétrolier	-10.498
▁regular	-10.498
▁régle	-10.498
▁spéculation	-10.498
▁stimul	-10.498
▁xénophobie	-10.498
▁donateurs	-10.498
▁stade	-10.498
▁Brok	-10.498
▁créé	-10.498
▁record	-10.498
▁revision	-10.498
▁weaken	-10.498
▁comply	-10.498
▁Donc	-10.498
▁formulée	-10.498
▁clause	-10.498
▁facing	-10.498
▁alone	-10.498
▁Even	-10.4981
▁CEN	-10.4981
▁Barak	-10.4981
▁défavorisées	-10.4981
▁urgency	-10.4981
▁pressure	-10.4981
▁racist	-10.4981
▁fasse	-10.4982
▁deserve	-10.4982
▁differences	-10.4982
▁communities	-10.4982
▁countryside	-10.4983
▁consolidation	-10.4984
▁22	-10.4987
▁perfectly	-10.4991
effectuer	-10.4992
▁reconnaître	-10.4996
▁personally	-10.5002
▁cap	-10.5003
▁Mos	-10.5004
▁visit	-10.5005
▁growing	-10.5005
riez	-10.5006
▁May	-10.501
▁confi	-10.5011
rought	-10.5013
▁portant	-10.5016
▁concernées	-10.5016
▁concrete	-10.5016
▁taxes	-10.5017
▁follows	-10.5021
▁évidence	-10.5021
exception	-10.5026
▁territoires	-10.5031
▁attire	-10.5034
tended	-10.504
▁vision	-10.5043
▁functioning	-10.5043
ploy	-10.5044
▁recognised	-10.5045
▁highly	-10.5048
lor	-10.505
voy	-10.505
▁passed	-10.5072
▁oral	-10.509
▁minorités	-10.5106
▁constaté	-10.5121
(1999)	-10.5123
ual	-10.5124
▁audit	-10.5143
disciplin	-10.5151
▁mené	-10.5151
origine	-10.516
▁maritimes	-10.5161
▁sociétés	-10.5161
cal	-10.5166
▁Democrats	-10.5167
▁appropriée	-10.5169
▁mars	-10.5175
aimerai	-10.5181
▁known	-10.5187
▁Non	-10.5193
▁substances	-10.5203
▁thèmes	-10.5203
▁présidents	-10.5208
▁priori	-10.5238
▁talks	-10.5269
▁élu	-10.5275
▁substance	-10.5277
▁thème	-10.5277
▁minute	-10.5277
▁material	-10.5279
U	-10.5281
introduction	-10.5282
administration	-10.5285
examiner	-10.5288
▁usage	-10.5302
▁urbaine	-10.5338
aff	-10.5362
▁porter	-10.5373
esse	-10.5387
▁mode	-10.5388
▁articles	-10.54
▁placed	-10.5402
ppl	-10.5409
▁locale	-10.541
▁heure	-10.5412
▁encourager	-10.5414
▁wors	-10.5427
▁introduc	-10.5433
▁situ	-10.5457
▁negotiat	-10.5461
atory	-10.5464
ira	-10.5471
▁engagée	-10.5477
▁facile	-10.5491
▁prove	-10.5494
▁extra	-10.5501
▁super	-10.5501
institutionnel	-10.5502
▁listen	-10.5503
undamental	-10.5505
▁renouvel	-10.5506
introduir	-10.5506
▁SMEs	-10.5506
▁Thursday	-10.5506
▁applicant	-10.5506
▁campaign	-10.5506
▁channel	-10.5506
▁construir	-10.5506
▁credibility	-10.5506
▁décennie	-10.5506
▁libéraux	-10.5506
▁mouvement	-10.5506
▁négative	-10.5506
▁scientists	-10.5506
▁supranational	-10.5506
▁suspend	-10.5506
▁technology	-10.5506
▁étrangère	-10.5506
approbation	-10.5506
▁Pays	-10.5506
▁lobby	-10.5506
▁method	-10.5506
▁operate	-10.5506
▁easy	-10.5506
▁tendance	-10.5507
▁apparaît	-10.5507
▁bomb	-10.5507
▁jeudi	-10.5507
▁outline	-10.5507
▁preserv	-10.5507
▁repose	-10.5507
▁détaillée	-10.5507
▁decade	-10.5507
▁south	-10.5507
▁planned	-10.5507
appui	-10.5507
▁bref	-10.5507
▁oublier	-10.5507
▁department	-10.5507
▁prosperity	-10.5508
▁failure	-10.5508
▁latter	-10.5508
▁heureux	-10.5508
Italie	-10.5508
▁marge	-10.5508
▁contient	-10.5509
▁corruption	-10.5509
▁attentes	-10.5509
NS	-10.5509
▁probablement	-10.551
▁combattre	-10.5511
▁letter	-10.5512
▁vive	-10.5515
▁préparation	-10.5515
▁autrichienne	-10.5516
▁March	-10.5516
▁richesse	-10.5517
▁reprendre	-10.5517
▁sages	-10.5519
▁threaten	-10.5519
▁judgement	-10.5519
▁Constitution	-10.552
▁range	-10.5521
▁validit	-10.5523
vec	-10.5526
▁organised	-10.5526
▁declared	-10.5527
▁touch	-10.5533
▁faciliter	-10.5536
▁necessarily	-10.5538
▁équilibré	-10.5538
mark	-10.5539
▁remarquer	-10.5541
▁entendre	-10.5541
▁indication	-10.5543
▁représentent	-10.5543
▁orientation	-10.5543
▁spending	-10.5544
▁prouve	-10.5547
▁Here	-10.555
▁immigrants	-10.5551
écart	-10.5553
▁conven	-10.5555
▁presentation	-10.5562
▁intervenir	-10.5562
▁produced	-10.5567
▁perte	-10.5569
▁entraîner	-10.5571
▁concernés	-10.5572
▁réfléchir	-10.5576
▁garde	-10.5578
▁generally	-10.5584
▁worse	-10.5589
▁près	-10.5594
▁rappelé	-10.5597
▁environmentally	-10.5612
▁perdu	-10.5619
▁commence	-10.5623
▁humain	-10.5632
▁legally	-10.5638
▁applying	-10.5646
ready	-10.5648
▁posé	-10.5652
▁By	-10.5665
▁interesting	-10.5665
▁technologies	-10.5665
east	-10.5666
▁parlements	-10.5678
▁networks	-10.5691
▁souhaité	-10.5703
▁...	-10.5706
▁préoccupations	-10.5716
▁associations	-10.5716
20	-10.5723
▁mai	-10.5724
▁empêcher	-10.5738
▁objection	-10.5742
▁Fro	-10.5758
▁schemes	-10.5768
imp	-10.5775
▁travaill	-10.5785
▁débatt	-10.5799
▁Com	-10.5802
staurer	-10.5803
▁CE	-10.5829
▁seconde	-10.5831
utiliser	-10.5839
agriculture	-10.584
état	-10.584
attention	-10.5842
économique	-10.5842
▁occuper	-10.5849
▁industrie	-10.585
▁identifi	-10.586
▁efficaces	-10.5864
▁inspection	-10.5876
▁innovati	-10.5881
European	-10.5889
expression	-10.5891
▁compar	-10.5901
arch	-10.5908
▁riches	-10.5913
election	-10.5913
the	-10.5929
▁haute	-10.594
▁Office	-10.5941
▁evening	-10.5966
imagin	-10.598
vienne	-10.5983
▁debat	-10.6001
centralisation	-10.6014
nder	-10.602
▁actual	-10.6023
▁cru	-10.6024
appréci	-10.6025
▁recycle	-10.6033
▁suffer	-10.604
▁entreprise	-10.6046
▁modifi	-10.6049
▁appr	-10.6051
rac	-10.6051
ompetition	-10.6052
excellen	-10.6058
▁submit	-10.606
▁US	-10.6061
▁délivr	-10.6062
definitely	-10.6062
▁Berlin	-10.6062
▁Fischler	-10.6062
▁Grèce	-10.6062
▁Procedure	-10.6062
▁Regulation	-10.6062
▁Strasbourg	-10.6062
▁Troisième	-10.6062
▁Wurtz	-10.6062
▁agriculteurs	-10.6062
▁anchov	-10.6062
▁appeal	-10.6062
▁bureaucracy	-10.6062
▁clarify	-10.6062
▁complaisance	-10.6062
▁component	-10.6062
▁concitoyens	-10.6062
▁destruction	-10.6062
▁distributed	-10.6062
▁distribution	-10.6062
▁easier	-10.6062
▁education	-10.6062
▁entrepreneur	-10.6062
▁espagnol	-10.6062
▁geographic	-10.6062
▁impôt	-10.6062
▁language	-10.6062
▁millénaire	-10.6062
▁répète	-10.6062
▁separate	-10.6062
▁subventions	-10.6062
▁thorough	-10.6062
▁témoign	-10.6062
▁Dutch	-10.6062
inscrit	-10.6062
▁CAP	-10.6062
▁définitive	-10.6062
▁afford	-10.6062
▁immédiatement	-10.6062
▁negative	-10.6062
▁préserv	-10.6062
autorisation	-10.6062
▁conseiller	-10.6062
▁income	-10.6062
▁excluded	-10.6062
▁donors	-10.6062
▁lancé	-10.6062
▁advisers	-10.6062
▁bureaucratique	-10.6062
▁estimons	-10.6062
▁neuf	-10.6062
▁determine	-10.6062
▁seven	-10.6063
▁parfaitement	-10.6063
▁lost	-10.6063
5-000	-10.6063
▁contract	-10.6063
▁minority	-10.6064
▁fera	-10.6064
▁diversity	-10.6065
▁pouvait	-10.6065
▁expectations	-10.6065
▁satisfait	-10.6065
▁American	-10.6067
▁adopte	-10.6067
▁leçon	-10.6067
▁alloué	-10.6069
▁treatment	-10.6072
▁convinced	-10.6072
▁published	-10.6073
▁Sud	-10.6078
▁confine	-10.6079
▁jugement	-10.608
▁mentionne	-10.6082
ieux	-10.6083
▁lies	-10.6083
▁terrorist	-10.6083
▁favoriser	-10.6086
▁naturally	-10.6086
▁régionaux	-10.6086
ète	-10.6093
▁assur	-10.6094
▁tool	-10.6095
▁ethnic	-10.6095
▁speculation	-10.6095
▁auxquelles	-10.6097
▁candidate	-10.6098
▁professional	-10.6099
▁racisme	-10.6107
▁happened	-10.6109
▁tirer	-10.6109
midi	-10.611
▁imposer	-10.612
▁seraient	-10.6121
▁confirmer	-10.6127
▁Rapporteur	-10.6129
▁core	-10.6135
44	-10.6143
▁utilisation	-10.6157
étudier	-10.6168
▁harmonisation	-10.6174
▁instant	-10.6193
▁présentent	-10.6198
▁administratives	-10.6199
▁opening	-10.621
▁arrivé	-10.6214
▁lourd	-10.6228
▁tempêtes	-10.6244
▁événements	-10.6244
erous	-10.6248
▁feeling	-10.6249
euro	-10.6264
▁intégré	-10.6285
élargir	-10.6293
▁fondamentale	-10.6297
adaptation	-10.6299
▁Quan	-10.6306
▁affirm	-10.6317
▁issu	-10.6351
▁comprends	-10.6353
▁limité	-10.6398
▁break	-10.6416
▁check	-10.6419
▁limites	-10.642
▁préoccupation	-10.642
▁assume	-10.642
échange	-10.6423
▁official	-10.6423
Irlande	-10.6424
▁signed	-10.6426
immigration	-10.6426
analyse	-10.6427
▁constructeur	-10.6428
intérieur	-10.6431
▁design	-10.6431
assistance	-10.6432
▁supporter	-10.6438
▁envoy	-10.6451
▁prête	-10.6459
exprimer	-10.6464
▁modifié	-10.6471
▁association	-10.6495
▁mandate	-10.6497
▁conventions	-10.6504
▁San	-10.6514
prennent	-10.6518
▁envisager	-10.6519
▁disposé	-10.6522
▁limitée	-10.6525
▁Rom	-10.6577
▁développé	-10.6583
ième	-10.6585
▁monitor	-10.6587
▁ajouter	-10.6592
▁spend	-10.6609
applique	-10.6609
▁speculati	-10.6615
organis	-10.6628
▁brief	-10.6634
▁win	-10.6641
call	-10.6641
▁voudr	-10.6648
inancial	-10.6648
▁plein	-10.6648
▁symbol	-10.6649
discriminat	-10.665
▁corp	-10.665
Afrique	-10.665
honorable	-10.665
▁Africa	-10.665
▁Employment	-10.665
▁Initiative	-10.665
▁Liberal	-10.665
▁PHARE	-10.665
▁Perhaps	-10.665
▁annoncé	-10.665
▁announced	-10.665
▁calcul	-10.665
▁complement	-10.665
▁cycle	-10.665
▁division	-10.665
▁encouraging	-10.665
▁familiar	-10.665
▁grateful	-10.665
▁milliers	-10.665
▁pertinent	-10.665
▁prospérité	-10.665
▁register	-10.665
▁retain	-10.665
▁strategies	-10.665
▁sympathie	-10.665
▁taxpayer	-10.665
▁vérifie	-10.665
▁Bank	-10.665
▁PAC	-10.665
▁fruit	-10.665
▁mobilis	-10.665
▁répéter	-10.665
▁satisfaisant	-10.665
▁subsequent	-10.665
▁incombe	-10.665
▁pension	-10.665
▁built	-10.665
▁attack	-10.665
▁organisme	-10.665
▁hence	-10.665
Eurodac	-10.665
▁definition	-10.665
▁dix	-10.665
▁minorities	-10.6651
▁prévoir	-10.6651
▁bois	-10.6651
▁image	-10.6651
▁bureaucratie	-10.6651
▁vertu	-10.6651
▁pench	-10.6651
▁millennium	-10.6652
▁géographique	-10.6652
▁80%	-10.6653
▁producteurs	-10.6654
▁prononcer	-10.6655
▁supprimer	-10.6655
▁recovery	-10.6659
▁yourself	-10.6659
approv	-10.6661
FR	-10.6663
▁vice	-10.6665
▁briefly	-10.6667
▁please	-10.6668
her	-10.6668
▁defence	-10.667
▁énergétique	-10.6671
any	-10.6673
▁belong	-10.6674
came	-10.6678
▁mechanisms	-10.6686
▁sommet	-10.6687
▁resolved	-10.6692
▁closely	-10.6696
▁informed	-10.6698
▁mécanismes	-10.67
▁proposons	-10.6702
▁lines	-10.6706
▁climate	-10.6707
▁efficacement	-10.6718
auf	-10.6719
▁catégories	-10.6729
▁hasard	-10.6729
▁Serb	-10.673
▁coque	-10.6731
▁accrue	-10.6733
titu	-10.6734
entreprendr	-10.6749
▁shared	-10.6752
▁notice	-10.6755
▁sud	-10.6757
25	-10.6759
▁justifie	-10.6759
ominate	-10.6762
▁drawing	-10.6764
▁engagement	-10.6766
▁links	-10.6775
▁secondly	-10.6782
▁meaning	-10.6794
▁textes	-10.6796
▁contenter	-10.6799
▁nation	-10.6804
▁fu	-10.6805
▁résulte	-10.6816
▁parvenus	-10.6829
▁paying	-10.6837
▁fil	-10.684
▁rat	-10.6844
▁concrets	-10.6844
▁voulo	-10.685
▁abordé	-10.6859
▁understanding	-10.686
▁oppose	-10.6869
▁stocks	-10.6872
▁exposé	-10.6882
▁conf	-10.6882
▁multi	-10.6913
▁vaste	-10.6915
getting	-10.6918
▁augmentation	-10.6924
connaître	-10.6925
productive	-10.6927
▁chargée	-10.6932
▁sides	-10.6943
▁réserves	-10.6945
▁depend	-10.695
▁équilibre	-10.695
▁Ri	-10.6957
onna	-10.6967
shed	-10.6972
▁suffisante	-10.6974
5-00	-10.6983
▁poursuiv	-10.7019
▁regulate	-10.702
▁somme	-10.7024
oir	-10.7025
▁judge	-10.7028
▁mov	-10.703
accept	-10.7032
▁structurelle	-10.7044
▁stock	-10.7045
▁Democrat	-10.7045
▁ville	-10.7048
▁sustain	-10.705
▁citizen	-10.705
▁discut	-10.7051
extension	-10.7051
body	-10.7052
Interreg	-10.7055
country	-10.7055
▁scientifique	-10.7055
établir	-10.7057
▁transparente	-10.7058
pouvant	-10.7059
existe	-10.7059
assurance	-10.7065
▁month	-10.7084
▁garanties	-10.7091
▁speaker	-10.7113
▁issued	-10.7123
▁accordée	-10.7128
▁ouverte	-10.7145
avant	-10.7146
▁atteinte	-10.715
▁allemand	-10.715
▁root	-10.7152
▁complet	-10.718
▁racism	-10.7225
▁Bo	-10.723
▁réussi	-10.7235
▁mar	-10.7239
▁condamn	-10.7245
▁enforce	-10.726
▁Éta	-10.7264
▁prépar	-10.7265
▁undertake	-10.7265
avance	-10.727
▁réseau	-10.7274
orld	-10.7275
VIII	-10.7275
Behrendt	-10.7275
anchois	-10.7275
▁Agreement	-10.7275
▁Auditors	-10.7275
▁Because	-10.7275
▁Bolkestein	-10.7275
▁Development	-10.7275
▁Dublin	-10.7275
▁Européens	-10.7275
▁Evans	-10.7275
▁Experts	-10.7275
▁GDP	-10.7275
▁November	-10.7275
▁PIB	-10.7275
▁Poettering	-10.7275
▁Roth	-10.7275
▁Spanish	-10.7275
▁Swoboda	-10.7275
▁appreciate	-10.7275
▁boost	-10.7275
▁brièvement	-10.7275
▁clarity	-10.7275
▁constitué	-10.7275
▁dépasse	-10.7275
▁enquête	-10.7275
▁envisagé	-10.7275
▁families	-10.7275
▁generate	-10.7275
▁identify	-10.7275
▁incident	-10.7275
▁minister	-10.7275
▁novembre	-10.7275
▁package	-10.7275
▁possède	-10.7275
▁principaux	-10.7275
▁périodique	-10.7275
▁technologique	-10.7275
▁tribunaux	-10.7275
▁trouvons	-10.7275
▁undertaking	-10.7275
▁vigilant	-10.7275
ethnique	-10.7275
▁afternoon	-10.7275
▁board	-10.7275
▁mergers	-10.7275
▁revenir	-10.7275
▁tentative	-10.7275
▁énormément	-10.7275
▁Ahern	-10.7275
▁decisive	-10.7275
▁peine	-10.7275
▁relance	-10.7275
ampleur	-10.7275
▁average	-10.7275
▁carence	-10.7275
▁famille	-10.7275
▁enhance	-10.7275
▁venu	-10.7275
▁Moura	-10.7275
▁forestry	-10.7276
▁protest	-10.7276
▁Leinen	-10.7276
▁opposition	-10.7276
▁reply	-10.7276
▁certes	-10.7276
▁contribuables	-10.7276
▁interregional	-10.7276
▁partners	-10.7276
▁feed	-10.7276
▁Reding	-10.7276
accroîtr	-10.7277
▁series	-10.7277
▁existants	-10.7277
▁Quel	-10.7278
▁200	-10.7278
▁diversité	-10.7279
▁préven	-10.7279
▁terre	-10.7279
▁présentée	-10.728
▁29	-10.7281
▁examiné	-10.7281
▁45	-10.7281
▁sauv	-10.7282
▁exceptions	-10.7282
▁topical	-10.7282
▁qualified	-10.7283
▁inégalités	-10.7284
▁passage	-10.7284
▁undertaken	-10.7285
▁Vic	-10.7286
▁trust	-10.7286
▁produire	-10.7287
▁Lastly	-10.7287
▁échange	-10.7288
▁bénéficie	-10.7291
NG	-10.7293
▁souhaitons	-10.7294
▁industriel	-10.7296
▁incorporated	-10.73
▁fel	-10.7301
▁data	-10.7302
▁Roman	-10.7306
▁menées	-10.7308
▁proved	-10.7309
▁couple	-10.731
▁subi	-10.7311
▁débattre	-10.7312
▁terrible	-10.7315
▁Dala	-10.7318
▁renforcée	-10.7318
depth	-10.7318
▁spécial	-10.7318
▁sept	-10.7321
▁démission	-10.7323
▁montré	-10.7324
▁liées	-10.7327
▁formuler	-10.7333
appel	-10.7335
▁referr	-10.7337
▁stressed	-10.7352
▁uranium	-10.7357
▁manifesté	-10.7359
xième	-10.7363
▁justifiée	-10.7367
▁Tr	-10.7369
ombre	-10.737
▁happening	-10.7377
SE	-10.7382
▁safe	-10.739
▁discuté	-10.7391
▁disons	-10.7395
▁smaller	-10.74
▁accompagn	-10.7412
▁sincere	-10.7417
▁suggestions	-10.7425
▁Aid	-10.7427
▁exploitation	-10.7429
▁periodic	-10.7429
▁Ve	-10.7435
▁Ter	-10.7435
▁réels	-10.7436
ixth	-10.7442
▁auron	-10.745
▁remark	-10.745
▁contribut	-10.7452
▁West	-10.7454
75	-10.7456
▁avancé	-10.7468
ilateral	-10.7479
▁Fin	-10.7479
▁dirais	-10.7481
entreprise	-10.7487
▁compter	-10.7493
▁Irlande	-10.7522
▁checks	-10.7528
▁Ne	-10.7542
▁inspections	-10.7543
ancien	-10.7558
▁politically	-10.7558
▁revenus	-10.7567
▁supplémentaires	-10.7574
▁goals	-10.7574
exécuti	-10.7579
▁ambitions	-10.7589
▁apart	-10.7591
abled	-10.7609
▁présentées	-10.761
▁organiser	-10.761
▁choisi	-10.7615
▁Lorsqu	-10.7627
▁détails	-10.7648
▁habitants	-10.7656
light	-10.7671
cadre	-10.7673
low	-10.768
▁approprié	-10.7693
nish	-10.7701
▁petits	-10.7707
▁network	-10.7712
assurer	-10.7713
▁stabilis	-10.7713
gées	-10.7717
élément	-10.7718
benefit	-10.7719
offre	-10.7719
Culture	-10.7719
effet	-10.7722
year	-10.7722
what	-10.7722
▁saisi	-10.7726
right	-10.7726
invite	-10.7727
read	-10.7727
▁habitant	-10.7737
nze	-10.7739
autant	-10.775
▁rende	-10.7761
clé	-10.7763
▁mène	-10.7785
▁majeur	-10.7793
▁préc	-10.7802
▁debated	-10.7807
cher	-10.7817
▁accus	-10.784
▁serai	-10.7843
ixa	-10.7845
▁voulai	-10.7871
stitutionnelles	-10.7873
aider	-10.7881
▁presen	-10.7901
▁wait	-10.7911
▁perd	-10.7913
▁évit	-10.7922
▁minimal	-10.7922
▁prêt	-10.7933
▁integrat	-10.7935
différence	-10.7937
▁nouvel	-10.7937
▁bloc	-10.794
▁commis	-10.7941
étendre	-10.7941
éventuelle	-10.7942
▁admit	-10.7942
▁occur	-10.7942
épublique	-10.7942
▁1993	-10.7942
▁ALTENER	-10.7942
▁Ensuite	-10.7942
▁Instead	-10.7942
▁Karas	-10.7942
▁Like	-10.7942
▁Palestine	-10.7942
▁Where	-10.7942
▁associate	-10.7942
▁avéré	-10.7942
▁bienvenu	-10.7942
▁choice	-10.7942
▁conviction	-10.7942
▁disappear	-10.7942
▁délits	-10.7942
▁législature	-10.7942
▁protége	-10.7942
▁provoqué	-10.7942
▁registre	-10.7942
▁violence	-10.7942
chrétien	-10.7942
▁Dimitrakopoulos	-10.7942
▁ambigu	-10.7942
▁anticipat	-10.7942
▁définitif	-10.7942
▁fifth	-10.7942
▁legitimate	-10.7942
▁néerlandais	-10.7942
▁obligatoire	-10.7942
▁release	-10.7942
▁substantial	-10.7942
▁tough	-10.7942
▁étroite	-10.7942
raça	-10.7942
▁Désir	-10.7942
▁approximate	-10.7942
▁gauche	-10.7942
▁initiate	-10.7942
▁studie	-10.7942
inflation	-10.7942
▁independence	-10.7942
▁adhere	-10.7942
▁compensation	-10.7942
▁green	-10.7942
▁hours	-10.7942
▁juin	-10.7942
inscrir	-10.7942
▁surpris	-10.7942
▁Directorate	-10.7942
▁faiblesse	-10.7943
▁joué	-10.7943
spread	-10.7943
▁sake	-10.7943
▁bureaucratic	-10.7943
▁anyone	-10.7943
▁match	-10.7943
▁treaties	-10.7943
▁proceedings	-10.7943
▁accessible	-10.7944
▁block	-10.7944
incidence	-10.7945
▁round	-10.7945
▁openness	-10.7946
▁eaux	-10.7946
▁PSE	-10.7946
▁declaration	-10.7946
▁82	-10.7946
▁revoir	-10.7947
▁23	-10.7947
▁concrètement	-10.7948
▁abuse	-10.7948
▁voice	-10.7948
nazi	-10.7949
▁exceptional	-10.7949
▁régulièrement	-10.795
▁armes	-10.795
▁arise	-10.7952
▁leaders	-10.7952
▁multipl	-10.7952
▁finish	-10.7952
▁described	-10.7953
▁transit	-10.7955
▁borne	-10.7955
▁glo	-10.7955
▁linked	-10.7955
▁expliquer	-10.7956
▁enlarged	-10.7956
▁Syrian	-10.7957
rang	-10.7963
chant	-10.7963
▁stable	-10.7965
weight	-10.7966
▁convenience	-10.7966
actualité	-10.7971
▁justified	-10.7974
▁hauteur	-10.7975
▁rédigé	-10.7976
▁counter	-10.7976
▁rejected	-10.7976
▁nine	-10.7976
▁entirely	-10.7977
▁composant	-10.7978
▁promised	-10.798
▁attendent	-10.7983
▁noire	-10.7983
▁preparation	-10.7989
▁define	-10.799
▁respective	-10.7993
▁equally	-10.7994
▁Urban	-10.7998
usqu	-10.7999
▁visa	-10.8001
insiste	-10.8002
▁increasingly	-10.8004
▁Eurojust	-10.8014
▁centralisé	-10.8015
▁suppose	-10.8015
▁similaires	-10.8015
▁facilitate	-10.8017
▁Peu	-10.8017
▁widen	-10.803
DA	-10.8031
▁Greens	-10.8032
▁cite	-10.8032
▁reduced	-10.8038
▁highest	-10.8043
▁exerce	-10.8046
▁worth	-10.8046
▁MEPs	-10.8048
▁fam	-10.8057
▁autrement	-10.806
▁outil	-10.806
▁indépendant	-10.8064
▁chiffres	-10.8064
▁protocole	-10.8083
adresser	-10.8086
▁ouvert	-10.809
▁connaisse	-10.8096
▁portée	-10.8099
▁inclure	-10.8107
▁innov	-10.811
SEC	-10.811
▁totale	-10.8114
▁refuser	-10.8114
▁pacte	-10.812
▁impli	-10.8144
tract	-10.8156
▁masse	-10.8159
▁uniforme	-10.816
▁preventing	-10.8161
▁mo	-10.8161
▁June	-10.8172
dessus	-10.8178
▁orale	-10.8178
▁moderne	-10.8178
▁remarks	-10.8179
attaquer	-10.8185
▁dites	-10.8196
▁structurelles	-10.8196
▁judges	-10.8196
▁poste	-10.8214
▁clé	-10.8219
▁reinforce	-10.8224
▁apporte	-10.8237
▁élus	-10.8245
▁coordinat	-10.8279
▁coordinate	-10.8304
▁suffisant	-10.8314
venant	-10.8318
▁monetar	-10.8325
▁réside	-10.8329
▁cruciale	-10.833
explique	-10.8336
▁Mal	-10.8366
▁concret	-10.8374
érie	-10.8387
▁considerabl	-10.8407
▁politic	-10.8421
▁tempête	-10.8426
▁navire	-10.8429
▁véhicule	-10.843
obligation	-10.8432
expérience	-10.8434
Europol	-10.8434
adopter	-10.8434
exercice	-10.8434
président	-10.8434
encourage	-10.8436
President	-10.8437
▁dirai	-10.8453
accepter	-10.8461
▁Nation	-10.8464
▁rapid	-10.8467
▁parlement	-10.8471
▁événement	-10.8484
▁inquiétude	-10.8487
▁justifier	-10.8492
▁jeu	-10.8509
▁reconnais	-10.8516
▁invit	-10.852
▁peur	-10.854
added	-10.8581
▁rejet	-10.8582
▁possibl	-10.8583
raft	-10.8588
uvre	-10.8596
ulf	-10.8599
ception	-10.8601
▁couvert	-10.862
▁habit	-10.8627
endant	-10.8628
▁conserv	-10.8628
▁satisf	-10.8633
integra	-10.8638
▁perfect	-10.864
▁immediate	-10.864
ould	-10.8644
▁incorporate	-10.8645
exigence	-10.8652
approfondi	-10.8652
▁juridiction	-10.8653
croît	-10.8654
▁paradox	-10.8656
atrice	-10.8656
ibilité	-10.8656
polluter	-10.8656
▁drug	-10.8656
▁déterminé	-10.8656
▁détrui	-10.8656
▁inevitabl	-10.8656
▁provoque	-10.8656
▁suscite	-10.8656
Valentin	-10.8656
▁1990	-10.8656
▁1992	-10.8656
▁Belgium	-10.8656
▁Depuis	-10.8656
▁Gaza	-10.8656
▁Kyoto	-10.8656
▁Luxembourg	-10.8656
▁Netherlands	-10.8656
▁Regard	-10.8656
▁Summit	-10.8656
▁Wales	-10.8656
▁accompan	-10.8656
▁advantage	-10.8656
▁barrier	-10.8656
▁company	-10.8656
▁consacrer	-10.8656
▁coordonn	-10.8656
▁description	-10.8656
▁detriment	-10.8656
▁dynamique	-10.8656
▁dérogation	-10.8656
▁déroule	-10.8656
▁endeavour	-10.8656
▁entitled	-10.8656
▁evidence	-10.8656
▁feature	-10.8656
▁furthermore	-10.8656
▁judicieuse	-10.8656
▁patrimoine	-10.8656
▁pourcentage	-10.8656
▁regime	-10.8656
▁reiterate	-10.8656
▁reservation	-10.8656
▁réclam	-10.8656
▁salariés	-10.8656
▁souffr	-10.8656
▁speed	-10.8656
▁sphere	-10.8656
▁suppression	-10.8656
▁surveillance	-10.8656
▁thousands	-10.8656
▁vérité	-10.8656
▁xenophobic	-10.8656
▁xénophobe	-10.8656
▁électronique	-10.8656
▁unanime	-10.8656
essence	-10.8656
▁insulaires	-10.8656
▁changing	-10.8656
▁regrettable	-10.8656
▁undermine	-10.8656
▁clean	-10.8656
▁détri	-10.8656
▁mutual	-10.8656
▁shap	-10.8656
▁erreur	-10.8656
▁distance	-10.8656
▁apparent	-10.8657
▁pilier	-10.8657
▁voisins	-10.8657
▁media	-10.8657
▁Finland	-10.8657
▁essay	-10.8657
▁gouvernance	-10.8657
▁placé	-10.8658
▁liable	-10.8658
4/1999	-10.8658
▁2001	-10.8658
▁Prim	-10.8658
▁massive	-10.8658
▁collection	-10.8659
▁civilisation	-10.8659
▁700	-10.866
▁uphold	-10.866
▁85	-10.866
ock	-10.8661
▁proof	-10.8663
▁31	-10.8663
▁27	-10.8664
▁heavy	-10.8664
▁tenter	-10.8665
▁gé	-10.8665
▁unanimously	-10.8665
▁Malte	-10.8665
▁signé	-10.8667
▁durant	-10.8667
▁rejette	-10.8668
▁marginal	-10.8668
Lama	-10.8669
room	-10.8669
▁indiquer	-10.8669
tiendra	-10.867
▁marée	-10.867
▁path	-10.8671
▁courant	-10.8672
▁told	-10.8673
▁enforcement	-10.8674
▁obliged	-10.8674
▁rational	-10.8675
▁minimales	-10.8677
▁While	-10.8678
▁pire	-10.868
▁préparer	-10.8682
▁consist	-10.8687
aucuns	-10.8688
mar	-10.869
▁Oui	-10.8692
▁Bar	-10.8693
▁defined	-10.8695
▁transfert	-10.8697
▁installations	-10.8699
▁suggested	-10.8699
▁cooperate	-10.8701
▁waiting	-10.8702
▁repeated	-10.8711
▁failed	-10.8713
▁offrir	-10.8717
▁élargie	-10.8719
▁Rome	-10.8719
▁activement	-10.8719
▁doter	-10.8729
▁décentralisé	-10.873
▁envisaged	-10.8736
▁portent	-10.874
mettant	-10.874
▁restricted	-10.8744
▁garantiss	-10.8745
▁indépendance	-10.8751
▁imagine	-10.8763
▁restor	-10.8765
tamment	-10.877
▁posting	-10.8778
▁Laan	-10.8788
▁allowed	-10.8793
▁nord	-10.8796
▁contacts	-10.8806
▁towns	-10.8806
▁158	-10.8845
▁verr	-10.8849
▁cherche	-10.8881
000	-10.8881
▁compétente	-10.8887
▁resign	-10.8911
▁fondée	-10.8921
▁changed	-10.8928
tenant	-10.8939
▁réuni	-10.8946
surance	-10.8948
▁territoriale	-10.8948
▁Can	-10.897
▁manag	-10.8976
▁friend	-10.899
▁organise	-10.9004
▁origin	-10.9011
limitation	-10.9013
▁provenan	-10.9013
▁occupe	-10.9025
▁aboutir	-10.9056
▁arriver	-10.9057
▁modern	-10.9058
▁authoris	-10.9067
▁solide	-10.9102
▁suit	-10.9124
▁vast	-10.9126
▁manifeste	-10.9134
▁parvenu	-10.9194
▁technologie	-10.9195
oppose	-10.9199
accident	-10.9201
droite	-10.9203
essentiel	-10.9203
intervention	-10.9203
instrument	-10.9204
economic	-10.9205
EU	-10.9207
▁représentant	-10.9236
La	-10.9245
▁conten	-10.9248
▁connais	-10.9251
▁28	-10.9257
▁israélien	-10.9262
▁contrôl	-10.9263
adresse	-10.9292
issement	-10.9299
agisse	-10.9303
worthy	-10.9306
▁restore	-10.9319
expir	-10.9356
▁procedur	-10.9357
▁capita	-10.9362
étai	-10.9381
empêch	-10.9388
▁salue	-10.9396
▁actif	-10.9403
▁Second	-10.9409
▁comporte	-10.941
▁appelé	-10.9413
É	-10.9414
▁spoke	-10.9415
▁coul	-10.9416
▁topic	-10.9418
▁recommand	-10.9418
résidence	-10.9422
▁Lisbon	-10.9422
▁juris	-10.9425
▁emerge	-10.9425
évent	-10.9425
▁applaud	-10.9425
▁multinational	-10.9425
▁média	-10.9425
Bretagne	-10.9425
pollueur	-10.9425
éducation	-10.9425
▁Authority	-10.9425
▁English	-10.9425
▁Malheureusement	-10.9425
▁behaviour	-10.9425
▁bientôt	-10.9425
▁chairman	-10.9425
▁commencé	-10.9425
▁disparités	-10.9425
▁expenditure	-10.9425
▁extraordinaire	-10.9425
▁indicative	-10.9425
▁mismanagement	-10.9425
▁prononcé	-10.9425
▁rigorous	-10.9425
▁shift	-10.9425
▁simplification	-10.9425
▁supply	-10.9425
▁traduction	-10.9425
▁trouvé	-10.9425
▁whatsoever	-10.9425
▁witness	-10.9425
▁worry	-10.9425
▁written	-10.9425
hérit	-10.9425
intéresse	-10.9425
▁inévitable	-10.9425
▁substantielle	-10.9425
▁weakness	-10.9425
ordinary	-10.9425
sumption	-10.9425
▁Russia	-10.9425
▁militar	-10.9425
▁opposite	-10.9425
▁subsiste	-10.9425
▁illegal	-10.9425
determination	-10.9425
▁lumière	-10.9425
▁autorisé	-10.9426
▁fusions	-10.9426
▁Just	-10.9426
▁elsewhere	-10.9426
Alliance	-10.9426
▁located	-10.9426
▁remit	-10.9426
▁admir	-10.9426
▁belge	-10.9426
▁timetable	-10.9426
▁abandoned	-10.9426
▁emergency	-10.9426
▁Left	-10.9426
▁naturelles	-10.9426
écrire	-10.9426
▁hélas	-10.9426
▁UN	-10.9426
▁conservateur	-10.9427
▁explication	-10.9427
▁institu	-10.9427
▁Arab	-10.9427
▁coexistence	-10.9427
▁rétablir	-10.9428
▁New	-10.9428
▁commentaires	-10.9429
▁export	-10.9429
▁Lisbonne	-10.9429
▁truth	-10.9429
▁viole	-10.9429
▁champ	-10.943
▁exactement	-10.943
▁voudrait	-10.9431
▁vivre	-10.9431
▁vague	-10.9432
▁assurances	-10.9433
▁Seul	-10.9433
▁compléter	-10.9433
▁competent	-10.9433
▁48	-10.9433
▁charter	-10.9434
▁Pourtant	-10.9434
▁virtu	-10.9435
▁correctement	-10.9435
▁souhaitable	-10.9435
▁dév	-10.9436
▁tenue	-10.9436
rising	-10.9439
▁rare	-10.944
courir	-10.944
▁retour	-10.944
▁évolue	-10.9441
▁consistant	-10.9441
▁prevention	-10.9441
▁sélection	-10.9442
▁treaty	-10.9442
Asie	-10.9443
satisfied	-10.9444
▁permettrait	-10.9444
▁warm	-10.9445
▁vivement	-10.9448
▁invitation	-10.945
abri	-10.9452
▁complètement	-10.9454
▁monitored	-10.9455
▁dict	-10.9458
sistance	-10.9463
▁gap	-10.9466
▁signalé	-10.9469
▁collect	-10.9476
aunch	-10.9477
apprécie	-10.9478
▁élevées	-10.9482
▁concrétiser	-10.9483
▁quote	-10.9484
▁concluded	-10.9486
▁contrôleur	-10.949
▁ferai	-10.9492
▁strengthened	-10.9493
▁Ceux	-10.9495
ober	-10.9498
▁extended	-10.95
▁expected	-10.9515
▁qualifiée	-10.9518
▁fut	-10.9518
▁patien	-10.952
▁modernise	-10.9531
▁Asia	-10.9541
▁contributed	-10.9542
impose	-10.9543
▁pourrions	-10.9548
▁aimed	-10.9549
▁enrich	-10.9559
▁consolidat	-10.9569
▁marqué	-10.958
▁num	-10.9584
oyons	-10.9597
▁Th	-10.9621
▁fier	-10.9621
tiennent	-10.9624
▁select	-10.9648
considérablement	-10.965
▁welcomed	-10.9651
audit	-10.9655
▁fast	-10.9658
▁demandent	-10.966
aille	-10.9667
▁pouv	-10.969
clusion	-10.9694
▁maintien	-10.9694
▁veille	-10.9696
▁opposé	-10.9715
▁regulat	-10.9746
▁envoyé	-10.978
marked	-10.9785
affirmer	-10.979
▁fonctionner	-10.9799
▁instaur	-10.9801
ple	-10.9816
tergovernmental	-10.982
▁Lors	-10.9826
bour	-10.9832
▁inquiét	-10.9833
▁indépendante	-10.9835
▁laisse	-10.9849
▁cour	-10.9911
▁décider	-10.9939
▁adéquat	-10.994
▁comprenne	-10.9976
▁Dur	-10.9976
session	-10.9994
▁exploit	-10.9998
▁indirect	-11.0005
G	-11.0014
▁informé	-11.0015
▁constat	-11.0016
(1999)0	-11.0021
avai	-11.0023
▁parliament	-11.0027
Helsinki	-11.0036
▁recommandation	-11.0038
importe	-11.0038
▁tort	-11.0039
like	-11.0041
▁posée	-11.0044
avec	-11.0065
▁revien	-11.0071
▁requirement	-11.008
8)	-11.0093
▁industrial	-11.0095
issu	-11.0124
espérer	-11.0127
▁garder	-11.0146
▁transpos	-11.015
governmental	-11.0166
▁émis	-11.0166
avantage	-11.0185
union	-11.0191
▁spéciale	-11.02
▁tourism	-11.0209
▁grow	-11.0219
▁reprend	-11.0242
▁reconnaît	-11.0242
▁careful	-11.0243
▁Fran	-11.0253
▁minor	-11.0253
abandon	-11.0254
tually	-11.0257
limin	-11.0258
immédiat	-11.0259
▁circu	-11.0259
affréteur	-11.0259
appuy	-11.0259
▁américain	-11.0259
▁cohérent	-11.0259
▁complément	-11.0259
▁inférieur	-11.0259
▁philosophi	-11.0259
▁privilégi	-11.0259
▁redistributi	-11.0259
▁suggér	-11.0259
Amoco	-11.0259
Plath	-11.0259
incertitude	-11.0259
inquiète	-11.0259
occurrence	-11.0259
peripheral	-11.0259
▁1967	-11.0259
▁BBC	-11.0259
▁Belgique	-11.0259
▁Bourlanges	-11.0259
▁Environment	-11.0259
▁Galles	-11.0259
▁Marinho	-11.0259
▁McNally	-11.0259
▁Nielson	-11.0259
▁abstain	-11.0259
▁agencies	-11.0259
▁allocation	-11.0259
▁appointment	-11.0259
▁chapitre	-11.0259
▁chômeurs	-11.0259
▁compatible	-11.0259
▁compulsory	-11.0259
▁conjoint	-11.0259
▁demonstration	-11.0259
▁deplore	-11.0259
▁dramatique	-11.0259
▁défaut	-11.0259
▁désastre	-11.0259
▁enjoy	-11.0259
▁hundred	-11.0259
▁identique	-11.0259
▁ideology	-11.0259
▁irlandais	-11.0259
▁jurisdiction	-11.0259
▁légitimité	-11.0259
▁multiannual	-11.0259
▁nécessite	-11.0259
▁offences	-11.0259
▁pluriannuel	-11.0259
▁predecessor	-11.0259
▁primarily	-11.0259
▁préjudice	-11.0259
▁pétrole	-11.0259
▁remédier	-11.0259
▁restructuration	-11.0259
▁régénération	-11.0259
▁satisfactory	-11.0259
▁sauvegarde	-11.0259
▁siège	-11.0259
▁supérieur	-11.0259
▁synergie	-11.0259
▁technological	-11.0259
▁tôt	-11.0259
▁ultimately	-11.0259
▁Danube	-11.0259
▁Personne	-11.0259
▁combler	-11.0259
▁crains	-11.0259
▁deprive	-11.0259
▁destroy	-11.0259
▁linguisti	-11.0259
identité	-11.0259
élimination	-11.0259
▁animaux	-11.0259
inistère	-11.0259
▁South	-11.0259
▁enjeux	-11.0259
▁politicians	-11.0259
concilier	-11.0259
▁drogue	-11.0259
▁slick	-11.0259
▁1999/0	-11.0259
▁souscri	-11.0259
▁worthwhile	-11.0259
▁Oct	-11.0259
▁Total	-11.0259
▁Premi	-11.0259
▁UK	-11.0259
▁entrave	-11.0259
▁occurred	-11.0259
▁surround	-11.0259
▁ajoutée	-11.0259
▁launched	-11.0259
▁transmis	-11.0259
▁Certes	-11.0259
▁reverse	-11.0259
CECA	-11.0259
▁uncertainty	-11.0259
▁vingt	-11.0259
▁1999/212	-11.0259
▁exhaustive	-11.0259
▁compensate	-11.026
▁nulle	-11.026
▁animal	-11.026
▁feasible	-11.026
▁survey	-11.026
▁running	-11.026
▁prolong	-11.026
▁généraux	-11.026
▁severe	-11.026
▁Republic	-11.026
▁restructuring	-11.026
▁Euro	-11.026
▁entry	-11.026
▁heureuse	-11.0261
7/1999	-11.0261
▁partisan	-11.0261
▁basically	-11.0261
corporation	-11.0262
▁pouvez	-11.0262
▁86	-11.0262
▁mille	-11.0262
Alb	-11.0262
zio	-11.0263
▁récupération	-11.0263
▁resident	-11.0264
▁33	-11.0264
▁death	-11.0264
▁34	-11.0265
▁félicitons	-11.0265
▁restrictive	-11.0265
▁requise	-11.0265
▁interrégionale	-11.0266
▁déplore	-11.0266
▁participent	-11.0266
▁38	-11.0267
▁vux	-11.0268
▁disagreement	-11.027
▁agent	-11.027
▁soutiendra	-11.027
▁condamnation	-11.0272
▁sexe	-11.0272
▁whatever	-11.0275
▁travaillent	-11.0275
▁auteur	-11.0275
acquisition	-11.0276
▁treat	-11.0278
▁bout	-11.0278
▁handicapées	-11.0279
▁quantité	-11.0279
▁Proc	-11.0281
▁merit	-11.0282
▁progressive	-11.0283
insécurité	-11.0284
▁supposed	-11.0295
3(	-11.0296
▁farming	-11.0298
▁slight	-11.0301
▁fuel	-11.0302
▁foundation	-11.0308
▁successfully	-11.0309
▁octroy	-11.0309
▁firmly	-11.0313
▁diminuer	-11.0313
▁réserv	-11.0313
▁maintained	-11.0319
▁disposent	-11.033
▁page	-11.0335
▁correctly	-11.0337
▁doct	-11.0339
▁Well	-11.0344
ajouterai	-11.0344
▁previously	-11.0351
▁naturel	-11.0351
▁indiqué	-11.0354
▁précision	-11.0359
▁confirmed	-11.036
▁hearing	-11.0362
▁frappé	-11.0362
environnementaux	-11.0366
▁completed	-11.037
▁financer	-11.0378
▁diplomati	-11.0379
▁import	-11.0382
▁Last	-11.04
▁contribuera	-11.0408
5-012	-11.042
wo	-11.0423
▁started	-11.0436
▁soutient	-11.0442
▁Toute	-11.0445
▁retraite	-11.0451
40	-11.0459
égo	-11.0466
nction	-11.0471
▁dépense	-11.0486
▁cat	-11.0488
41	-11.052
▁lesson	-11.0525
▁expos	-11.0526
ayons	-11.0538
rust	-11.0541
avait	-11.06
voir	-11.0605
engage	-11.0618
▁author	-11.0637
▁prendra	-11.0661
5-002	-11.0663
▁réform	-11.0672
▁choisir	-11.0687
▁contribue	-11.0694
▁oppos	-11.0706
▁tu	-11.0724
friendly	-11.0755
▁préciser	-11.0765
▁termine	-11.0772
▁prenne	-11.0775
▁Jac	-11.0804
▁fiscal	-11.0806
▁Tel	-11.0822
▁esc	-11.0843
▁observ	-11.0857
▁lourde	-11.09
▁door	-11.0917
uille	-11.0933
▁minorité	-11.0941
effort	-11.0945
▁observation	-11.0946
important	-11.0947
habitants	-11.0952
▁réel	-11.0954
▁travailleur	-11.0962
aucune	-11.0985
institutionnelle	-11.0986
▁préfér	-11.1043
lighted	-11.1056
intervien	-11.1059
▁monopol	-11.1066
nother	-11.1074
▁difficulté	-11.1075
▁utilisée	-11.1075
novation	-11.1081
octo	-11.1083
▁whil	-11.1125
▁attaché	-11.1133
▁procéd	-11.1135
▁navig	-11.1149
▁tradui	-11.115
▁attentive	-11.1152
▁declare	-11.1157
▁déplor	-11.116
▁rassur	-11.1161
oreign	-11.1166
attente	-11.1167
environ	-11.1168
arbitr	-11.1168
emblée	-11.1168
▁déterminer	-11.1168
▁prosecutor	-11.1168
▁prospère	-11.1168
▁tibétain	-11.1168
▁élaboré	-11.1168
ECSC	-11.1168
atténu	-11.1168
instruction	-11.1168
▁Belgian	-11.1168
▁Consumer	-11.1168
▁Greek	-11.1168
▁Hitler	-11.1168
▁MEDA	-11.1168
▁Safety	-11.1168
▁Schreyer	-11.1168
▁TACIS	-11.1168
▁Wednesday	-11.1168
▁Who	-11.1168
▁absurd	-11.1168
▁associé	-11.1168
▁assorti	-11.1168
▁background	-11.1168
▁binding	-11.1168
▁clarification	-11.1168
▁compréhension	-11.1168
▁compétitive	-11.1168
▁construit	-11.1168
▁contrast	-11.1168
▁convaincre	-11.1168
▁devastat	-11.1168
▁diffusion	-11.1168
▁digne	-11.1168
▁dismantling	-11.1168
▁détachement	-11.1168
▁energies	-11.1168
▁horizontal	-11.1168
▁inadequate	-11.1168
▁incentive	-11.1168
▁judicieux	-11.1168
▁machine	-11.1168
▁mercredi	-11.1168
▁mémoire	-11.1168
▁négatif	-11.1168
▁operating	-11.1168
▁orientale	-11.1168
▁perpetrat	-11.1168
▁physique	-11.1168
▁primordial	-11.1168
▁proactive	-11.1168
▁périphériques	-11.1168
▁quelconque	-11.1168
▁recevoir	-11.1168
▁répercussions	-11.1168
▁scenario	-11.1168
▁sidérurgique	-11.1168
▁significance	-11.1168
▁significative	-11.1168
▁societies	-11.1168
▁supplement	-11.1168
▁sévère	-11.1168
▁timber	-11.1168
▁traditional	-11.1168
▁tranche	-11.1168
▁unanimity	-11.1168
▁Quoi	-11.1168
▁agence	-11.1168
▁juillet	-11.1168
▁ongoing	-11.1168
▁parallèle	-11.1168
▁tolerance	-11.1168
(199	-11.1168
▁Cadiz	-11.1168
▁Karl	-11.1168
▁Clearly	-11.1168
▁inspire	-11.1168
▁translation	-11.1168
▁étendu	-11.1168
utilité	-11.1168
▁affronte	-11.1168
Nazi	-11.1168
éprouve	-11.1168
▁stream	-11.1168
parcours	-11.1168
▁inutile	-11.1168
▁restrein	-11.1168
▁Malta	-11.1168
▁poids	-11.1168
fascist	-11.1168
▁earn	-11.1168
annexe	-11.1168
▁télé	-11.1168
▁Saint	-11.1168
▁distor	-11.1168
▁valable	-11.1168
▁décrit	-11.1168
▁grec	-11.1168
▁July	-11.1168
▁expertise	-11.1168
▁profondément	-11.1169
▁duties	-11.1169
▁levée	-11.1169
▁parlons	-11.1169
▁voilà	-11.1169
▁regeneration	-11.1169
▁insecurity	-11.117
▁begun	-11.117
▁remerciements	-11.117
▁mutuelle	-11.117
▁décide	-11.117
▁rigoureuse	-11.117
▁partagé	-11.1171
▁track	-11.1171
▁sinon	-11.1171
▁mix	-11.1171
▁taille	-11.1172
▁devions	-11.1172
▁sérieuses	-11.1172
▁Chinese	-11.1172
▁democratically	-11.1173
▁career	-11.1173
▁Vot	-11.1174
▁awareness	-11.1174
▁partiellement	-11.1174
▁Aucun	-11.1175
▁feront	-11.1175
▁pèse	-11.1175
▁90	-11.1176
▁north	-11.1176
gérer	-11.1177
▁isolate	-11.1177
▁créent	-11.118
▁dirigeant	-11.1181
▁totalité	-11.1182
▁motif	-11.1183
▁constantly	-11.1183
▁economically	-11.1183
▁attentivement	-11.1183
▁profondeur	-11.1184
▁représent	-11.1185
▁sortir	-11.1187
▁monopoles	-11.1188
▁alter	-11.1188
▁observer	-11.1189
▁mid	-11.1191
▁Cher	-11.1191
▁touchées	-11.1191
▁facilement	-11.1195
riat	-11.1195
▁equip	-11.1196
émission	-11.12
▁rapproch	-11.1202
▁saluer	-11.1203
▁disposal	-11.1204
titude	-11.1205
▁suffered	-11.1205
▁delivered	-11.1209
angle	-11.1212
▁fate	-11.1213
▁slow	-11.1214
▁opt	-11.1216
▁sufficiently	-11.1216
▁Plan	-11.1217
▁accountable	-11.1219
ather	-11.1224
▁convenu	-11.1234
▁lower	-11.1235
▁reconsider	-11.1235
▁ravi	-11.1235
▁informer	-11.1241
▁nomme	-11.1243
▁arrived	-11.1243
▁listening	-11.1245
▁2000"	-11.1246
▁strongly	-11.1247
▁rejeté	-11.1249
▁Po	-11.1251
▁expire	-11.1253
▁chosen	-11.1258
▁farm	-11.126
▁voulu	-11.126
▁Di	-11.1268
▁prou	-11.1268
seekers	-11.1271
▁délicat	-11.1278
▁damag	-11.1284
scale	-11.1326
▁étudié	-11.1332
▁forcé	-11.1339
▁handicapé	-11.1359
▁fill	-11.1398
représentation	-11.1403
▁advocate	-11.1408
0(	-11.1422
insister	-11.1425
▁Go	-11.1426
▁compare	-11.1442
▁push	-11.1443
▁enabl	-11.1469
▁rendu	-11.1479
▁adressée	-11.1511
▁chercher	-11.1554
▁touché	-11.156
andis	-11.1598
▁optim	-11.1607
▁Ha	-11.1661
62	-11.1667
hand	-11.1711
institution	-11.1753
▁territorial	-11.1768
▁empêche	-11.178
▁contribu	-11.18
▁espér	-11.1815
long	-11.1822
sertion	-11.1844
▁crée	-11.1861
écha	-11.1884
▁pact	-11.1903
▁500	-11.192
▁mass	-11.1923
hold	-11.1937
▁handicap	-11.1938
▁consequence	-11.194
▁retrait	-11.194
▁member	-11.194
exploitation	-11.1941
▁vehicle	-11.1942
▁resource	-11.1942
Internet	-11.1943
▁suggestion	-11.1944
known	-11.1944
atteindre	-11.1945
▁recommendation	-11.1948
wide	-11.1953
▁protocol	-11.1957
▁foi	-11.1959
envisager	-11.1963
affaire	-11.1964
instant	-11.1972
▁Tou	-11.1975
accessi	-11.1994
ndependent	-11.1998
octroye	-11.201
▁stipul	-11.2023
▁suitabl	-11.2065
▁illustr	-11.2066
▁climat	-11.2069
▁federal	-11.2074
▁effectuée	-11.2086
▁mauvais	-11.2088
atically	-11.2097
▁collecte	-11.2104
▁tire	-11.2114
▁juger	-11.2121
▁ta	-11.2123
▁soul	-11.2136
▁enlarg	-11.2144
born	-11.2151
▁constant	-11.2152
▁absolute	-11.2152
▁precise	-11.2152
▁remove	-11.2158
▁renew	-11.2159
▁recommend	-11.2161
aines	-11.2161
▁eff	-11.2163
▁Commun	-11.2165
▁prosper	-11.2166
opérer	-11.2167
distinct	-11.2167
alogue	-11.2168
▁earthquake	-11.2168
▁loyalist	-11.2168
-078	-11.2168
5-0104/1999	-11.2168
5-0107/1999	-11.2168
Autrichien	-11.2168
acquitte	-11.2168
doubtedly	-11.2168
embargo	-11.2168
enveloppe	-11.2168
liba	-11.2168
▁Agricultur	-11.2168
▁Banotti	-11.2168
▁Brittany	-11.2168
▁Conservative	-11.2168
▁Friday	-11.2168
▁Gargani	-11.2168
▁Hatzidakis	-11.2168
▁Israéliens	-11.2168
▁Lucas	-11.2168
▁Maastricht	-11.2168
▁Pakistan	-11.2168
▁Russie	-11.2168
▁Thyssen	-11.2168
▁Wis	-11.2168
▁acquire	-11.2168
▁appauvri	-11.2168
▁avalanche	-11.2168
▁caractérise	-11.2168
▁choose	-11.2168
▁cinquième	-11.2168
▁coherent	-11.2168
▁constraint	-11.2168
▁contrat	-11.2168
▁custom	-11.2168
▁disappointed	-11.2168
▁débloqu	-11.2168
▁easily	-11.2168
▁extensive	-11.2168
▁familial	-11.2168
▁forêts	-11.2168
▁generation	-11.2168
▁guidance	-11.2168
▁hausse	-11.2168
▁identity	-11.2168
▁immense	-11.2168
▁inadmissible	-11.2168
▁incompatible	-11.2168
▁minimis	-11.2168
▁omission	-11.2168
▁pacifique	-11.2168
▁philosophy	-11.2168
▁physical	-11.2168
▁pièces	-11.2168
▁pledge	-11.2168
▁preferr	-11.2168
▁procède	-11.2168
▁produise	-11.2168
▁prédécesseur	-11.2168
▁reassure	-11.2168
▁recherché	-11.2168
▁repair	-11.2168
▁residence	-11.2168
▁senior	-11.2168
▁shipowners	-11.2168
▁statistic	-11.2168
▁subsidies	-11.2168
▁susceptible	-11.2168
▁suscité	-11.2168
▁tolérance	-11.2168
▁télévision	-11.2168
▁understood	-11.2168
▁universal	-11.2168
▁unprecedented	-11.2168
▁vendredi	-11.2168
▁voluntar	-11.2168
▁welfare	-11.2168
▁électeurs	-11.2168
▁équitable	-11.2168
▁îles	-11.2168
▁admissible	-11.2168
▁contamin	-11.2168
▁dominant	-11.2168
▁guide	-11.2168
▁réconciliation	-11.2168
▁réglé	-11.2168
▁survenu	-11.2168
▁volontaire	-11.2168
accroisse	-11.2168
▁Trade	-11.2168
▁abandonné	-11.2168
▁book	-11.2168
▁changé	-11.2168
▁prime	-11.2168
▁profile	-11.2168
▁sollicit	-11.2168
▁hull	-11.2168
▁imparti	-11.2168
▁micro	-11.2168
▁préoccupé	-11.2168
▁harmful	-11.2168
▁liaison	-11.2168
▁qualitati	-11.2168
▁Cox	-11.2168
▁absent	-11.2168
▁rédaction	-11.2168
▁shortcomings	-11.2168
▁underline	-11.2168
▁violate	-11.2168
▁alliance	-11.2168
▁keen	-11.2168
▁quartier	-11.2168
▁préconis	-11.2168
▁honest	-11.2168
▁raising	-11.2168
▁nomination	-11.2168
▁quasi	-11.2168
▁jugé	-11.2168
▁frein	-11.2168
▁arabe	-11.2168
▁location	-11.2168
▁nettement	-11.2168
▁abolish	-11.2168
▁dégager	-11.2168
▁supervise	-11.2168
▁categories	-11.2169
▁optimale	-11.2169
▁denied	-11.2169
▁prerequisite	-11.2169
▁confidentiality	-11.2169
▁satisfaire	-11.2169
▁distortion	-11.2169
▁amené	-11.217
▁waterway	-11.217
thematic	-11.217
▁pouvaient	-11.217
▁palestinienne	-11.217
pleted	-11.217
▁rapprochement	-11.217
▁payments	-11.2171
▁marine	-11.2171
▁fiscalité	-11.2171
▁Gran	-11.2171
▁Santer	-11.2172
▁consommation	-11.2172
▁infringement	-11.2172
▁individuelle	-11.2172
▁lancer	-11.2172
▁USA	-11.2172
▁dépendance	-11.2174
▁interpretation	-11.2174
▁hide	-11.2174
▁vivant	-11.2174
▁trend	-11.2176
▁bound	-11.2176
▁flow	-11.2176
▁tenté	-11.2177
sectorielle	-11.2178
▁occupé	-11.2178
▁missing	-11.2179
▁porté	-11.2179
▁justify	-11.218
▁stance	-11.218
▁explicitly	-11.218
▁Tibetan	-11.218
▁accountability	-11.218
▁centaine	-11.2181
▁spoken	-11.2181
▁ratified	-11.2181
▁fourth	-11.2182
▁compliment	-11.2182
▁clarifier	-11.2184
lète	-11.2185
▁Bern	-11.2187
▁usual	-11.2187
▁disadvantaged	-11.2188
▁arrêté	-11.219
▁owe	-11.219
▁observed	-11.2192
▁ferons	-11.2193
▁constitutional	-11.2196
▁Gas	-11.2196
▁conserver	-11.2197
▁authorised	-11.2198
▁rejection	-11.2204
▁removed	-11.2205
▁fallu	-11.2208
▁identified	-11.221
▁dépi	-11.2212
▁décisionnel	-11.2212
▁réussir	-11.2216
▁recycled	-11.2221
▁charterer	-11.2226
▁characterise	-11.2227
▁marqu	-11.2236
194	-11.2241
▁Any	-11.2243
▁negotiating	-11.2251
▁située	-11.2256
▁reconnaisse	-11.2257
▁Stee	-11.2262
ealth	-11.2271
▁débattu	-11.229
▁affecté	-11.2298
également	-11.2301
ût	-11.2303
rupt	-11.2306
▁remett	-11.2309
oulever	-11.2313
▁composé	-11.2336
▁demanderai	-11.2339
▁industrialis	-11.2369
▁allemande	-11.2376
▁280	-11.2408
▁récente	-11.2438
décentralisation	-11.2444
▁criticise	-11.2447
▁refusé	-11.2495
▁solve	-11.2508
communications	-11.2541
écouter	-11.2543
▁solid	-11.2605
▁expliqu	-11.2619
▁400	-11.262
omé	-11.2621
▁feu	-11.2652
▁link	-11.2689
affaiblir	-11.2698
hose	-11.2715
▁persisten	-11.2715
entraîne	-11.2758
hell	-11.2868
▁pi	-11.2879
▁renforce	-11.2879
▁congratulat	-11.2898
interdi	-11.29
aison	-11.2921
▁profond	-11.2944
licit	-11.2948
llow	-11.3007
plication	-11.3022
accompagne	-11.3034
▁règle	-11.3038
▁contact	-11.3046
▁town	-11.3049
▁organe	-11.305
▁différente	-11.3052
▁consommateur	-11.3053
harmonisation	-11.3053
argument	-11.3055
favour	-11.3056
obteni	-11.3057
inclure	-11.3057
how	-11.3058
effective	-11.3058
URBAN	-11.3059
exemple	-11.3059
voted	-11.3059
exige	-11.3059
where	-11.3082
▁receiv	-11.3089
▁arriv	-11.309
indique	-11.3139
state	-11.3175
ball	-11.3194
▁opérat	-11.3199
▁commend	-11.3205
▁attract	-11.3207
▁repris	-11.321
group	-11.3211
▁quelqu	-11.3227
▁profess	-11.3237
ngage	-11.3242
ecurity	-11.3247
▁égal	-11.3248
▁Charte	-11.325
▁réalise	-11.325
▁oblige	-11.3252
▁publish	-11.3257
▁dirige	-11.3263
▁disagree	-11.3264
▁compli	-11.3265
▁America	-11.3269
▁admis	-11.3272
▁récupér	-11.3273
▁Chine	-11.3273
difference	-11.3274
▁bord	-11.3275
▁divide	-11.3278
▁struc	-11.3278
▁néglige	-11.3279
accélér	-11.3279
affich	-11.3279
▁amélioré	-11.3279
▁débouche	-11.3279
▁fréquent	-11.3279
▁intensifi	-11.3279
▁ultra	-11.3279
Liban	-11.3279
Mathies	-11.3279
Programme	-11.3279
observatoire	-11.3279
▁Albanians	-11.3279
▁April	-11.3279
▁Biscay	-11.3279
▁Chancel	-11.3279
▁Ombudsman	-11.3279
▁Please	-11.3279
▁TAC	-11.3279
▁absolue	-11.3279
▁afraid	-11.3279
▁anxious	-11.3279
▁auparavant	-11.3279
▁bénévole	-11.3279
▁catholique	-11.3279
▁citoyenneté	-11.3279
▁coherence	-11.3279
▁compagnie	-11.3279
▁complicated	-11.3279
▁concevoir	-11.3279
▁council	-11.3279
▁definitive	-11.3279
▁diffuse	-11.3279
▁dirigé	-11.3279
▁distribué	-11.3279
▁divergence	-11.3279
▁drastic	-11.3279
▁démanteler	-11.3279
▁déplace	-11.3279
▁détermination	-11.3279
▁emissions	-11.3279
▁enregistré	-11.3279
▁fisheries	-11.3279
▁hiérarchi	-11.3279
▁hospital	-11.3279
▁imminent	-11.3279
▁indicators	-11.3279
▁inequalities	-11.3279
▁interference	-11.3279
▁intervenu	-11.3279
▁legislature	-11.3279
▁moitié	-11.3279
▁neighbourhood	-11.3279
▁nepotism	-11.3279
▁négocier	-11.3279
▁ouvrir	-11.3279
▁overlook	-11.3279
▁proclam	-11.3279
▁productivité	-11.3279
▁promesse	-11.3279
▁province	-11.3279
▁précédé	-11.3279
▁quatrième	-11.3279
▁revanche	-11.3279
▁schedule	-11.3279
▁silence	-11.3279
▁simplify	-11.3279
▁spéculative	-11.3279
▁statistique	-11.3279
▁structurée	-11.3279
▁substantive	-11.3279
▁transfér	-11.3279
▁unnecessary	-11.3279
▁victoire	-11.3279
▁vigilance	-11.3279
▁writing	-11.3279
▁éliminer	-11.3279
▁desperate	-11.3279
▁exercé	-11.3279
▁frequent	-11.3279
▁secret	-11.3279
▁stringent	-11.3279
▁travel	-11.3279
▁augmenté	-11.3279
▁citizenship	-11.3279
▁conduir	-11.3279
▁traffic	-11.3279
efforce	-11.3279
▁Aussi	-11.3279
▁denounc	-11.3279
▁endroit	-11.3279
▁médiateur	-11.3279
▁racial	-11.3279
▁souples	-11.3279
▁Gama	-11.3279
▁barrières	-11.3279
▁croyons	-11.3279
▁froid	-11.3279
▁intervene	-11.3279
▁deviendra	-11.3279
▁family	-11.3279
investiture	-11.3279
▁intellectu	-11.3279
▁length	-11.3279
▁piece	-11.3279
▁suspect	-11.3279
trading	-11.3279
▁fausse	-11.3279
▁North	-11.3279
▁allusion	-11.3279
▁feet	-11.3279
Human	-11.3279
▁discre	-11.3279
▁connaissons	-11.3279
▁maintenu	-11.3279
▁grip	-11.3279
▁stake	-11.3279
grade	-11.328
avril	-11.328
▁Bay	-11.328
démarr	-11.328
▁éventuellement	-11.328
▁questeurs	-11.328
▁félicitations	-11.328
▁began	-11.328
pprofondissement	-11.328
apprendre	-11.328
▁réjouissons	-11.328
▁excessif	-11.328
▁marginalisation	-11.328
▁métaux	-11.3281
▁transforme	-11.3281
▁étrangers	-11.3281
▁libéralisation	-11.3281
▁dotation	-11.3282
PT	-11.3282
▁apparu	-11.3282
▁concertation	-11.3282
fresh	-11.3282
▁laissé	-11.3283
▁quinquennal	-11.3283
▁quotidienne	-11.3283
joindre	-11.3283
▁eight	-11.3284
▁approfondie	-11.3284
▁solidaire	-11.3285
▁doubtless	-11.3285
▁Face	-11.3285
▁indicateur	-11.3285
lessness	-11.3286
▁estimate	-11.3286
▁complaint	-11.3287
▁tribunal	-11.3287
stedt	-11.3287
▁contraintes	-11.3287
▁race	-11.3287
▁estimé	-11.3287
imposition	-11.3288
▁beef	-11.3288
▁Over	-11.3288
▁anciens	-11.3288
▁conservation	-11.3289
▁planification	-11.329
▁32	-11.3291
▁communique	-11.3292
▁drive	-11.3292
▁recall	-11.3292
▁réutilisation	-11.3293
▁scrutiny	-11.3293
▁interpreted	-11.3294
▁constatons	-11.3294
interroger	-11.3295
▁wage	-11.3295
▁rendez	-11.3296
▁verts	-11.3297
▁réussite	-11.3299
▁collaborer	-11.33
▁traduire	-11.3301
▁navigable	-11.3302
▁comportement	-11.3302
▁réagir	-11.3302
▁acceptance	-11.3305
▁manifestement	-11.3305
▁fourniss	-11.3306
▁rapidly	-11.3306
▁contribuent	-11.3308
▁résident	-11.3309
▁réjouir	-11.3313
▁formulation	-11.3314
▁diplomatique	-11.3314
▁condamner	-11.3317
▁Serbes	-11.3318
▁logical	-11.332
▁critiqu	-11.3323
Agenc	-11.3334
▁bol	-11.3338
▁experienc	-11.335
federalist	-11.3363
▁iron	-11.3372
▁soutienne	-11.3377
rine	-11.3382
▁combin	-11.3398
▁couvr	-11.3414
invent	-11.3414
▁eliminat	-11.3416
▁rid	-11.3446
▁fish	-11.3465
▁décid	-11.3487
▁bénéfici	-11.3501
▁multiplic	-11.3504
▁écouté	-11.3506
98	-11.3518
represented	-11.352
▁Equal	-11.3532
▁ratifié	-11.3536
▁causé	-11.3546
▁vide	-11.3562
▁assum	-11.3591
amine	-11.362
▁bann	-11.3623
0/1999	-11.3677
▁entraîn	-11.3681
stabilisation	-11.3681
▁attaqu	-11.3697
environnementale	-11.3712
▁rencontré	-11.3743
élan	-11.3767
▁systématique	-11.378
accomplir	-11.3794
IT	-11.3802
▁affaibli	-11.3807
43	-11.3863
▁persist	-11.3875
gaz	-11.3882
actors	-11.3947
▁unfair	-11.4012
aucun	-11.4022
▁compétent	-11.4126
▁caus	-11.415
▁démontrer	-11.4152
▁résult	-11.4172
▁throw	-11.4202
▁affair	-11.4231
▁Mari	-11.4242
▁valoris	-11.4271
▁chiffre	-11.4297
extérieur	-11.4301
▁dangereuse	-11.4302
acquis	-11.4304
Sha	-11.4304
influence	-11.4307
J	-11.4309
défini	-11.431
balance	-11.431
lieu	-11.4312
court	-11.4314
temps	-11.433
Fina	-11.4373
▁eliminate	-11.4377
▁combine	-11.4395
▁pleas	-11.441
▁néo	-11.4422
▁alert	-11.4422
dication	-11.4425
▁remerci	-11.4436
▁conduit	-11.4453
disant	-11.4458
écurité	-11.4459
▁valu	-11.4461
▁zon	-11.4465
▁valid	-11.4488
▁possibilit	-11.449
▁collabor	-11.4498
▁clarifi	-11.4508
▁recover	-11.4511
▁unanimous	-11.4513
▁régulière	-11.4514
▁entière	-11.4516
▁compete	-11.4516
▁differ	-11.4519
onstruction	-11.4519
orientat	-11.4519
▁scrap	-11.4521
▁gouvern	-11.4525
▁quotidien	-11.4525
▁Directi	-11.4526
▁democrat	-11.4526
absten	-11.4528
▁souven	-11.4528
5-03	-11.4528
-080	-11.4529
connect	-11.4529
régularité	-11.4529
émotion	-11.4529
équivalent	-11.4529
▁catastrophi	-11.4529
▁electronic	-11.4529
▁incorrect	-11.4529
▁intéressé	-11.4529
▁protagonist	-11.4529
▁rigid	-11.4529
▁scrupule	-11.4529
▁séjour	-11.4529
▁traditionnel	-11.4529
1/99)	-11.4529
5-0003/2000)	-11.4529
5-0105/1999	-11.4529
Objectif	-11.4529
Sheikh	-11.4529
evolution	-11.4529
honneur	-11.4529
ingérence	-11.4529
justifiable	-11.4529
radiation	-11.4529
xpériment	-11.4529
▁Albanais	-11.4529
▁Barcelon	-11.4529
▁Britain	-11.4529
▁Crespo	-11.4529
▁Fourth	-11.4529
▁Institutions	-11.4529
▁Lebanon	-11.4529
▁Liikanen	-11.4529
▁Lynne	-11.4529
▁Moratinos	-11.4529
▁Morgan	-11.4529
▁Otherwise	-11.4529
▁Protection	-11.4529
▁Representative	-11.4529
▁Resolution	-11.4529
▁Solana	-11.4529
▁Spain	-11.4529
▁VOTE	-11.4529
▁Wieland	-11.4529
▁acquérir	-11.4529
▁administratif	-11.4529
▁altogether	-11.4529
▁anglaise	-11.4529
▁compatibilit	-11.4529
▁craindr	-11.4529
▁criminelle	-11.4529
▁decrease	-11.4529
▁dictature	-11.4529
▁différenciation	-11.4529
▁disparaître	-11.4529
▁disparition	-11.4529
▁display	-11.4529
▁dispute	-11.4529
▁districts	-11.4529
▁dynamic	-11.4529
▁débarrasse	-11.4529
▁décisif	-11.4529
▁démarche	-11.4529
▁démontré	-11.4529
▁engendrer	-11.4529
▁executi	-11.4529
▁fabric	-11.4529
▁footing	-11.4529
▁fossé	-11.4529
▁guard	-11.4529
▁guère	-11.4529
▁hamper	-11.4529
▁hitherto	-11.4529
▁hurdle	-11.4529
▁impératif	-11.4529
▁inquiet	-11.4529
▁intensify	-11.4529
▁jeopardise	-11.4529
▁légifér	-11.4529
▁magnificent	-11.4529
▁maximal	-11.4529
▁membership	-11.4529
▁mobility	-11.4529
▁mobilité	-11.4529
▁naufrage	-11.4529
▁oiseaux	-11.4529
▁outstanding	-11.4529
▁participant	-11.4529
▁participé	-11.4529
▁perceive	-11.4529
▁persuasi	-11.4529
▁pertain	-11.4529
▁phénomène	-11.4529
▁populism	-11.4529
▁prejudice	-11.4529
▁privilège	-11.4529
▁productivity	-11.4529
▁provisoire	-11.4529
▁prématuré	-11.4529
▁préparatoire	-11.4529
▁recyclable	-11.4529
▁remarquable	-11.4529
▁renonce	-11.4529
▁resumed	-11.4529
▁rethink	-11.4529
▁réacteurs	-11.4529
▁réparation	-11.4529
▁répété	-11.4529
▁scénario	-11.4529
▁simultanément	-11.4529
▁suggère	-11.4529
▁suivent	-11.4529
▁surmonter	-11.4529
▁tangible	-11.4529
▁television	-11.4529
▁territories	-11.4529
▁tragédie	-11.4529
▁transformation	-11.4529
▁volunteers	-11.4529
▁watch	-11.4529
▁worrie	-11.4529
(99)0	-11.4529
-079	-11.4529
▁Decision	-11.4529
▁Japan	-11.4529
▁Naturally	-11.4529
▁Quatrième	-11.4529
▁assimil	-11.4529
▁driving	-11.4529
▁fédéraliste	-11.4529
▁gradual	-11.4529
▁imperative	-11.4529
▁realistic	-11.4529
▁retroactive	-11.4529
▁vigorous	-11.4529
▁négligence	-11.4529
▁parallel	-11.4529
▁reconciliation	-11.4529
▁retiré	-11.4529
▁réfère	-11.4529
▁vertical	-11.4529
▁wholehearted	-11.4529
▁Verts	-11.4529
▁abstention	-11.4529
▁impliquée	-11.4529
▁Celui	-11.4529
▁memory	-11.4529
▁plafon	-11.4529
▁réglementaire	-11.4529
▁1999/001	-11.4529
▁kilo	-11.4529
▁sudden	-11.4529
▁menacée	-11.4529
BAT	-11.4529
▁Canad	-11.4529
arrogan	-11.4529
▁déçu	-11.4529
▁1997/037	-11.4529
▁tig	-11.4529
5-0007/2000	-11.4529
▁Delors	-11.4529
▁veuille	-11.4529
▁skill	-11.4529
▁intervenants	-11.4529
▁ruling	-11.4529
▁transcend	-11.4529
▁dérive	-11.4529
autoriser	-11.4529
▁Francis	-11.4529
▁obligé	-11.4529
▁rigoureux	-11.4529
▁write	-11.4529
▁stay	-11.4529
▁instability	-11.4529
▁cargo	-11.4529
▁incitant	-11.4529
▁tendenc	-11.4529
▁prima	-11.4529
▁assets	-11.4529
▁strange	-11.4529
▁Alors	-11.4529
▁arms	-11.4529
▁branch	-11.4529
▁distinction	-11.453
▁nominal	-11.453
▁pervers	-11.453
▁Syriens	-11.453
▁pensai	-11.453
5-033	-11.453
▁spot	-11.453
▁langue	-11.453
▁syndicats	-11.453
▁chantier	-11.453
▁bureaux	-11.453
▁impatien	-11.453
▁rentable	-11.453
▁metals	-11.453
alimente	-11.453
▁praise	-11.453
▁input	-11.453
▁servant	-11.453
▁filière	-11.453
▁ultérieurement	-11.4531
▁persistante	-11.4531
▁multiplier	-11.4531
instabilité	-11.4531
▁ça	-11.4531
▁orienté	-11.4531
▁electora	-11.4531
▁éman	-11.4531
▁thématiques	-11.4531
5-001	-11.4532
▁meantime	-11.4532
▁reconnaissant	-11.4532
▁officielle	-11.4532
▁conviendrait	-11.4532
▁backward	-11.4533
2/1999	-11.4533
▁trace	-11.4533
▁steer	-11.4534
▁Finance	-11.4534
▁tighten	-11.4534
▁marche	-11.4534
▁manifesto	-11.4534
7(	-11.4534
▁modeste	-11.4535
▁permission	-11.4535
▁chapter	-11.4535
▁abandonne	-11.4535
▁nommé	-11.4536
▁39	-11.4537
▁scrapp	-11.4537
▁Under	-11.4538
admission	-11.4538
▁opérationnelle	-11.4539
▁annuelle	-11.454
▁coll	-11.4542
▁breach	-11.4543
▁soutiendron	-11.4545
▁faisait	-11.4545
▁serre	-11.4547
ulaire	-11.4547
▁Bow	-11.4547
▁conju	-11.4547
▁faux	-11.4549
ureau	-11.455
▁pair	-11.455
excè	-11.4553
▁rejoi	-11.4554
1999/210	-11.4555
avoue	-11.4556
▁SP	-11.4566
desirable	-11.4566
▁faille	-11.4566
diz	-11.457
▁indiqu	-11.4585
isole	-11.4589
▁tackl	-11.4598
performance	-11.4599
mputer	-11.4605
▁India	-11.4606
▁adaptée	-11.4622
▁octroyée	-11.4655
locat	-11.4662
▁audition	-11.4662
▁supprimé	-11.4671
▁porteuse	-11.4672
▁whi	-11.4677
développées	-11.4679
observe	-11.4682
bul	-11.4683
▁malheur	-11.4693
makers	-11.4707
▁Pea	-11.4731
▁dépensé	-11.4771
assign	-11.4777
▁transmett	-11.4779
140	-11.4844
ionnement	-11.4905
shop	-11.4908
▁démontre	-11.492
mènera	-11.4936
▁explicit	-11.4945
▁rencontr	-11.4949
Outre	-11.4961
▁constitutionnel	-11.4988
ignée	-11.506
▁réfléchi	-11.5077
▁résid	-11.5122
▁react	-11.516
ignorer	-11.5181
affirme	-11.5218
insuffisance	-11.524
mmo	-11.529
systématiquement	-11.5338
▁replac	-11.5403
▁participe	-11.5431
▁suffis	-11.5446
main	-11.5509
▁récent	-11.5576
▁candidat	-11.5633
▁rappel	-11.5716
démocrate	-11.5724
▁MEP	-11.5726
▁enterprise	-11.5728
▁storm	-11.5729
▁employee	-11.573
▁franchi	-11.5731
exerce	-11.5731
efficient	-11.5733
suppose	-11.5734
paraît	-11.5735
regulation	-11.5735
establish	-11.5736
down	-11.5737
gender	-11.5738
attitude	-11.574
éclair	-11.5753
▁stri	-11.5757
▁produc	-11.5759
▁qualifié	-11.5782
bel	-11.58
q	-11.58
adly	-11.5822
confus	-11.585
▁renforcé	-11.5856
naval	-11.5859
▁montr	-11.5864
▁félicit	-11.5876
▁perform	-11.5882
▁souten	-11.5884
ommet	-11.5888
▁entrepris	-11.5889
▁elect	-11.5898
▁terror	-11.59
▁logic	-11.5904
▁prompt	-11.591
▁formulat	-11.5914
élection	-11.592
▁disadvantage	-11.5929
▁convince	-11.593
▁margin	-11.593
hould	-11.5934
▁scrutin	-11.5939
▁construct	-11.5939
▁cibl	-11.5941
▁Third	-11.5941
▁unfortunate	-11.5941
▁Deuxième	-11.5943
▁franc	-11.5946
ombien	-11.5948
▁strength	-11.595
▁tempor	-11.5951
▁conviendr	-11.5954
▁requi	-11.5954
efore	-11.5955
migration	-11.5955
naissance	-11.5956
▁parfait	-11.5956
▁différe	-11.5957
▁advise	-11.5957
▁macro	-11.5958
▁souverain	-11.5958
1994-1999	-11.5958
Espagne	-11.5958
ISPA	-11.5958
Women	-11.5958
avocat	-11.5958
entrepreneurship	-11.5958
horizon	-11.5958
intermédiaire	-11.5958
maîtrise	-11.5958
méditerranéen	-11.5958
obbies	-11.5958
▁1991	-11.5958
▁2000-2005	-11.5958
▁AIDS	-11.5958
▁Adriatic	-11.5958
▁Catholic	-11.5958
▁Citizens	-11.5958
▁EAGGF	-11.5958
▁Fruteau	-11.5958
▁Golfe	-11.5958
▁Munich	-11.5958
▁Nonetheless	-11.5958
▁Obviously	-11.5958
▁Palestiniens	-11.5958
▁Protocol	-11.5958
▁Quaestors	-11.5958
▁Sweden	-11.5958
▁Vallelersundi	-11.5958
▁WTO	-11.5958
▁Washington	-11.5958
▁adversaire	-11.5958
▁ambitieuse	-11.5958
▁appreciation	-11.5958
▁approximati	-11.5958
▁armateurs	-11.5958
▁attentif	-11.5958
▁autonome	-11.5958
▁bridge	-11.5958
▁bénéfice	-11.5958
▁cabinet	-11.5958
▁caractéristique	-11.5958
▁carcasse	-11.5958
▁contraven	-11.5958
▁deficiencies	-11.5958
▁deprivation	-11.5958
▁dictatorship	-11.5958
▁dignity	-11.5958
▁dignité	-11.5958
▁disturb	-11.5958
▁dommages	-11.5958
▁fiscaux	-11.5958
▁fragilité	-11.5958
▁frontaliers	-11.5958
▁impetus	-11.5958
▁inefficace	-11.5958
▁ingredient	-11.5958
▁intelligent	-11.5958
▁irresponsible	-11.5958
▁legitimacy	-11.5958
▁manoeuvre	-11.5958
▁newspaper	-11.5958
▁néfaste	-11.5958
▁népotisme	-11.5958
▁parviendrons	-11.5958
▁pensée	-11.5958
▁propaganda	-11.5958
▁propagande	-11.5958
▁prosecution	-11.5958
▁radicaux	-11.5958
▁remplir	-11.5958
▁rétroacti	-11.5958
▁rétroactivité	-11.5958
▁révèle	-11.5958
▁sanitaires	-11.5958
▁school	-11.5958
▁spéculatifs	-11.5958
▁straight	-11.5958
▁tremendous	-11.5958
▁volatil	-11.5958
aught	-11.5958
fossil	-11.5958
hôpita	-11.5958
▁Chacun	-11.5958
▁Gross	-11.5958
▁blind	-11.5958
▁dawn	-11.5958
▁dispositif	-11.5958
▁exceptionnelle	-11.5958
▁foster	-11.5958
▁incontestable	-11.5958
▁murder	-11.5958
▁perturb	-11.5958
▁president	-11.5958
▁profound	-11.5958
▁regagner	-11.5958
▁unilatérale	-11.5958
▁énergique	-11.5958
ESB	-11.5958
▁Banque	-11.5958
▁FEOGA	-11.5958
▁Lanka	-11.5958
▁attain	-11.5958
▁automatique	-11.5958
▁communautaris	-11.5958
▁démantèle	-11.5958
▁erroné	-11.5958
▁gigantesque	-11.5958
▁lundi	-11.5958
▁militaire	-11.5958
▁glad	-11.5958
▁retenue	-11.5958
▁échapp	-11.5958
▁trafi	-11.5958
▁réaliste	-11.5958
▁chambre	-11.5958
▁liberalisation	-11.5958
ndépenda	-11.5958
▁imputable	-11.5958
▁Action	-11.5958
▁Anyone	-11.5958
▁Hence	-11.5958
▁insensé	-11.5958
▁relais	-11.5958
▁shame	-11.5958
▁intégrante	-11.5958
▁recul	-11.5958
▁multifunctional	-11.5958
▁qualification	-11.5958
▁déficien	-11.5958
▁resort	-11.5958
▁certitude	-11.5958
▁housing	-11.5958
▁rush	-11.5958
▁cadeau	-11.5958
▁pending	-11.5958
communitisation	-11.5958
▁Time	-11.5958
▁compil	-11.5958
▁inequality	-11.5958
▁compen	-11.5958
habitude	-11.5958
▁gather	-11.5958
▁contradictoire	-11.5958
▁exclusif	-11.5958
éthique	-11.5958
▁gulf	-11.5958
▁agency	-11.5958
▁irregularities	-11.5958
▁sight	-11.5958
▁honte	-11.5958
▁patron	-11.5958
▁mantra	-11.5958
▁bénéficiaires	-11.5958
▁paramètre	-11.5958
▁insult	-11.5958
▁minutieuse	-11.5958
▁tolerate	-11.5958
▁dumping	-11.5958
▁spécialistes	-11.5958
▁transitoire	-11.5958
▁interpell	-11.5958
ependence	-11.5958
▁foresee	-11.5958
▁paradoxical	-11.5958
▁roll	-11.5959
▁geste	-11.5959
▁Conf	-11.5959
▁controller	-11.5959
▁résume	-11.5959
▁renvoi	-11.5959
▁quantitative	-11.5959
▁stem	-11.5959
▁suspension	-11.5959
▁rationalisation	-11.596
▁everywhere	-11.596
▁vieille	-11.596
▁Free	-11.596
▁confidentialité	-11.596
▁regroupe	-11.596
▁bureau	-11.596
investissement	-11.596
▁apprais	-11.596
▁symbolique	-11.5961
▁louable	-11.5961
▁Monday	-11.5961
▁lancement	-11.5961
▁punish	-11.5961
▁consultative	-11.5961
▁garantit	-11.5962
(2)	-11.5962
▁sida	-11.5962
▁espoirs	-11.5962
nçons	-11.5963
concurrentielles	-11.5964
▁stating	-11.5964
▁temporaire	-11.5964
▁Haut	-11.5965
▁prospect	-11.5966
▁900	-11.5966
▁forestier	-11.5966
▁tableau	-11.5967
▁oublié	-11.5968
▁fatal	-11.5968
▁bull	-11.5968
▁chère	-11.5971
établ	-11.5971
▁Autre	-11.5972
helm	-11.5973
montée	-11.5975
achat	-11.5976
▁entier	-11.5984
▁couvrir	-11.5995
veni	-11.6023
ologique	-11.6029
▁systematic	-11.6062
▁désign	-11.6072
▁monopolis	-11.6089
harmoniser	-11.6097
▁illustrate	-11.6108
▁attribuée	-11.6134
éclairci	-11.6167
drew	-11.6177
battu	-11.6194
▁rentr	-11.6248
▁axe	-11.6248
▁perdr	-11.6254
valorisation	-11.6264
israélienne	-11.6279
inking	-11.6388
exploiter	-11.6417
▁argue	-11.6473
ormément	-11.6491
▁compos	-11.6492
▁replace	-11.6545
exposer	-11.6553
breaking	-11.6577
payeur	-11.6581
tendent	-11.6652
dubitablement	-11.6685
▁simplifie	-11.669
▁disseminati	-11.6704
eusement	-11.6769
▁risqu	-11.6773
▁disseminat	-11.6809
continuation	-11.6818
building	-11.6894
▁privilege	-11.6952
ttribuer	-11.6953
▁écout	-11.6982
▁gaspill	-11.7102
uisen	-11.7114
ppelons	-11.7203
▁ratifi	-11.7219
améliore	-11.7235
▁consolid	-11.7295
5-01	-11.7296
oyez	-11.7307
écoute	-11.7311
approche	-11.733
envisage	-11.7371
▁concrète	-11.7381
▁accru	-11.7382
satisfaction	-11.7386
▁Green	-11.7392
▁catégorie	-11.7393
▁partenaire	-11.7395
indépendance	-11.7397
exemption	-11.7397
association	-11.7398
uranium	-11.7398
▁Affair	-11.7398
▁ressource	-11.7399
infrastructure	-11.74
implique	-11.74
assist	-11.74
Agenda	-11.74
developed	-11.74
normal	-11.7401
govern	-11.7401
fraud	-11.7402
scope	-11.7402
parler	-11.7404
Article	-11.7404
turn	-11.7404
licate	-11.7419
▁infrastructur	-11.7429
▁formule	-11.7466
▁cooperat	-11.7513
spiration	-11.7528
space	-11.754
▁multifonctionn	-11.7543
adress	-11.7551
ector	-11.7558
▁object	-11.7558
versement	-11.756
dersc	-11.7564
▁exempt	-11.7574
▁resolv	-11.7584
▁mettr	-11.7588
▁contradict	-11.7589
évolu	-11.759
▁interpret	-11.7592
pecial	-11.7593
▁describe	-11.7596
▁sincère	-11.7609
▁consomm	-11.7617
▁confident	-11.7618
espoir	-11.7619
▁excess	-11.762
▁confidential	-11.762
▁spécifi	-11.762
lusieurs	-11.762
illennium	-11.762
▁palestinien	-11.762
etween	-11.7621
▁ultérieur	-11.7622
ollowing	-11.7622
gressive	-11.7623
▁recueil	-11.7623
▁sovereign	-11.7623
mètres	-11.7624
hether	-11.7624
▁radio	-11.7624
▁religi	-11.7624
4-035	-11.7624
▁sylvic	-11.7624
7/99	-11.7624
▁Caucas	-11.7624
▁fratern	-11.7624
▁perpétré	-11.7624
5-0018/2000)	-11.7624
5-0073/1999	-11.7624
5-0078/1999	-11.7624
5-0108/1999)	-11.7624
5/99)	-11.7624
8/99)	-11.7624
Amérique	-11.7624
accumul	-11.7624
alimentation	-11.7624
articulation	-11.7624
autonomie	-11.7624
envergure	-11.7624
graphique	-11.7624
habilitation	-11.7624
hulled	-11.7624
hypocrisie	-11.7624
kuyu	-11.7624
ordanie	-11.7624
pondération	-11.7624
épuration	-11.7624
▁12/99	-11.7624
▁1998/01	-11.7624
▁2010	-11.7624
▁94/55/	-11.7624
▁96/35/	-11.7624
▁Alavanos	-11.7624
▁Américains	-11.7624
▁Arafat	-11.7624
▁Cheikh	-11.7624
▁Christmas	-11.7624
▁Corbett	-11.7624
▁ECHO	-11.7624
▁ELDR	-11.7624
▁Effective	-11.7624
▁Federal	-11.7624
▁Heights	-11.7624
▁Holzmann	-11.7624
▁Imbeni	-11.7624
▁Industry	-11.7624
▁Madrid	-11.7624
▁PVC	-11.7624
▁Profess	-11.7624
▁Provan	-11.7624
▁Rapha	-11.7624
▁Schulz	-11.7624
▁Stockholm	-11.7624
▁Suède	-11.7624
▁Tsatsos	-11.7624
▁Valdez	-11.7624
▁Vatanen	-11.7624
▁Verheugen	-11.7624
▁allegations	-11.7624
▁anticipé	-11.7624
▁apologis	-11.7624
▁appointed	-11.7624
▁barbar	-11.7624
▁beneficial	-11.7624
▁biodiversit	-11.7624
▁bottom	-11.7624
▁cadmium	-11.7624
▁cancelled	-11.7624
▁chaleureusement	-11.7624
▁chemical	-11.7624
▁chimiques	-11.7624
▁clôture	-11.7624
▁collapse	-11.7624
▁comptons	-11.7624
▁compétitif	-11.7624
▁concessions	-11.7624
▁construis	-11.7624
▁convaincant	-11.7624
▁corrige	-11.7624
▁criminels	-11.7624
▁côtières	-11.7624
▁deliberat	-11.7624
▁democracies	-11.7624
▁diffusé	-11.7624
▁dilemm	-11.7624
▁dioxin	-11.7624
▁disappointment	-11.7624
▁dispens	-11.7624
▁disponibilité	-11.7624
▁distinguish	-11.7624
▁divergent	-11.7624
▁détérior	-11.7624
▁embrace	-11.7624
▁empreint	-11.7624
▁endommagé	-11.7624
▁enshrine	-11.7624
▁expansion	-11.7624
▁extremism	-11.7624
▁fragile	-11.7624
▁inapplicable	-11.7624
▁inappropriate	-11.7624
▁injustifié	-11.7624
▁interview	-11.7624
▁irresponsable	-11.7624
▁irrégularités	-11.7624
▁leadership	-11.7624
▁legislate	-11.7624
▁loophole	-11.7624
▁légère	-11.7624
▁magnifique	-11.7624
▁mondiaux	-11.7624
▁monocultures	-11.7624
▁mécontent	-11.7624
▁nazisme	-11.7624
▁parameter	-11.7624
▁percentage	-11.7624
▁periphery	-11.7624
▁persecut	-11.7624
▁personnalité	-11.7624
▁persuade	-11.7624
▁persécut	-11.7624
▁polycentri	-11.7624
▁privatisation	-11.7624
▁problématique	-11.7624
▁pronounced	-11.7624
▁propriété	-11.7624
▁précipit	-11.7624
▁préjugés	-11.7624
▁prétexte	-11.7624
▁périphérie	-11.7624
▁pétrolière	-11.7624
▁reluctan	-11.7624
▁remplacer	-11.7624
▁remplacé	-11.7624
▁rempliss	-11.7624
▁repercussions	-11.7624
▁reproduir	-11.7624
▁requête	-11.7624
▁ridicul	-11.7624
▁règne	-11.7624
▁réparer	-11.7624
▁révéler	-11.7624
▁sinistrées	-11.7624
▁smooth	-11.7624
▁sphère	-11.7624
▁subordinate	-11.7624
▁summer	-11.7624
▁summit	-11.7624
▁surcharg	-11.7624
▁sweeping	-11.7624
▁synergy	-11.7624
▁tanks	-11.7624
▁totalitarian	-11.7624
▁tragedy	-11.7624
▁tragic	-11.7624
▁traîne	-11.7624
▁tribute	-11.7624
▁trouble	-11.7624
▁upheld	-11.7624
▁volontiers	-11.7624
▁vécu	-11.7624
▁wreck	-11.7624
▁évalué	-11.7624
aéroport	-11.7624
enregistre	-11.7624
▁1989	-11.7624
▁Also	-11.7624
▁CSU	-11.7624
▁Sapard	-11.7624
▁distress	-11.7624
▁démagog	-11.7624
▁penalis	-11.7624
▁picture	-11.7624
▁soulève	-11.7624
▁suffira	-11.7624
▁cercle	-11.7624
▁dependency	-11.7624
▁discover	-11.7624
▁dénonç	-11.7624
▁installé	-11.7624
▁préval	-11.7624
▁substitu	-11.7624
▁tolérer	-11.7624
▁Next	-11.7624
▁penalt	-11.7624
▁shock	-11.7624
attentat	-11.7624
loyale	-11.7624
▁bitter	-11.7624
▁inspectors	-11.7624
▁soign	-11.7624
échelon	-11.7624
▁Puisqu	-11.7624
▁client	-11.7624
▁republicans	-11.7624
▁revue	-11.7624
▁differentiation	-11.7624
▁panel	-11.7624
▁Power	-11.7624
5-0012/2000	-11.7624
influe	-11.7624
▁Bosni	-11.7624
▁Canyon	-11.7624
▁contourn	-11.7624
▁poussé	-11.7624
▁strike	-11.7624
▁Confedera	-11.7624
prévoyant	-11.7624
▁déployé	-11.7624
▁Great	-11.7624
▁boulevers	-11.7624
éloigne	-11.7624
▁Oslo	-11.7624
▁abstract	-11.7624
▁convey	-11.7624
▁credit	-11.7624
pousser	-11.7624
▁arbitraire	-11.7624
▁cacher	-11.7624
tandardisation	-11.7624
▁airport	-11.7624
laundering	-11.7624
cline	-11.7624
▁caisse	-11.7624
▁étape	-11.7624
▁gardien	-11.7624
▁reproche	-11.7624
▁logement	-11.7624
Fascis	-11.7624
▁mettons	-11.7624
▁revised	-11.7624
▁carrière	-11.7624
▁buyer	-11.7625
▁forgot	-11.7625
▁puissance	-11.7625
▁tourbe	-11.7625
ologne	-11.7625
▁innovatrice	-11.7625
▁Common	-11.7625
▁cheap	-11.7625
▁vacanc	-11.7625
▁compenser	-11.7625
▁confused	-11.7625
▁outrage	-11.7625
▁joie	-11.7625
▁salut	-11.7625
▁Communities	-11.7625
▁concluding	-11.7625
▁préoccupe	-11.7625
▁serbe	-11.7625
▁médica	-11.7625
▁manuvre	-11.7625
▁drame	-11.7626
▁gear	-11.7626
▁accommodate	-11.7626
▁headway	-11.7626
▁ratification	-11.7626
▁Pren	-11.7626
▁coopérer	-11.7626
▁fulfilled	-11.7626
▁foremost	-11.7626
▁électoral	-11.7626
▁climatique	-11.7626
ammes	-11.7626
▁aérien	-11.7626
▁juristes	-11.7626
▁2003	-11.7627
▁reviendrai	-11.7627
▁harmonieux	-11.7627
veillé	-11.7627
▁coûteux	-11.7627
▁overrid	-11.7627
▁optique	-11.7627
▁antérieure	-11.7627
anonym	-11.7627
▁déséquilibre	-11.7627
3/1999	-11.7628
▁wood	-11.7628
▁stick	-11.7628
▁hésit	-11.7629
élas	-11.7629
▁censé	-11.763
verba	-11.763
cumbe	-11.7631
▁sépare	-11.7631
▁heav	-11.7631
▁jouisse	-11.7634
▁tape	-11.7634
dvisor	-11.7635
aboli	-11.7636
orienter	-11.7637
▁définissa	-11.7655
▁drink	-11.7664
▁moderat	-11.7668
▁consenti	-11.7698
▁essaie	-11.7706
▁axé	-11.7711
bilan	-11.7714
édict	-11.772
▁ethic	-11.7746
fairly	-11.7776
alerte	-11.7777
ournal	-11.7816
167	-11.7836
▁observator	-11.7872
franchiss	-11.7913
▁Vienn	-11.7964
rooted	-11.7978
ipped	-11.7982
▁manifest	-11.8
affirmation	-11.801
veryone	-11.8018
▁dépens	-11.8175
adapter	-11.8213
▁resid	-11.8282
▁élargi	-11.8298
▁papier	-11.8445
inquiéter	-11.8574
optimism	-11.8675
▁reinforc	-11.877
mala	-11.8775
dependent	-11.8843
▁étudi	-11.8868
▁adressé	-11.8873
argued	-11.8928
excuser	-11.896
▁homm	-11.911
▁Every	-11.9163
▁étrange	-11.9181
carte	-11.9228
▁introduis	-11.9266
▁Serbia	-11.9269
û	-11.9273
▁justifié	-11.9317
▁réjoui	-11.9333
▁entretien	-11.9339
▁garant	-11.934
▁poursuit	-11.9352
▁victim	-11.9377
▁similaire	-11.9392
▁Balkan	-11.9397
Eurojust	-11.9397
attire	-11.9398
intervenir	-11.9399
actuel	-11.9401
K	-11.9402
setting	-11.9402
reference	-11.9403
capacité	-11.9403
impact	-11.9403
responsibility	-11.9404
politique	-11.9404
agenda	-11.9404
with	-11.9405
plus	-11.9405
train	-11.9424
référence	-11.943
avion	-11.9472
▁représentativ	-11.9489
▁soulign	-11.9493
▁character	-11.9501
parent	-11.9523
iberté	-11.9531
▁except	-11.9542
efence	-11.9553
▁portugais	-11.9554
éveloppement	-11.9555
▁sensitiv	-11.9574
spérons	-11.9574
olving	-11.9582
figur	-11.959
épargne	-11.9593
interroge	-11.9595
▁qualifie	-11.9596
▁inhabit	-11.96
▁complét	-11.9604
▁commit	-11.9607
hibitions	-11.9608
▁opérationnel	-11.9608
▁probable	-11.9609
venez	-11.9612
hapter	-11.9614
▁corrupt	-11.9615
ommunication	-11.9615
▁coincid	-11.9616
énorm	-11.9616
▁tight	-11.9617
▁Kosov	-11.9617
▁concert	-11.9618
▁bureaucrat	-11.9618
▁impress	-11.9618
▁officiel	-11.9619
ollution	-11.962
rojects	-11.962
easures	-11.9621
eaucoup	-11.9621
▁suspens	-11.9621
▁défavoris	-11.9622
▁obli	-11.9622
popular	-11.9622
requisite	-11.9622
▁Director	-11.9622
▁categor	-11.9623
▁syndica	-11.9623
rançais	-11.9623
▁minutie	-11.9623
Inde	-11.9624
Commiss	-11.9624
▁Concern	-11.9624
▁Through	-11.9624
▁circle	-11.9624
▁dépassé	-11.9624
▁superficial	-11.9624
5-0006/2000)	-11.9624
ONU	-11.9624
OTAN	-11.9624
apologie	-11.9624
effondrement	-11.9624
emorandum	-11.9624
escriptive	-11.9624
incompréhensible	-11.9624
intimidation	-11.9624
intolérance	-11.9624
misunderstanding	-11.9624
prudence	-11.9624
reliquats	-11.9624
stuffs	-11.9624
Écosse	-11.9624
écosystème	-11.9624
éligib	-11.9624
▁81(3)	-11.9624
▁Atlantic	-11.9624
▁Berenguer	-11.9624
▁Chinois	-11.9624
▁College	-11.9624
▁EDD	-11.9624
▁EMU	-11.9624
▁Gascogne	-11.9624
▁Geneva	-11.9624
▁Genève	-11.9624
▁Kirghistan	-11.9624
▁Kyrgyzstan	-11.9624
▁London	-11.9624
▁Londres	-11.9624
▁NATO	-11.9624
▁Network	-11.9624
▁Opportunities	-11.9624
▁Papayannakis	-11.9624
▁Personally	-11.9624
▁RINA	-11.9624
▁Radical	-11.9624
▁Scotland	-11.9624
▁Shepherdstown	-11.9624
▁Tadjikistan	-11.9624
▁Tajikistan	-11.9624
▁absorb	-11.9624
▁allégations	-11.9624
▁antifraude	-11.9624
▁artificiel	-11.9624
▁assassinat	-11.9624
▁assault	-11.9624
▁auspices	-11.9624
▁battle	-11.9624
▁belief	-11.9624
▁beneficiar	-11.9624
▁boundaries	-11.9624
▁bretonne	-11.9624
▁brûl	-11.9624
▁businesspeople	-11.9624
▁carburant	-11.9624
▁cautious	-11.9624
▁circonscription	-11.9624
▁coastline	-11.9624
▁colossal	-11.9624
▁commerciaux	-11.9624
▁competitor	-11.9624
▁complacency	-11.9624
▁conditionnalité	-11.9624
▁convincing	-11.9624
▁denominator	-11.9624
▁différenciée	-11.9624
▁diligen	-11.9624
▁dilution	-11.9624
▁disguise	-11.9624
▁disparu	-11.9624
▁disregard	-11.9624
▁dissimul	-11.9624
▁défavorable	-11.9624
▁dégradation	-11.9624
▁démontage	-11.9624
▁dépourvu	-11.9624
▁déterminant	-11.9624
▁ecosystem	-11.9624
▁embark	-11.9624
▁encouragé	-11.9624
▁exaggerat	-11.9624
▁franchement	-11.9624
▁fructueux	-11.9624
▁fréquemment	-11.9624
▁generous	-11.9624
▁gratuité	-11.9624
▁guilt	-11.9624
▁guise	-11.9624
▁hazardous	-11.9624
▁hierarchy	-11.9624
▁hypocrisy	-11.9624
▁hypocritical	-11.9624
▁illégale	-11.9624
▁impracticable	-11.9624
▁indifférent	-11.9624
▁ingrédient	-11.9624
▁inhérent	-11.9624
▁intolerance	-11.9624
▁judiciary	-11.9624
▁jungle	-11.9624
▁lendemain	-11.9624
▁littérature	-11.9624
▁mépris	-11.9624
▁obscur	-11.9624
▁pertinence	-11.9624
▁posteriori	-11.9624
▁prescribe	-11.9624
▁proclaim	-11.9624
▁prohibited	-11.9624
▁prolifération	-11.9624
▁prudent	-11.9624
▁préjudicielle	-11.9624
▁préretraite	-11.9624
▁pêché	-11.9624
▁racines	-11.9624
▁random	-11.9624
▁referendum	-11.9624
▁relevance	-11.9624
▁remarqué	-11.9624
▁remboursement	-11.9624
▁remplacement	-11.9624
▁replie	-11.9624
▁retombées	-11.9624
▁revoie	-11.9624
▁rhetoric	-11.9624
▁rigueur	-11.9624
▁réalisable	-11.9624
▁référendum	-11.9624
▁régulier	-11.9624
▁républicains	-11.9624
▁saluons	-11.9624
▁sceptical	-11.9624
▁scepticism	-11.9624
▁sceptique	-11.9624
▁secréta	-11.9624
▁souffl	-11.9624
▁split	-11.9624
▁spéciaux	-11.9624
▁spécificités	-11.9624
▁subordonné	-11.9624
▁subsidy	-11.9624
▁suspicion	-11.9624
▁symptom	-11.9624
▁symptôme	-11.9624
▁temperature	-11.9624
▁température	-11.9624
▁vérification	-11.9624
▁workplace	-11.9624
▁échéant	-11.9624
▁éleveurs	-11.9624
▁éloigné	-11.9624
▁énoncé	-11.9624
attarder	-11.9624
▁Altern	-11.9624
▁Larrea	-11.9624
▁Réunion	-11.9624
▁camps	-11.9624
▁dismantle	-11.9624
▁dédommag	-11.9624
▁détention	-11.9624
▁exagéré	-11.9624
▁indemni	-11.9624
▁marchands	-11.9624
▁numéro	-11.9624
▁planétaire	-11.9624
▁plomb	-11.9624
▁relevé	-11.9624
▁renferme	-11.9624
▁restructure	-11.9624
▁réitérer	-11.9624
▁secours	-11.9624
▁shredd	-11.9624
▁signature	-11.9624
▁solennelle	-11.9624
▁struggle	-11.9624
▁séparé	-11.9624
▁unequivocal	-11.9624
izarre	-11.9624
▁annulé	-11.9624
▁censure	-11.9624
▁compound	-11.9624
▁poisson	-11.9624
syrienne	-11.9624
éclat	-11.9624
▁litig	-11.9624
▁tapis	-11.9624
▁compté	-11.9624
▁conditionality	-11.9624
▁killed	-11.9624
▁prévision	-11.9624
▁illicites	-11.9624
▁regain	-11.9624
▁dubious	-11.9624
▁elev	-11.9624
▁slip	-11.9624
installer	-11.9624
▁Japon	-11.9624
▁inspecteurs	-11.9624
▁portuaire	-11.9624
▁dispers	-11.9624
▁divisé	-11.9624
▁premise	-11.9624
▁verify	-11.9624
interrompu	-11.9624
▁leftovers	-11.9624
▁macrofinanci	-11.9624
▁street	-11.9624
▁pierre	-11.9624
▁turc	-11.9624
▁densité	-11.9624
expuls	-11.9624
▁intégrale	-11.9624
▁puissants	-11.9624
▁habituelle	-11.9624
▁reveal	-11.9625
▁exceed	-11.9625
▁sorry	-11.9625
▁frustr	-11.9625
▁arrest	-11.9625
dmittedly	-11.9625
▁reunit	-11.9625
▁trente	-11.9625
▁alleviat	-11.9625
▁flame	-11.9625
▁forestière	-11.9625
▁dark	-11.9625
▁réparti	-11.9625
▁escape	-11.9625
▁grass	-11.9625
▁tempt	-11.9625
▁recueilli	-11.9625
émine	-11.9625
paquet	-11.9626
▁cinquant	-11.9626
▁foul	-11.9626
envoi	-11.9626
▁armé	-11.9627
▁music	-11.9628
▁abstenu	-11.9628
▁couche	-11.9628
apparaiss	-11.9628
▁seiz	-11.9628
▁creuse	-11.963
▁vuln	-11.9631
découvr	-11.9632
apprenti	-11.9633
▁obtiendr	-11.9634
▁thirt	-11.9635
arrange	-11.9637
▁sexu	-11.9638
▁accomplisse	-11.9639
autosatisfaction	-11.9643
rocureur	-11.9643
▁banalis	-11.9643
inciter	-11.9655
▁Sicil	-11.9673
▁généreuse	-11.9678
ological	-11.9678
audrait	-11.9695
ctifs	-11.9699
▁updat	-11.9701
▁bench	-11.9726
▁possess	-11.9745
▁encadr	-11.9784
▁présid	-11.9829
▁désapprouv	-11.9843
justement	-11.9988
constitution	-12.0078
affecte	-12.0188
▁réagi	-12.0235
▁assert	-12.0368
appartien	-12.043
lawful	-12.0431
identifie	-12.0458
suivra	-12.0488
humanité	-12.0592
▁consigne	-12.0837
papiers	-12.0961
▁matur	-12.1193
enthousiasme	-12.1221
solved	-12.1255
riste	-12.129
quality	-12.1315
▁criticis	-12.1399
▁injuste	-12.1418
▁obtien	-12.1558
▁aveugl	-12.159
enrichi	-12.1656
roupes	-12.1761
▁frapp	-12.1793
▁supprim	-12.1808
controlle	-12.1854
▁recognis	-12.1864
▁mécanisme	-12.1893
▁immigrant	-12.1894
inquiétude	-12.1897
événement	-12.1897
▁expert	-12.1897
offrir	-12.1897
Urban	-12.1898
inspection	-12.1899
class	-12.1899
Rapporteur	-12.1899
ambition	-12.1899
évidence	-12.19
évoque	-12.19
sensitive	-12.19
consistent	-12.1901
assumer	-12.1901
scoreboard	-12.1901
while	-12.1904
projet	-12.1904
through	-12.1904
communautaires	-12.1906
functional	-12.1952
▁consultati	-12.2002
socialis	-12.202
ctuellement	-12.2028
▁declar	-12.2035
▁histori	-12.2041
▁remov	-12.205
▁tabl	-12.2053
ignent	-12.2059
▁1999/21	-12.2068
▁produir	-12.2073
▁mainstream	-12.2083
▁diversifi	-12.2087
ociety	-12.2093
▁allocate	-12.2097
▁contraint	-12.2104
ntérieur	-12.2113
ultural	-12.2113
duction	-12.2114
▁specifi	-12.2114
▁quinquenna	-12.2115
incorpor	-12.2116
▁mutuel	-12.2118
thématique	-12.2119
▁eligib	-12.212
artisan	-12.212
accommod	-12.2122
▁uncertain	-12.2123
▁1997/0	-12.2124
électri	-12.2124
▁88/591/	-12.2124
▁Turkm	-12.2124
▁pharmaceuti	-12.2124
▁republic	-12.2124
5-0045/	-12.2124
Suffolk	-12.2124
mécanique	-12.2124
▁Natura	-12.2124
▁holiday	-12.2124
▁identical	-12.2124
▁phasing	-12.2124
-2004	-12.2124
066	-12.2124
095/1	-12.2124
5-0069/1999	-12.2124
6/99)	-12.2124
60/9	-12.2124
Adriatique	-12.2124
Alexand	-12.2124
Lothar	-12.2124
UCLAF	-12.2124
additionnalité	-12.2124
assouplissement	-12.2124
blowers	-12.2124
consuming	-12.2124
destructive	-12.2124
employabilité	-12.2124
fidèle	-12.2124
hypothèse	-12.2124
hésiter	-12.2124
incompétence	-12.2124
indign	-12.2124
intelligence	-12.2124
interprète	-12.2124
occulte	-12.2124
ordonnance	-12.2124
plaît	-12.2124
rgensen	-12.2124
stretched	-12.2124
ysfonctionnement	-12.2124
éclaircissements	-12.2124
éducatif	-12.2124
énonciation	-12.2124
épreuve	-12.2124
▁1957	-12.2124
▁1982	-12.2124
▁1993-1995	-12.2124
▁2496/96/	-12.2124
▁ADR	-12.2124
▁ATTAC	-12.2124
▁Assembly	-12.2124
▁Clinton	-12.2124
▁Collège	-12.2124
▁Cuxhaven	-12.2124
▁DOCUP	-12.2124
▁ERDF	-12.2124
▁Energy	-12.2124
▁Ethiopia	-12.2124
▁FEDER	-12.2124
▁Fisheries	-12.2124
▁Glasgow	-12.2124
▁Inglewood	-12.2124
▁Lannoye	-12.2124
▁Lorraine	-12.2124
▁Maintenant	-12.2124
▁Midlands	-12.2124
▁Napolitano	-12.2124
▁Nikitin	-12.2124
▁Ortega	-12.2124
▁Paddington	-12.2124
▁Peijs	-12.2124
▁Provid	-12.2124
▁Richter	-12.2124
▁Rotterdam	-12.2124
▁Roumanie	-12.2124
▁SOL	-12.2124
▁STAR	-12.2124
▁Solbes	-12.2124
▁Souladakis	-12.2124
▁TVA	-12.2124
▁Turkish	-12.2124
▁VAT	-12.2124
▁Velzen	-12.2124
▁Waffen	-12.2124
▁adjourned	-12.2124
▁afférente	-12.2124
▁applause	-12.2124
▁architecture	-12.2124
▁artificial	-12.2124
▁atmosph	-12.2124
▁autonomy	-12.2124
▁availability	-12.2124
▁bilatérale	-12.2124
▁boycott	-12.2124
▁buck	-12.2124
▁bénéfique	-12.2124
▁centuries	-12.2124
▁comitology	-12.2124
▁complémentarité	-12.2124
▁comprehensible	-12.2124
▁concrétisation	-12.2124
▁concurrents	-12.2124
▁conduise	-12.2124
▁conversations	-12.2124
▁conversion	-12.2124
▁coopèrent	-12.2124
▁credible	-12.2124
▁cruciaux	-12.2124
▁crédible	-12.2124
▁delinquency	-12.2124
▁demographic	-12.2124
▁distribue	-12.2124
▁débouché	-12.2124
▁défaillan	-12.2124
▁délibér	-12.2124
▁démolition	-12.2124
▁désertification	-12.2124
▁détaché	-12.2124
▁efforcé	-12.2124
▁emotion	-12.2124
▁enthusiasm	-12.2124
▁equivalent	-12.2124
▁experimental	-12.2124
▁extremist	-12.2124
▁fabrique	-12.2124
▁fascisme	-12.2124
▁fluctuations	-12.2124
▁forefront	-12.2124
▁fragility	-12.2124
▁fragment	-12.2124
▁fructueuse	-12.2124
▁ghettos	-12.2124
▁harsh	-12.2124
▁homog	-12.2124
▁hypocrite	-12.2124
▁immisc	-12.2124
▁impuissant	-12.2124
▁incapable	-12.2124
▁incroyable	-12.2124
▁insatisfaisant	-12.2124
▁insupportable	-12.2124
▁intolérable	-12.2124
▁irrational	-12.2124
▁irrationnel	-12.2124
▁irrelevant	-12.2124
▁jargon	-12.2124
▁legitimis	-12.2124
▁liberty	-12.2124
▁libération	-12.2124
▁libéré	-12.2124
▁licence	-12.2124
▁livelihood	-12.2124
▁lodged	-12.2124
▁lucrati	-12.2124
▁malentendu	-12.2124
▁matérielle	-12.2124
▁maximise	-12.2124
▁ministériel	-12.2124
▁mélange	-12.2124
▁mélodie	-12.2124
▁naître	-12.2124
▁neglect	-12.2124
▁obstruct	-12.2124
▁operandi	-12.2124
▁optimistic	-12.2124
▁participating	-12.2124
▁patriotism	-12.2124
▁perçoivent	-12.2124
▁pirates	-12.2124
▁populist	-12.2124
▁premature	-12.2124
▁prevail	-12.2124
▁précède	-12.2124
▁précédemment	-12.2124
▁péninsule	-12.2124
▁reaffirm	-12.2124
▁reconversion	-12.2124
▁recyclées	-12.2124
▁recyclés	-12.2124
▁recèle	-12.2124
▁remède	-12.2124
▁renoncé	-12.2124
▁reproduise	-12.2124
▁reputation	-12.2124
▁retrospecti	-12.2124
▁reçoivent	-12.2124
▁rhétorique	-12.2124
▁roulant	-12.2124
▁routine	-12.2124
▁récolte	-12.2124
▁référendaire	-12.2124
▁répandu	-12.2124
▁réputation	-12.2124
▁shareholders	-12.2124
▁shipyard	-12.2124
▁sinistre	-12.2124
▁souffert	-12.2124
▁species	-12.2124
▁specify	-12.2124
▁stakeholders	-12.2124
▁subscribe	-12.2124
▁subsidiaire	-12.2124
▁suffice	-12.2124
▁supplies	-12.2124
▁surenchère	-12.2124
▁sympathis	-12.2124
▁synonym	-12.2124
▁séparation	-12.2124
▁tolérable	-12.2124
▁tonight	-12.2124
▁toxicomanie	-12.2124
▁tragique	-12.2124
▁transeuropéen	-12.2124
▁tremblement	-12.2124
▁twice	-12.2124
▁unambiguous	-12.2124
▁unjustified	-12.2124
▁unquestionabl	-12.2124
▁unreasonable	-12.2124
▁unsatisfactory	-12.2124
▁unsuccessful	-12.2124
▁vanguard	-12.2124
▁victory	-12.2124
▁wisdom	-12.2124
▁yield	-12.2124
▁échou	-12.2124
▁écoulé	-12.2124
▁élites	-12.2124
▁énumér	-12.2124
achève	-12.2124
ccéder	-12.2124
▁96/71	-12.2124
▁ACP	-12.2124
▁Busquin	-12.2124
▁FMI	-12.2124
▁Haarder	-12.2124
▁Promoti	-12.2124
▁Ruiz	-12.2124
î	-14.5595
Q	-14.5596
ô	-14.5597
W	-14.5598
ê	-14.5599
